MEMORY_INITIALIZATION_RADIX = 16;
MEMORY_INITIALIZATION_VECTOR = 
ed,
21,
16,
06,
26,
42,
0b,
eb,
39,
e7,
bc,
29,
df,
1c,
e5,
0b,
fa,
ec,
4c,
e3,
ba,
25,
2e,
0a,
1e,
1c,
0e,
04,
d0,
f2,
0f,
1b,
ed,
20,
37,
14,
e8,
04,
cd,
c3,
0d,
19,
bc,
27,
f2,
e6,
17,
eb,
08,
fb,
07,
fd,
3d,
c9,
e4,
37,
1c,
02,
f2,
1e,
4c,
de,
d9,
e0,
32,
10,
35,
d9,
32,
2b,
d6,
0e,
21,
1b,
30,
b1,
30,
01,
ea,
25,
08,
11,
cc,
23,
f8,
3e,
1a,
24,
db,
21,
ce,
5a,
08,
09,
14,
df,
35,
1b,
e5,
de,
d9,
f7,
d6,
fd,
18,
ea,
14,
f5,
03,
eb,
01,
ed,
dc,
04,
16,
db,
eb,
b3,
12,
13,
2d,
22,
ff,
0a,
f2,
c4,
ea,
32,
d6,
0c,
11,
c9,
0a,
1c,
0b,
f2,
c2,
45,
f8,
ec,
ba,
01,
42,
e6,
cb,
2a,
ae,
0d,
da,
dd,
12,
be,
db,
26,
13,
29,
ea,
7f,
cd,
0b,
22,
25,
11,
09,
1e,
2f,
d1,
08,
17,
e4,
e9,
eb,
12,
1c,
d8,
fd,
e7,
e7,
29,
da,
eb,
ac,
cd,
f5,
19,
32,
14,
2f,
d1,
d1,
f1,
f0,
ff,
16,
1f,
e9,
eb,
f1,
0e,
1f,
d1,
fb,
f9,
38,
ea,
d4,
19,
fc,
cf,
4b,
1f,
28,
cb,
07,
fa,
31,
e9,
46,
13,
e6,
24,
2f,
bb,
12,
f6,
07,
00,
c6,
fa,
06,
df,
be,
e6,
12,
be,
01,
f6,
ec,
f5,
05,
13,
d4,
d9,
b4,
26,
10,
e7,
2c,
19,
15,
3c,
0d,
05,
ea,
39,
07,
14,
0b,
0f,
04,
0f,
d9,
ee,
1a,
44,
01,
43,
ad,
07,
e0,
15,
0e,
db,
00,
0d,
2c,
2d,
10,
0b,
20,
41,
00,
ee,
d9,
fe,
26,
1d,
f7,
ea,
f8,
da,
14,
0e,
12,
0b,
15,
f0,
bb,
20,
e7,
ff,
1f,
ff,
04,
e3,
d5,
36,
e9,
ef,
20,
ca,
9f,
32,
cb,
07,
fc,
be,
fe,
e3,
d1,
d0,
ff,
14,
d7,
fd,
e4,
d6,
e7,
cc,
1f,
b8,
3a,
12,
d9,
d7,
db,
ee,
f8,
e6,
f7,
25,
02,
25,
dc,
da,
15,
00,
be,
eb,
07,
ea,
20,
0a,
e9,
f1,
e6,
ff,
f3,
fc,
cf,
19,
d1,
03,
2d,
3a,
07,
2e,
de,
02,
f9,
09,
e4,
e4,
dc,
0a,
ec,
f5,
ff,
0d,
f1,
14,
25,
2e,
fc,
1e,
13,
e6,
ea,
de,
e7,
25,
02,
3d,
ea,
e7,
c0,
58,
ea,
2b,
18,
22,
d8,
29,
f2,
0a,
0d,
de,
3a,
07,
ed,
15,
14,
26,
df,
fa,
fc,
03,
e5,
fc,
e8,
c9,
ee,
17,
cd,
16,
ff,
1b,
05,
14,
e8,
3f,
14,
e5,
d3,
e2,
4a,
02,
d7,
38,
f3,
03,
fc,
ea,
f2,
18,
fa,
0e,
e6,
cc,
e9,
f9,
0a,
e8,
08,
ec,
0d,
44,
e2,
d2,
20,
ef,
eb,
2d,
bf,
42,
ea,
03,
0a,
ed,
0d,
15,
02,
08,
fc,
11,
07,
1d,
d5,
24,
e2,
b5,
f8,
07,
56,
ca,
13,
28,
19,
32,
ca,
20,
d8,
e2,
12,
ed,
ee,
b9,
fe,
f0,
7f,
14,
e7,
e5,
0e,
f1,
f1,
e8,
ee,
2a,
3a,
1e,
f9,
10,
1a,
ef,
ea,
0a,
1c,
f3,
f5,
32,
d5,
2d,
de,
f8,
eb,
17,
20,
02,
17,
28,
a2,
de,
22,
06,
00,
fb,
27,
fa,
0e,
ec,
04,
17,
ef,
14,
ea,
b2,
2e,
dc,
0b,
09,
01,
0a,
2b,
03,
19,
10,
09,
ff,
30,
ed,
40,
08,
00,
35,
c8,
da,
05,
23,
da,
11,
ec,
28,
0a,
d1,
09,
17,
c7,
fb,
e2,
1b,
fe,
05,
f0,
02,
29,
e7,
03,
40,
f7,
f4,
16,
0a,
f0,
29,
15,
03,
27,
11,
fa,
e9,
18,
02,
f7,
16,
e0,
1a,
00,
fb,
ec,
df,
f9,
17,
32,
0f,
f7,
03,
d2,
31,
c1,
11,
ed,
0f,
e3,
1d,
0f,
f6,
09,
e5,
09,
f8,
e1,
10,
fb,
fb,
0f,
08,
12,
21,
f9,
f0,
fb,
15,
e2,
1b,
e1,
e7,
ea,
0d,
f6,
04,
08,
2b,
00,
ed,
d8,
be,
45,
d2,
03,
ef,
0e,
f3,
e6,
0c,
d7,
39,
06,
c5,
7f,
32,
34,
0b,
1a,
f8,
e7,
ff,
08,
e9,
e9,
ff,
05,
f4,
fa,
dd,
23,
19,
16,
dc,
f0,
37,
f6,
11,
ef,
05,
08,
ea,
f5,
01,
fb,
e0,
00,
f5,
15,
dc,
e3,
f8,
05,
11,
07,
0c,
da,
2c,
f0,
ec,
02,
f1,
06,
ed,
0b,
e5,
13,
08,
e7,
e3,
28,
05,
f1,
13,
16,
f2,
ed,
23,
e5,
0c,
2b,
1c,
f2,
0c,
12,
ec,
1b,
2d,
c8,
f2,
e9,
f9,
ef,
d7,
f1,
ea,
fa,
1c,
fb,
fd,
18,
15,
12,
e4,
07,
12,
02,
dc,
f6,
d9,
08,
fc,
0a,
da,
0d,
14,
f5,
0a,
fe,
dc,
be,
fa,
3b,
a6,
f9,
58,
00,
98,
19,
e9,
c8,
3d,
d9,
eb,
44,
6f,
e9,
f2,
45,
e3,
0c,
fd,
d0,
10,
eb,
61,
bb,
b7,
2c,
08,
03,
34,
f7,
0c,
2c,
fa,
d7,
0b,
2c,
b7,
2a,
a9,
09,
ce,
db,
18,
ed,
d6,
f5,
74,
3b,
b8,
ca,
39,
15,
10,
c0,
20,
c7,
1a,
2d,
0a,
02,
08,
dd,
f3,
3d,
f5,
e8,
f3,
04,
03,
d5,
f6,
26,
3c,
23,
cb,
ec,
e5,
b3,
fb,
02,
ca,
51,
1e,
e0,
27,
ca,
1a,
0f,
dd,
0c,
c0,
de,
05,
17,
42,
06,
1e,
d8,
d5,
44,
0c,
19,
ee,
ee,
e2,
13,
e0,
3c,
f8,
00,
22,
43,
0b,
0b,
04,
b2,
f5,
d8,
fb,
15,
21,
dc,
3c,
11,
02,
de,
b6,
3b,
d0,
50,
06,
1e,
2b,
ec,
d0,
3c,
b4,
52,
1c,
e4,
e4,
19,
ff,
42,
ed,
e4,
a5,
7f,
ea,
08,
32,
68,
26,
e5,
df,
1d,
e7,
e4,
1e,
02,
da,
ed,
2e,
02,
0d,
db,
c4,
07,
64,
af,
18,
d5,
ca,
d4,
1c,
e4,
da,
0a,
fa,
18,
ed,
18,
f4,
ee,
ff,
01,
f4,
e5,
ec,
f3,
3a,
d4,
9e,
10,
01,
06,
ff,
dc,
fa,
a9,
27,
dc,
ff,
05,
ef,
d3,
ee,
7a,
1e,
ba,
e7,
02,
f4,
ee,
38,
00,
3c,
58,
e2,
e7,
51,
e7,
ce,
74,
bb,
6b,
3d,
1e,
ef,
2c,
08,
2f,
13,
cc,
08,
29,
00,
08,
f7,
cb,
e2,
eb,
f4,
f9,
e8,
24,
0b,
fb,
15,
fd,
fb,
f0,
fe,
ed,
da,
f8,
d6,
1c,
48,
c7,
ce,
49,
11,
d7,
fd,
3d,
fc,
c7,
0a,
f3,
21,
fb,
b7,
ee,
0a,
16,
f9,
f2,
14,
e3,
fb,
f4,
23,
ec,
01,
11,
1c,
05,
06,
09,
f8,
ff,
e4,
00,
ef,
f3,
d9,
20,
c9,
39,
cb,
fb,
35,
39,
b0,
f9,
e6,
21,
18,
d9,
e2,
05,
30,
14,
fb,
fc,
e8,
ef,
d1,
b8,
17,
25,
19,
e2,
f7,
e8,
17,
20,
ef,
e2,
eb,
eb,
30,
dd,
f3,
f5,
f3,
fa,
f0,
fc,
04,
0f,
f1,
ec,
18,
17,
09,
e7,
12,
f0,
fc,
36,
d7,
fc,
05,
10,
bb,
3b,
f4,
e1,
ef,
10,
02,
1c,
f7,
dc,
0c,
f7,
f6,
0b,
f2,
40,
11,
ce,
eb,
11,
0c,
e1,
ef,
f7,
ee,
13,
10,
e3,
08,
1a,
f5,
01,
08,
f5,
f9,
bf,
10,
1c,
14,
fd,
01,
09,
20,
fc,
be,
25,
07,
c1,
2a,
f7,
fa,
d7,
f6,
14,
30,
f3,
fa,
e9,
1d,
19,
f6,
f3,
08,
e2,
f0,
f9,
fe,
f1,
d6,
1d,
da,
38,
fd,
03,
eb,
0e,
fe,
00,
1a,
17,
11,
fd,
ff,
f8,
01,
d8,
f2,
0e,
d8,
1b,
1a,
fa,
05,
fd,
f7,
e8,
fe,
ea,
21,
f6,
cc,
40,
fe,
eb,
0c,
d4,
f7,
31,
e7,
18,
11,
f5,
08,
0e,
e5,
2e,
41,
ef,
27,
09,
f1,
e7,
3d,
f8,
02,
e4,
fa,
28,
dd,
20,
c9,
0c,
7f,
fa,
07,
f8,
f4,
fd,
18,
09,
e7,
02,
1e,
ef,
04,
f0,
01,
35,
f6,
dd,
ff,
1d,
c5,
df,
f3,
12,
c9,
65,
1f,
9f,
46,
18,
c4,
03,
10,
12,
16,
b8,
ed,
02,
f6,
03,
16,
0c,
20,
2d,
1d,
11,
e0,
2e,
38,
e2,
3b,
05,
ef,
22,
de,
fe,
f4,
21,
e0,
1e,
13,
3a,
10,
f8,
34,
10,
b1,
42,
35,
db,
84,
b2,
e1,
d1,
22,
e8,
44,
e7,
f7,
26,
10,
30,
d9,
0a,
30,
f0,
d8,
df,
1c,
29,
06,
13,
83,
0f,
f7,
ea,
0a,
1d,
eb,
0e,
fd,
2f,
33,
e6,
18,
26,
f7,
25,
f4,
ec,
ff,
1d,
d8,
07,
47,
29,
ae,
28,
16,
22,
f7,
2a,
1b,
e2,
3b,
eb,
f2,
29,
25,
0b,
09,
a7,
00,
db,
e8,
fd,
e2,
0d,
fd,
0e,
ee,
20,
e7,
da,
e7,
df,
b3,
23,
3a,
0e,
1e,
ef,
32,
1e,
ee,
f4,
fb,
7f,
2a,
c3,
0f,
28,
10,
15,
00,
f9,
14,
be,
a1,
1a,
e7,
d9,
2c,
f4,
0e,
ab,
d8,
e7,
e5,
31,
e5,
0d,
10,
0a,
fb,
17,
13,
20,
da,
d1,
21,
21,
1b,
de,
17,
14,
1d,
0f,
d7,
31,
12,
1b,
29,
24,
d3,
06,
f3,
e1,
d7,
08,
27,
ef,
e4,
fa,
08,
c7,
cd,
32,
17,
1b,
10,
24,
27,
f6,
ed,
d3,
fb,
48,
1e,
f7,
f2,
97,
d4,
e8,
14,
49,
fb,
24,
dd,
ff,
36,
b4,
de,
d9,
d2,
65,
fa,
f3,
38,
86,
d3,
b6,
46,
08,
0a,
e1,
5a,
df,
27,
04,
e4,
2b,
d7,
f2,
03,
15,
f2,
ce,
f6,
47,
fe,
ed,
d8,
12,
f1,
0d,
d4,
ce,
0d,
fb,
cc,
17,
c9,
1e,
22,
c0,
c0,
23,
1a,
93,
d6,
3f,
2d,
27,
be,
fc,
25,
f6,
26,
d9,
dd,
1d,
ff,
f2,
06,
1b,
eb,
04,
30,
c6,
e5,
17,
d1,
18,
e4,
e7,
0f,
44,
22,
14,
4b,
d8,
18,
ad,
03,
f4,
1c,
c0,
47,
14,
48,
89,
f2,
01,
36,
cb,
ee,
e4,
db,
2d,
2e,
25,
14,
63,
b0,
d2,
12,
34,
f2,
1c,
c5,
cf,
13,
4f,
10,
f4,
c6,
36,
d4,
09,
e9,
eb,
17,
f0,
19,
19,
e0,
dd,
c6,
13,
ac,
e8,
e6,
0f,
0f,
98,
03,
c4,
cb,
ee,
07,
af,
36,
43,
ee,
ef,
d0,
b6,
ed,
fb,
07,
e4,
e2,
fd,
dc,
b5,
23,
3b,
f2,
db,
f5,
06,
d2,
f2,
08,
f7,
cb,
2d,
f7,
bf,
f4,
0e,
3e,
38,
03,
46,
d4,
34,
fb,
f1,
42,
1b,
e5,
25,
3f,
0f,
b6,
65,
ca,
1a,
d6,
16,
cc,
b6,
e0,
00,
eb,
03,
d8,
d7,
2b,
00,
2d,
19,
f1,
fb,
fb,
f6,
7f,
a3,
29,
94,
d2,
49,
db,
28,
d5,
24,
03,
12,
d7,
fc,
27,
15,
de,
08,
e2,
25,
24,
e3,
3e,
2d,
d8,
29,
19,
db,
c0,
fb,
21,
f1,
46,
ab,
de,
04,
18,
e9,
29,
b4,
2b,
1e,
ff,
23,
09,
d8,
e7,
c4,
c2,
04,
ac,
f8,
25,
22,
c9,
2b,
d4,
db,
0e,
bb,
28,
13,
48,
ea,
a9,
f2,
23,
2e,
05,
27,
d6,
0a,
dd,
e3,
d6,
17,
21,
f6,
11,
fc,
e8,
12,
0d,
de,
e7,
13,
1f,
b3,
14,
d7,
e3,
4f,
21,
0e,
e8,
18,
fb,
28,
10,
b6,
a2,
f4,
0c,
e2,
16,
d2,
23,
fa,
12,
0c,
b6,
5b,
63,
df,
3a,
1c,
df,
f2,
2c,
18,
23,
05,
0d,
eb,
34,
ae,
0a,
35,
20,
f5,
be,
fe,
64,
df,
a1,
19,
f6,
37,
c1,
55,
e2,
38,
d5,
39,
07,
22,
0a,
22,
ef,
10,
f7,
df,
01,
fa,
3b,
18,
d4,
fc,
39,
32,
be,
cd,
b6,
f6,
02,
de,
24,
ee,
02,
ce,
e8,
fa,
01,
2d,
0d,
f7,
2d,
08,
f9,
de,
e9,
38,
38,
c4,
16,
1b,
3e,
c5,
52,
0e,
f0,
0b,
27,
10,
22,
17,
de,
0e,
08,
f6,
00,
32,
19,
2b,
13,
df,
dc,
db,
11,
00,
30,
f5,
e9,
e8,
7d,
d6,
0f,
f0,
16,
aa,
c1,
26,
d8,
d4,
39,
ad,
ec,
31,
e7,
f7,
20,
09,
38,
c2,
0a,
e9,
f5,
32,
1e,
de,
f9,
12,
18,
f4,
3f,
e5,
26,
01,
e2,
e4,
2c,
06,
d0,
04,
07,
1a,
b7,
14,
c2,
1a,
b4,
ee,
15,
16,
1e,
0f,
1a,
e1,
15,
09,
20,
e3,
22,
04,
e7,
ff,
2c,
eb,
80,
4c,
59,
e0,
ed,
ff,
0f,
f2,
1e,
e5,
f1,
04,
3d,
c3,
07,
15,
06,
a7,
e8,
1e,
f4,
1a,
18,
16,
49,
bc,
20,
c9,
0d,
f8,
ca,
3b,
f1,
b9,
73,
db,
e6,
24,
26,
13,
ff,
a9,
ef,
3c,
f5,
01,
0b,
1f,
f5,
22,
05,
db,
f4,
43,
2a,
c2,
e3,
18,
e6,
03,
11,
22,
16,
ec,
3e,
02,
7f,
ac,
db,
dd,
e9,
f1,
29,
e7,
15,
f6,
fb,
47,
04,
01,
1e,
23,
02,
f9,
f4,
03,
d8,
e9,
ef,
fe,
97,
f0,
e5,
37,
30,
19,
fd,
0b,
18,
f8,
07,
e6,
ea,
f4,
b4,
38,
08,
fe,
60,
f8,
aa,
f8,
57,
0d,
23,
c4,
ff,
ed,
fc,
17,
45,
ef,
f1,
ff,
f4,
e2,
f4,
1e,
fd,
1c,
e1,
dd,
1e,
df,
f4,
1c,
15,
f2,
29,
12,
26,
09,
df,
bf,
e7,
1c,
fb,
f4,
28,
0f,
08,
eb,
fa,
ea,
0e,
0b,
f2,
f5,
06,
ee,
14,
c2,
0d,
ee,
2c,
23,
e7,
ad,
13,
d2,
f3,
f3,
11,
11,
06,
f2,
0c,
17,
19,
fc,
e4,
d9,
f9,
02,
ec,
f8,
15,
f1,
3d,
cb,
06,
10,
f2,
fc,
e4,
0f,
2a,
d0,
1c,
bf,
d9,
18,
02,
02,
19,
08,
f7,
2e,
1f,
fd,
60,
bd,
eb,
49,
43,
14,
05,
12,
1e,
00,
da,
1a,
e5,
1f,
0c,
00,
18,
e7,
00,
0c,
16,
dd,
dc,
c0,
0d,
f5,
0a,
b0,
28,
14,
0d,
18,
07,
1d,
0d,
f9,
19,
0c,
d7,
e9,
df,
1c,
0e,
f6,
09,
f7,
2e,
07,
c9,
ee,
e3,
f9,
f0,
e6,
f6,
24,
2e,
16,
e4,
dd,
12,
de,
f6,
54,
ed,
dd,
ea,
d5,
1c,
1c,
04,
ec,
f1,
66,
fb,
14,
24,
d7,
fa,
01,
02,
16,
0a,
32,
d1,
cb,
02,
19,
bd,
22,
07,
07,
1b,
e9,
08,
26,
0c,
f5,
05,
1b,
db,
d3,
06,
02,
08,
f8,
ff,
17,
f5,
f1,
cd,
57,
e0,
df,
fd,
e4,
f0,
e3,
4e,
da,
bc,
1e,
07,
2f,
1f,
e9,
0e,
f0,
0b,
30,
f9,
f2,
18,
df,
7f,
ad,
e0,
c6,
f2,
de,
21,
10,
de,
e4,
e5,
18,
ee,
04,
fe,
30,
1e,
bc,
d0,
00,
0d,
c2,
d6,
3a,
4f,
d2,
fd,
f4,
51,
ed,
f7,
0f,
0a,
f7,
f5,
22,
05,
1a,
ee,
0e,
2e,
cf,
d3,
e2,
d4,
27,
65,
10,
ca,
c4,
36,
42,
3e,
b7,
0d,
16,
f5,
16,
d2,
32,
2e,
09,
08,
e8,
f7,
01,
10,
fc,
0f,
e8,
20,
e3,
ce,
62,
f4,
0e,
b0,
56,
d6,
22,
fe,
c9,
f2,
10,
ef,
ef,
3a,
f7,
08,
1b,
05,
c8,
e3,
da,
da,
10,
14,
f6,
f4,
1f,
17,
04,
17,
ed,
97,
44,
c1,
14,
97,
35,
63,
9b,
36,
f4,
e6,
14,
08,
e5,
26,
dc,
c0,
2d,
f4,
2e,
fa,
b7,
cc,
f1,
06,
27,
00,
ed,
0d,
1e,
d9,
0f,
10,
05,
0f,
09,
04,
c2,
fd,
03,
f5,
d0,
28,
d5,
f6,
ff,
1c,
f9,
0c,
03,
f8,
f3,
f1,
f4,
0f,
11,
e8,
08,
0c,
09,
ea,
fe,
f3,
e3,
18,
f9,
ce,
08,
1b,
07,
07,
10,
e7,
0e,
31,
e2,
e1,
3d,
06,
de,
01,
0f,
ee,
15,
d9,
07,
fe,
04,
0c,
19,
de,
fe,
08,
10,
19,
ca,
d5,
15,
e1,
46,
f9,
ed,
df,
2f,
f7,
17,
f0,
8f,
14,
f0,
ed,
0d,
ef,
16,
ed,
f2,
f7,
d2,
d9,
39,
fa,
17,
d6,
fb,
2b,
d6,
03,
f8,
3b,
d1,
fe,
2c,
f0,
d9,
13,
47,
05,
0d,
12,
3f,
13,
d5,
d3,
0d,
56,
c9,
14,
e9,
27,
07,
18,
25,
c4,
2a,
54,
3e,
01,
f5,
11,
fd,
e6,
ed,
db,
e3,
ef,
de,
09,
00,
1b,
ab,
11,
11,
0e,
4f,
15,
95,
ef,
be,
fe,
ce,
cc,
fd,
1a,
a7,
cf,
37,
00,
1b,
f0,
10,
01,
1f,
1c,
c6,
f0,
4d,
e8,
4b,
a5,
10,
22,
34,
cf,
fd,
18,
18,
31,
e5,
33,
f0,
d5,
dc,
e2,
1f,
c7,
2c,
2e,
18,
04,
f9,
5a,
00,
ad,
3c,
24,
f5,
ea,
07,
2f,
2b,
08,
b0,
be,
34,
25,
00,
05,
b0,
d1,
04,
d4,
ec,
df,
08,
2a,
00,
e3,
e9,
fa,
f5,
0a,
24,
cb,
31,
27,
0c,
2b,
3e,
24,
0d,
f2,
d4,
ee,
29,
41,
e8,
64,
fb,
eb,
ec,
ec,
0c,
12,
0c,
ea,
ff,
f7,
b9,
04,
07,
e3,
e4,
ff,
1c,
e8,
0a,
2b,
d2,
1f,
26,
e2,
0d,
2d,
21,
2f,
25,
30,
37,
bb,
04,
b8,
09,
09,
d6,
02,
34,
2c,
2d,
f0,
d8,
03,
20,
22,
24,
3f,
11,
df,
00,
31,
f9,
38,
1b,
c9,
d4,
df,
13,
f8,
ec,
03,
27,
0e,
26,
2d,
e9,
f0,
40,
e6,
d1,
d8,
17,
1f,
db,
f4,
d5,
be,
08,
f4,
fd,
3e,
d8,
e8,
32,
2b,
c0,
3a,
98,
19,
04,
17,
ef,
d1,
80,
4f,
3e,
10,
d5,
f3,
16,
18,
10,
fb,
db,
26,
ef,
47,
1e,
01,
1a,
e6,
ef,
0b,
4b,
13,
1a,
ff,
e2,
1f,
52,
40,
a2,
04,
37,
e4,
15,
31,
eb,
f3,
13,
60,
37,
04,
ea,
35,
e4,
ee,
ec,
c7,
f8,
ed,
d4,
c9,
01,
27,
f3,
29,
07,
fc,
36,
34,
17,
15,
10,
d1,
41,
c6,
2e,
2b,
29,
46,
ff,
f9,
c5,
d9,
07,
e1,
04,
0c,
ef,
4e,
94,
98,
ea,
20,
0f,
05,
e1,
e7,
ed,
fe,
3b,
f8,
f7,
3a,
ef,
be,
e2,
d1,
d7,
25,
e9,
e2,
17,
0d,
00,
e8,
1b,
28,
34,
db,
28,
ef,
f8,
19,
ee,
dd,
25,
0d,
2c,
ef,
d1,
08,
d2,
0f,
0d,
4d,
33,
c6,
11,
f5,
02,
10,
03,
13,
05,
22,
de,
f5,
de,
e9,
39,
01,
4f,
44,
e5,
13,
14,
06,
22,
c1,
de,
0f,
03,
d8,
9e,
f3,
37,
2c,
e3,
d3,
1b,
c7,
fc,
e6,
3b,
eb,
e4,
d8,
06,
38,
ea,
ce,
db,
cf,
60,
0a,
31,
26,
36,
05,
eb,
1c,
06,
29,
e0,
25,
12,
12,
18,
cb,
58,
2c,
d9,
f7,
ca,
3a,
e7,
39,
aa,
75,
dc,
21,
0b,
06,
02,
1c,
ea,
1b,
21,
11,
00,
e5,
25,
1a,
0a,
36,
0a,
66,
d2,
d0,
f1,
e1,
ea,
2a,
0f,
25,
0f,
01,
f7,
fb,
f0,
15,
b8,
20,
1e,
0c,
c6,
e6,
f9,
fe,
0e,
80,
ee,
0b,
f7,
d0,
ff,
20,
14,
59,
e3,
a9,
e7,
15,
c7,
10,
c4,
ab,
02,
36,
1d,
e1,
1d,
20,
10,
1d,
f4,
c3,
04,
26,
c9,
fc,
10,
fc,
fb,
1c,
11,
26,
14,
f6,
c4,
50,
d4,
b8,
01,
aa,
41,
f9,
b2,
15,
1a,
44,
d5,
e7,
fe,
00,
f2,
ad,
fe,
6a,
02,
04,
f2,
e2,
ff,
d5,
4f,
5d,
64,
b8,
29,
f2,
ed,
e3,
1d,
d0,
d8,
0a,
06,
25,
04,
1b,
2f,
0a,
bc,
39,
fc,
26,
fc,
04,
c6,
29,
2b,
17,
c6,
c3,
40,
37,
f2,
b0,
ff,
17,
e5,
21,
24,
0c,
35,
e0,
cb,
c2,
46,
2d,
17,
d9,
e1,
de,
26,
0a,
26,
ca,
ee,
31,
0a,
b4,
07,
15,
1b,
1b,
20,
1c,
08,
1b,
f1,
07,
0f,
cd,
68,
e4,
da,
36,
f8,
0a,
dd,
1d,
94,
19,
fe,
0d,
11,
21,
dd,
c9,
01,
f1,
f6,
02,
dc,
e2,
8e,
c3,
5b,
02,
f5,
07,
f7,
25,
ef,
fa,
21,
e5,
74,
1b,
ed,
0c,
14,
41,
e5,
f8,
40,
e3,
19,
0c,
d3,
20,
eb,
d2,
18,
09,
d2,
c4,
5f,
9c,
1f,
0e,
18,
f6,
cd,
cd,
00,
01,
46,
dd,
f0,
19,
1e,
08,
08,
05,
16,
f5,
29,
1e,
80,
1e,
d0,
de,
22,
19,
df,
f3,
df,
df,
df,
e3,
e7,
f8,
de,
f9,
1b,
19,
fd,
2e,
e0,
e6,
2a,
1f,
10,
0a,
0c,
db,
19,
c5,
e3,
19,
cc,
f5,
1f,
fb,
23,
e7,
db,
16,
f5,
fc,
ea,
cb,
f4,
55,
d2,
84,
23,
0e,
fc,
e0,
ff,
8d,
51,
de,
54,
1b,
1e,
ec,
05,
63,
e3,
94,
1a,
09,
f2,
14,
f6,
fe,
21,
0d,
fe,
27,
dc,
15,
ef,
0c,
f6,
fe,
0a,
0d,
d7,
10,
09,
f3,
2b,
2f,
f6,
09,
e2,
f4,
03,
18,
09,
c2,
26,
2c,
22,
12,
0f,
f0,
ea,
f4,
ed,
1b,
1c,
f6,
f3,
51,
cf,
eb,
c7,
fb,
ce,
2a,
05,
fb,
b1,
24,
e7,
ea,
fd,
08,
28,
0e,
b7,
de,
f5,
eb,
f3,
da,
fb,
36,
ef,
0b,
eb,
34,
e2,
ef,
f2,
02,
1c,
e1,
1c,
f5,
f2,
0e,
e7,
04,
c9,
e0,
fc,
c4,
13,
3f,
ee,
f8,
f9,
2a,
2b,
42,
e5,
0a,
e0,
dd,
08,
00,
0e,
ed,
10,
1e,
e8,
f7,
07,
fc,
0d,
1e,
0f,
0f,
f6,
ef,
35,
d1,
12,
f7,
42,
d2,
0d,
f7,
ff,
e2,
16,
1e,
16,
22,
1b,
e6,
01,
06,
ae,
f1,
15,
ea,
e4,
10,
08,
1e,
f9,
18,
f5,
fe,
14,
ee,
08,
e7,
35,
f7,
28,
51,
eb,
1e,
ef,
0d,
45,
19,
0f,
f1,
eb,
df,
f4,
ef,
f3,
09,
80,
f8,
c6,
f2,
28,
1a,
db,
00,
1d,
03,
f8,
03,
fd,
0b,
ff,
1a,
c5,
20,
0c,
e2,
f9,
16,
25,
e2,
1c,
26,
dd,
e8,
fb,
02,
0b,
19,
1b,
14,
e9,
e1,
08,
f4,
02,
f2,
f2,
d5,
fd,
3c,
df,
f0,
d4,
0c,
e9,
e2,
0f,
e7,
09,
26,
df,
f9,
14,
fd,
f3,
0b,
e1,
fe,
d0,
01,
d8,
f0,
f7,
04,
4b,
eb,
1b,
f3,
fc,
f9,
ed,
e6,
11,
dd,
26,
fb,
f2,
c5,
1d,
fb,
17,
e7,
d7,
e7,
17,
17,
16,
fa,
e0,
11,
ff,
18,
0c,
d7,
23,
09,
fa,
01,
18,
eb,
e1,
f2,
f8,
e0,
18,
4e,
9f,
e3,
25,
4b,
ec,
04,
35,
d7,
13,
45,
0a,
9d,
15,
19,
f1,
ca,
0d,
f7,
26,
1f,
ea,
08,
ff,
be,
a7,
11,
d3,
0b,
16,
ed,
d8,
fc,
07,
f4,
f5,
3b,
d6,
ed,
00,
fd,
db,
c2,
09,
10,
f4,
13,
b5,
15,
ea,
f3,
12,
aa,
1d,
1c,
fd,
e9,
05,
02,
05,
e6,
02,
ec,
e3,
dd,
34,
07,
e9,
0d,
f3,
1a,
fb,
e9,
f6,
1c,
d8,
f2,
0c,
d4,
fc,
1d,
c9,
1a,
18,
0e,
05,
e5,
ef,
0a,
14,
f0,
09,
06,
d0,
ef,
15,
03,
10,
0f,
d8,
42,
13,
fd,
0d,
15,
e4,
0c,
1b,
16,
15,
2c,
dd,
20,
09,
f1,
15,
12,
0e,
f7,
07,
df,
fd,
28,
e6,
0d,
e5,
53,
02,
14,
b1,
27,
e5,
f2,
40,
36,
09,
4b,
ed,
f2,
f1,
d8,
26,
d8,
be,
25,
fe,
41,
80,
36,
d8,
e5,
c6,
13,
35,
eb,
d7,
fa,
d6,
e7,
01,
07,
e0,
29,
d9,
1f,
fb,
2a,
08,
c8,
69,
f8,
40,
0d,
0e,
0f,
f0,
05,
08,
00,
ef,
e7,
17,
dc,
e7,
03,
14,
f4,
f1,
dc,
ea,
f3,
de,
43,
c4,
14,
07,
fc,
fb,
18,
e2,
fc,
02,
de,
12,
f9,
00,
e3,
84,
1a,
17,
23,
07,
0c,
03,
2e,
2b,
1f,
05,
e1,
1e,
22,
f8,
fb,
e5,
75,
e1,
10,
12,
df,
20,
08,
de,
d1,
4c,
14,
02,
03,
e7,
0d,
ed,
eb,
21,
cb,
4f,
1a,
cf,
e1,
f2,
0c,
09,
19,
08,
ec,
3d,
c1,
f8,
67,
04,
fa,
ee,
c9,
d4,
38,
bc,
d8,
08,
04,
0d,
ff,
24,
3e,
e0,
c8,
f0,
11,
e5,
15,
17,
fb,
fa,
80,
9d,
32,
2a,
cc,
f3,
e3,
0c,
23,
2a,
05,
06,
46,
be,
e8,
36,
d1,
36,
ff,
0c,
c4,
20,
2c,
50,
ac,
29,
bc,
69,
c2,
fb,
18,
24,
30,
c1,
ed,
08,
ec,
06,
0f,
df,
42,
18,
5b,
c2,
0f,
0e,
3c,
fd,
24,
0b,
cc,
e3,
1b,
37,
d8,
13,
3e,
d1,
2c,
e7,
04,
cf,
15,
ec,
28,
ec,
b9,
ea,
59,
83,
f2,
06,
0b,
0a,
f5,
ca,
d5,
3a,
18,
eb,
df,
ff,
03,
62,
05,
dc,
e8,
d6,
f7,
fb,
e4,
47,
f5,
b7,
ff,
1b,
d5,
bc,
2d,
f4,
de,
0e,
0f,
9e,
13,
f6,
f9,
f2,
c3,
d8,
d4,
c8,
fc,
ac,
1f,
1b,
be,
0f,
16,
e6,
62,
06,
67,
da,
68,
18,
e0,
e9,
ed,
25,
4b,
11,
16,
fb,
07,
f4,
f7,
06,
e2,
d5,
d7,
f9,
1b,
c2,
c2,
60,
23,
0f,
0a,
05,
e0,
f9,
1d,
18,
ec,
e3,
19,
23,
ea,
de,
1f,
02,
fd,
ec,
ee,
e8,
bd,
fa,
04,
e3,
0e,
e1,
06,
e3,
0b,
13,
b7,
3d,
01,
c4,
15,
d1,
ed,
21,
17,
f8,
30,
db,
48,
e6,
fc,
e8,
2d,
0a,
3f,
e6,
ee,
f1,
4b,
d6,
f4,
13,
ef,
56,
d0,
1b,
f2,
46,
26,
ed,
ea,
10,
ee,
e8,
ff,
0d,
e7,
11,
d5,
3a,
d0,
a3,
1e,
00,
f6,
ec,
06,
0b,
26,
19,
e6,
56,
15,
39,
45,
fd,
be,
e6,
4b,
db,
d3,
33,
0a,
2d,
51,
00,
1b,
e7,
c8,
fa,
08,
ea,
f9,
02,
39,
b6,
ce,
ef,
07,
f7,
22,
33,
1f,
cf,
2c,
27,
ec,
18,
07,
0c,
eb,
cb,
f8,
3b,
42,
dc,
c1,
0f,
14,
0a,
f9,
f4,
02,
1f,
20,
d9,
d1,
e9,
16,
f8,
ed,
e5,
13,
e9,
f9,
ce,
16,
fb,
cd,
f4,
47,
f1,
f0,
c9,
3f,
f8,
11,
06,
06,
25,
db,
0b,
e6,
18,
f5,
12,
eb,
f6,
dd,
1c,
08,
f5,
03,
14,
61,
b9,
bf,
58,
06,
f7,
1d,
2b,
c0,
3e,
0d,
cd,
03,
e6,
17,
4e,
39,
04,
f9,
29,
12,
d2,
07,
f8,
14,
ca,
12,
17,
ec,
0f,
e3,
f2,
19,
15,
a1,
c0,
d6,
4f,
07,
19,
f5,
ad,
19,
cd,
d7,
3f,
0f,
fc,
e8,
14,
f4,
f6,
cf,
fa,
25,
b3,
ea,
f2,
f6,
49,
21,
eb,
04,
27,
d7,
ff,
01,
1a,
00,
19,
d3,
fc,
fd,
1e,
28,
c4,
00,
fc,
ec,
1d,
1c,
eb,
f6,
05,
fe,
00,
23,
e0,
19,
1b,
e1,
f8,
eb,
22,
f9,
ea,
f0,
f9,
34,
da,
d1,
07,
e7,
f2,
06,
22,
27,
ea,
ed,
1d,
f3,
0e,
f4,
c1,
e7,
7f,
de,
ba,
d9,
d7,
fd,
06,
a5,
4e,
f1,
27,
e4,
fe,
02,
b8,
01,
f4,
df,
22,
eb,
f6,
e5,
24,
b2,
3f,
1c,
8b,
00,
02,
fd,
10,
16,
e8,
cb,
e8,
13,
00,
de,
11,
ea,
0a,
f0,
f7,
19,
0a,
0d,
13,
ff,
14,
21,
04,
23,
e7,
e4,
f4,
4b,
9c,
dc,
37,
07,
fd,
45,
3a,
48,
ed,
f2,
d5,
09,
e9,
03,
34,
29,
ed,
22,
f3,
bb,
f9,
13,
2b,
05,
eb,
27,
f6,
01,
04,
de,
ee,
29,
c8,
d5,
0e,
30,
25,
de,
02,
2b,
50,
ab,
2b,
e7,
43,
30,
be,
b6,
2a,
e9,
dc,
dd,
0d,
04,
04,
36,
a5,
20,
1d,
fe,
24,
51,
ee,
e2,
19,
f9,
ea,
f9,
fb,
25,
29,
23,
20,
d6,
08,
1b,
24,
11,
dc,
21,
01,
10,
09,
0f,
f6,
4e,
f2,
d9,
45,
c3,
33,
0f,
23,
8f,
0e,
ed,
23,
ea,
01,
19,
2d,
09,
f0,
ce,
26,
e7,
cc,
ed,
0d,
f2,
cf,
0f,
04,
0d,
f9,
15,
19,
21,
1f,
cf,
09,
26,
63,
fb,
fc,
06,
9b,
3d,
ed,
00,
e4,
0f,
11,
db,
2b,
12,
39,
ee,
e2,
fb,
ab,
d8,
f1,
eb,
1c,
0d,
10,
31,
2e,
f2,
21,
ec,
14,
f7,
10,
ef,
d0,
fa,
e7,
fa,
d3,
b7,
e0,
c7,
ec,
41,
b1,
fe,
1f,
06,
13,
14,
06,
f4,
11,
1e,
16,
20,
0d,
1e,
11,
ec,
2b,
15,
2c,
e5,
ea,
e1,
ea,
ec,
f4,
f8,
0d,
f3,
13,
18,
c2,
ff,
0f,
e4,
7f,
f6,
ac,
0b,
05,
ff,
ce,
c6,
0a,
eb,
d9,
20,
ef,
d7,
ec,
0f,
f9,
ee,
1d,
13,
0e,
00,
0e,
d1,
0d,
ec,
a8,
e0,
fc,
04,
13,
14,
e8,
f7,
e8,
0b,
00,
b4,
10,
fe,
10,
f0,
e7,
f7,
27,
f8,
e7,
f8,
01,
db,
4c,
34,
de,
eb,
1f,
1b,
ea,
14,
dc,
e7,
3a,
38,
ef,
d6,
25,
f1,
2b,
09,
19,
ee,
0e,
fd,
e0,
c3,
0f,
eb,
04,
f5,
02,
12,
2b,
09,
ec,
e9,
e6,
0a,
22,
be,
3d,
06,
1e,
14,
d9,
1c,
23,
0d,
20,
d1,
f7,
f3,
15,
05,
05,
21,
ca,
0c,
0d,
18,
02,
df,
0f,
f5,
2f,
2d,
ce,
28,
d4,
07,
fc,
0d,
04,
f5,
d5,
f6,
1e,
0c,
fa,
ef,
0b,
e4,
23,
10,
fb,
05,
01,
0d,
07,
d9,
ec,
e2,
14,
18,
07,
2b,
c1,
24,
cf,
f4,
e8,
18,
0d,
eb,
f2,
f9,
02,
f4,
f8,
12,
ff,
e8,
f4,
f6,
23,
f6,
dc,
09,
d6,
eb,
f8,
fb,
09,
e1,
ff,
f8,
12,
d5,
bf,
f1,
40,
0c,
fb,
ce,
1a,
a7,
39,
c0,
21,
fc,
e3,
dd,
fb,
25,
23,
17,
e8,
ba,
7f,
2d,
1f,
f0,
1f,
fd,
05,
09,
1a,
15,
1e,
02,
04,
14,
08,
f7,
10,
f9,
f4,
f7,
e9,
44,
be,
46,
f2,
12,
fa,
09,
e8,
0a,
1a,
06,
e8,
17,
fb,
f5,
e4,
e3,
eb,
f8,
0e,
19,
0b,
24,
04,
f0,
05,
04,
e7,
e6,
08,
ff,
d1,
e7,
e9,
ea,
27,
15,
07,
16,
3d,
0a,
e2,
ef,
dc,
eb,
ee,
24,
0c,
34,
0b,
d7,
e0,
07,
0e,
0c,
3b,
b1,
35,
f8,
10,
ef,
17,
05,
3f,
0e,
d1,
eb,
06,
f8,
0d,
19,
04,
f4,
0b,
e8,
f4,
03,
00,
ff,
12,
15,
fd,
05,
ee,
f7,
30,
ff,
ee,
d3,
1d,
52,
91,
23,
1c,
28,
2a,
e3,
0b,
01,
e1,
f1,
d2,
f8,
dd,
c6,
1e,
ff,
fe,
1b,
cd,
25,
de,
d4,
b8,
e4,
e0,
11,
d5,
1a,
d4,
f8,
09,
fc,
0b,
e3,
16,
05,
b9,
d1,
1b,
e0,
09,
a6,
cd,
47,
d4,
1a,
08,
41,
d3,
3b,
a6,
00,
06,
4d,
fe,
fe,
19,
f6,
12,
33,
27,
f8,
14,
0b,
31,
bc,
f4,
cc,
08,
25,
48,
38,
fd,
e4,
d0,
18,
20,
fd,
09,
00,
11,
1e,
e1,
0e,
f7,
18,
fb,
f5,
db,
d8,
f8,
d3,
33,
c7,
06,
d1,
10,
a5,
27,
07,
f8,
e7,
f7,
fb,
ec,
37,
f1,
01,
ee,
ed,
05,
0e,
24,
1b,
e9,
0b,
e2,
f1,
28,
e1,
f1,
1c,
f8,
d1,
09,
f2,
f8,
a9,
fb,
4f,
e9,
00,
c7,
d5,
25,
e7,
24,
30,
ee,
d5,
d4,
9e,
5f,
06,
ed,
e9,
fc,
21,
fc,
10,
cb,
20,
33,
e0,
ed,
e9,
ea,
00,
2e,
ee,
25,
2f,
f2,
0a,
d6,
3e,
ea,
32,
d8,
53,
e5,
0e,
14,
1a,
e8,
dd,
f8,
11,
20,
0c,
27,
07,
1c,
dd,
12,
0f,
18,
7f,
dd,
a6,
16,
05,
fc,
f1,
ed,
27,
49,
14,
d7,
c0,
39,
e3,
c5,
1f,
19,
22,
0a,
14,
0e,
1c,
2f,
a6,
4f,
fa,
01,
09,
10,
42,
27,
35,
e0,
00,
ad,
17,
dd,
05,
08,
bf,
0f,
4e,
de,
fb,
26,
fb,
e0,
e0,
06,
e4,
df,
3c,
c4,
34,
69,
02,
14,
e7,
f1,
e6,
ec,
01,
f3,
3d,
1a,
68,
a3,
c2,
26,
ed,
da,
fa,
0a,
09,
d6,
12,
4c,
fa,
31,
ed,
25,
f8,
f2,
e9,
1c,
1b,
fe,
e1,
08,
c8,
ff,
29,
0e,
06,
1c,
fb,
0f,
e7,
06,
0d,
09,
35,
ef,
ae,
0f,
2d,
f4,
14,
d2,
fc,
fb,
2f,
e0,
fa,
d2,
e2,
32,
bc,
1b,
4b,
bf,
07,
d7,
15,
f1,
0c,
e6,
ce,
4a,
07,
fd,
e7,
da,
0c,
19,
26,
f8,
fb,
e1,
08,
0b,
fc,
f1,
eb,
14,
28,
bc,
28,
eb,
1b,
f9,
09,
e6,
f2,
f9,
eb,
10,
24,
0f,
05,
cd,
48,
c6,
31,
da,
64,
da,
0d,
09,
17,
1b,
e2,
2e,
0e,
1a,
f6,
f4,
20,
0b,
e6,
c3,
0b,
0e,
1f,
15,
13,
10,
35,
bd,
ea,
09,
31,
f2,
11,
ea,
5d,
ec,
d2,
2a,
b9,
47,
24,
d7,
1d,
e2,
ec,
f9,
16,
ff,
7f,
b0,
fa,
47,
3e,
f3,
1a,
22,
f5,
24,
ec,
e8,
38,
28,
1d,
0b,
08,
f9,
0d,
d8,
02,
f5,
ef,
e5,
10,
30,
f4,
e1,
c6,
15,
1c,
17,
ff,
f0,
f6,
14,
e7,
e4,
e6,
e7,
fd,
f2,
18,
05,
04,
e0,
c8,
01,
f3,
c8,
fd,
0c,
13,
05,
0a,
cd,
02,
0a,
12,
f2,
14,
1c,
ed,
cd,
12,
fc,
01,
c1,
28,
14,
64,
de,
ef,
66,
c8,
23,
18,
04,
e1,
17,
46,
0b,
13,
30,
d3,
01,
0b,
f5,
89,
53,
e9,
16,
f7,
17,
0b,
11,
f7,
06,
df,
42,
20,
d6,
e6,
02,
0d,
f1,
f9,
19,
f2,
e9,
09,
b4,
a0,
6a,
2f,
14,
12,
28,
b8,
09,
45,
c9,
ac,
d8,
3e,
14,
0d,
01,
0e,
e5,
e2,
d8,
14,
e8,
93,
3c,
1f,
44,
e2,
38,
e0,
ed,
12,
55,
de,
fb,
fa,
1c,
f9,
16,
0f,
33,
17,
0a,
03,
04,
48,
db,
e5,
e9,
19,
f8,
ec,
cd,
3c,
fc,
e5,
d8,
30,
05,
e4,
e7,
18,
0e,
01,
29,
39,
cf,
2f,
07,
81,
0c,
04,
17,
ef,
e6,
b6,
10,
f9,
35,
0a,
f8,
06,
32,
e0,
f7,
d5,
1a,
fd,
1c,
db,
f2,
fe,
24,
cc,
35,
26,
a8,
28,
df,
48,
c6,
2c,
ee,
0e,
21,
e2,
ec,
19,
e1,
0f,
27,
e9,
18,
f8,
2f,
ff,
ce,
e6,
03,
17,
f6,
db,
db,
ba,
35,
08,
ec,
36,
f1,
f6,
f4,
f6,
df,
b8,
14,
ad,
37,
fb,
ce,
f0,
1f,
f3,
de,
ee,
06,
0b,
00,
c3,
55,
1c,
0e,
1d,
ed,
04,
0a,
0e,
1e,
f1,
fd,
e8,
0d,
fc,
0d,
0b,
45,
ff,
1f,
12,
39,
0f,
b2,
24,
ce,
1b,
36,
22,
31,
f3,
14,
18,
e3,
ee,
04,
fd,
e7,
1e,
ff,
17,
f4,
2a,
0b,
f3,
29,
c9,
33,
fb,
09,
0b,
0c,
e8,
10,
17,
2d,
f2,
f9,
e6,
10,
fc,
fb,
eb,
e1,
29,
29,
f6,
e1,
e5,
cc,
20,
ec,
16,
0e,
e6,
3f,
13,
ff,
fc,
dd,
f8,
d9,
59,
01,
f3,
c0,
20,
00,
e2,
e4,
1c,
11,
ea,
16,
15,
ea,
06,
0c,
2f,
03,
f6,
f7,
ef,
ea,
fb,
e9,
f4,
ff,
19,
36,
22,
ae,
ab,
27,
39,
9f,
19,
2d,
c4,
1b,
4c,
45,
b8,
2b,
03,
fb,
1c,
18,
f6,
0e,
23,
d8,
42,
d2,
e7,
d8,
f8,
e1,
11,
19,
ee,
cc,
03,
fc,
eb,
06,
48,
cc,
f8,
e3,
17,
e7,
fc,
e1,
f4,
2c,
03,
aa,
47,
00,
27,
d6,
c1,
1f,
22,
0f,
ef,
e0,
e5,
14,
0c,
ff,
24,
ed,
bc,
2a,
c3,
22,
2f,
02,
db,
cc,
2b,
33,
00,
ed,
e9,
25,
ec,
ef,
1d,
da,
33,
1c,
0d,
df,
df,
ff,
fe,
04,
d7,
df,
40,
ed,
e6,
36,
e5,
29,
d3,
01,
1c,
ef,
19,
f3,
fa,
f5,
f8,
ea,
11,
10,
1f,
ed,
07,
e4,
00,
dd,
da,
30,
07,
16,
0b,
10,
e8,
e9,
e5,
e7,
fa,
29,
00,
f9,
d3,
22,
48,
f7,
45,
1e,
00,
e6,
ea,
e7,
09,
02,
e9,
e3,
21,
15,
3c,
81,
d7,
de,
f8,
1e,
eb,
03,
17,
e5,
ec,
18,
eb,
f7,
f5,
06,
09,
b2,
f9,
f1,
ed,
fa,
e9,
23,
f3,
fb,
08,
0b,
16,
e8,
ea,
f3,
f0,
01,
0d,
e7,
dd,
1a,
e1,
0f,
0d,
ee,
06,
e5,
19,
0b,
25,
0a,
f9,
08,
f6,
fc,
f3,
f7,
33,
c6,
c9,
25,
1a,
14,
ef,
a4,
f9,
3e,
e9,
1d,
23,
ee,
24,
19,
aa,
43,
c0,
ff,
1c,
fa,
da,
24,
30,
eb,
11,
d5,
f6,
f3,
2b,
1b,
96,
21,
e5,
ef,
ee,
01,
00,
f1,
10,
01,
05,
2f,
d2,
e4,
fa,
ef,
04,
21,
f1,
d5,
ff,
03,
ac,
29,
3c,
f0,
be,
44,
eb,
ae,
28,
ef,
a6,
54,
47,
f6,
a7,
1c,
e7,
f6,
e6,
39,
f3,
e0,
15,
13,
0e,
0c,
fe,
ac,
e9,
cc,
de,
23,
10,
eb,
14,
ec,
f3,
1d,
53,
8b,
02,
ef,
00,
1e,
e6,
fd,
46,
4d,
f9,
03,
fe,
04,
c1,
38,
cd,
46,
0d,
20,
e1,
f9,
08,
19,
16,
e6,
43,
af,
09,
1c,
0d,
e1,
0e,
05,
28,
0a,
e5,
ed,
ea,
d3,
e9,
29,
e5,
14,
1c,
ef,
16,
0c,
19,
06,
f2,
f5,
11,
e7,
be,
13,
4c,
ba,
c1,
3d,
e6,
2d,
de,
f4,
07,
ff,
eb,
f7,
21,
ed,
f5,
2e,
2b,
de,
19,
d4,
10,
e8,
f4,
e2,
f9,
f4,
f2,
14,
12,
fd,
ff,
20,
fc,
19,
30,
c1,
28,
01,
d1,
ec,
e0,
1b,
0d,
fd,
09,
8d,
fb,
0a,
e9,
02,
e8,
e5,
1e,
f9,
7d,
80,
03,
07,
e9,
c6,
f1,
32,
3f,
f8,
19,
06,
dc,
fe,
df,
e1,
11,
bc,
ff,
07,
46,
d9,
bc,
2b,
e7,
29,
d9,
f9,
e5,
ed,
03,
df,
00,
f0,
0c,
e5,
18,
e7,
ef,
0d,
f2,
f9,
c0,
22,
bc,
01,
30,
dc,
16,
1c,
2a,
f7,
ef,
f7,
f9,
34,
06,
e1,
1d,
05,
eb,
f0,
13,
40,
1b,
fa,
48,
c4,
40,
13,
eb,
fe,
28,
f6,
c1,
e5,
01,
e1,
1f,
1d,
f1,
26,
eb,
17,
2b,
26,
cc,
fe,
15,
e0,
f2,
14,
07,
1d,
2b,
1f,
df,
36,
bd,
aa,
0b,
00,
19,
e6,
22,
d3,
16,
06,
cc,
06,
96,
fb,
a4,
5e,
fa,
e2,
27,
f5,
c6,
6e,
2f,
db,
e2,
f9,
16,
1c,
23,
d2,
0a,
db,
fb,
f4,
c9,
25,
78,
f4,
d6,
0a,
f8,
f1,
e1,
d7,
f7,
e5,
e7,
20,
05,
a3,
52,
c9,
1c,
20,
0a,
27,
5a,
06,
dc,
34,
dd,
50,
18,
f8,
ef,
3e,
1a,
45,
d3,
fc,
22,
db,
f3,
10,
44,
a5,
25,
2e,
ec,
1f,
71,
02,
e8,
3a,
cf,
df,
ff,
c5,
14,
25,
11,
08,
c2,
07,
28,
1a,
e5,
f8,
e5,
16,
3c,
f6,
3c,
0a,
24,
24,
dc,
47,
e4,
42,
e8,
03,
e4,
2f,
d9,
38,
12,
ec,
fc,
0e,
03,
12,
2f,
28,
28,
f2,
08,
dd,
d0,
ea,
19,
f3,
08,
0a,
14,
1d,
16,
13,
20,
4c,
2a,
f6,
d7,
04,
2f,
be,
58,
df,
21,
af,
e6,
ed,
42,
cd,
0a,
31,
cd,
17,
2f,
80,
ae,
08,
10,
cd,
f8,
f4,
23,
cd,
1e,
f6,
d6,
db,
0c,
dc,
f3,
dc,
d8,
18,
30,
41,
c9,
cc,
e9,
36,
af,
08,
01,
e1,
f9,
1d,
16,
1e,
1a,
14,
21,
dc,
14,
05,
26,
d8,
06,
fb,
a1,
4b,
56,
26,
23,
19,
da,
2c,
e5,
15,
cd,
16,
3d,
0e,
d5,
50,
0b,
f2,
ff,
34,
0e,
fa,
d9,
d7,
38,
e5,
ee,
a0,
31,
2d,
c4,
2a,
a9,
1e,
19,
43,
0f,
27,
2b,
16,
63,
b6,
e9,
af,
d5,
10,
f3,
e2,
fe,
d5,
2a,
e8,
ea,
32,
f0,
c5,
21,
0d,
f0,
2a,
e1,
1a,
2e,
37,
e8,
7f,
72,
1c,
af,
04,
4e,
a5,
42,
f6,
a1,
16,
55,
4a,
00,
5a,
fd,
ec,
10,
4e,
0b,
0b,
0b,
dc,
7d,
bd,
8e,
9b,
18,
f8,
f5,
18,
cf,
b4,
f5,
fe,
04,
f2,
44,
fe,
1e,
a0,
36,
f5,
e9,
ca,
fd,
db,
48,
a4,
7e,
c7,
10,
9e,
eb,
0d,
e2,
0d,
e3,
e7,
04,
26,
df,
f1,
74,
f5,
ae,
fc,
b1,
1e,
0e,
ec,
ed,
91,
2b,
5d,
4a,
b3,
18,
43,
cb,
19,
12,
08,
52,
25,
ef,
08,
f3,
e6,
e0,
24,
da,
d9,
66,
b6,
a1,
2a,
ca,
31,
0b,
24,
c7,
13,
30,
c3,
d3,
f0,
e7,
ec,
4a,
fc,
ea,
0b,
02,
0c,
d4,
df,
04,
e5,
19,
de,
19,
41,
d8,
0b,
fb,
dd,
a3,
11,
c6,
fb,
a8,
43,
26,
d3,
64,
25,
05,
d4,
f5,
d7,
eb,
f1,
d9,
2b,
12,
2b,
f3,
8a,
e6,
e8,
24,
67,
1a,
cb,
01,
1f,
c5,
2c,
c9,
de,
d9,
fa,
05,
e7,
3a,
04,
34,
ad,
3d,
43,
07,
da,
45,
de,
1c,
db,
1b,
28,
1a,
0b,
11,
22,
fa,
1c,
ed,
39,
e1,
02,
09,
36,
74,
c7,
ad,
e0,
ef,
0a,
f2,
1d,
1e,
00,
60,
a5,
d6,
4b,
2c,
bf,
04,
00,
2e,
f0,
e4,
d7,
f1,
f1,
d9,
44,
ac,
7a,
a3,
d8,
3e,
2f,
db,
08,
2d,
f9,
15,
bc,
25,
ff,
06,
03,
99,
0b,
d8,
08,
02,
19,
1b,
fa,
12,
03,
29,
29,
c6,
12,
05,
03,
ee,
f1,
fb,
01,
19,
d4,
b4,
0a,
8f,
46,
6c,
c7,
e8,
3f,
f1,
05,
ea,
c2,
d7,
e4,
3a,
00,
02,
2d,
e5,
21,
02,
0f,
11,
f2,
3e,
c9,
1e,
e8,
ec,
f5,
fb,
db,
26,
00,
0d,
fe,
f6,
04,
bb,
49,
fb,
1b,
b7,
4c,
f2,
0f,
d1,
15,
ff,
15,
dd,
36,
38,
07,
f9,
eb,
0d,
10,
36,
48,
ea,
0f,
0d,
0c,
07,
d5,
33,
e8,
46,
fa,
fb,
16,
e4,
0d,
f9,
0a,
f8,
cb,
fa,
fd,
f9,
10,
db,
28,
d2,
11,
05,
e6,
17,
0d,
eb,
06,
2c,
15,
ef,
f9,
e9,
4c,
e6,
d8,
b9,
2e,
fe,
69,
27,
00,
e9,
09,
f9,
0d,
03,
d7,
fc,
01,
0d,
e3,
f1,
2b,
27,
d7,
f9,
e3,
01,
db,
dc,
0b,
e8,
ea,
df,
08,
01,
3a,
b3,
03,
f6,
22,
f8,
e9,
ca,
19,
e1,
01,
fd,
d5,
02,
ee,
b5,
38,
e3,
12,
f3,
d6,
00,
09,
fc,
ea,
37,
f2,
ea,
e6,
1d,
14,
0f,
e5,
29,
25,
f5,
25,
fc,
28,
04,
db,
fd,
0c,
00,
fe,
e9,
db,
1d,
f0,
03,
f2,
12,
f1,
1c,
09,
0e,
02,
11,
0b,
08,
d9,
35,
c7,
dd,
1c,
e2,
ed,
0d,
18,
ee,
0e,
e2,
f3,
d0,
39,
fd,
e2,
e5,
f9,
10,
0f,
00,
1d,
12,
0f,
11,
18,
4c,
ca,
1a,
03,
df,
fa,
1d,
35,
b5,
15,
07,
04,
34,
0d,
d3,
fe,
7f,
a8,
1b,
e7,
f0,
e6,
1a,
f1,
dd,
e2,
e4,
bd,
29,
2c,
1d,
0d,
e6,
09,
f6,
27,
fd,
c0,
fd,
f8,
d7,
0d,
e5,
f0,
d6,
f6,
20,
e6,
f0,
14,
c0,
ea,
4c,
fa,
1f,
0e,
d1,
d4,
1b,
ff,
d9,
3b,
0a,
e1,
e9,
12,
e3,
27,
3a,
21,
d1,
38,
e1,
d0,
e2,
24,
e7,
1f,
fa,
1a,
fe,
f3,
4a,
fb,
ab,
d3,
75,
15,
f7,
dc,
41,
e3,
f2,
1f,
4e,
07,
12,
25,
12,
06,
e9,
11,
09,
f0,
03,
d2,
09,
26,
fd,
18,
fc,
07,
f4,
20,
0d,
f1,
fb,
d2,
07,
1f,
d3,
23,
1b,
16,
11,
0a,
20,
f3,
ee,
13,
1a,
08,
fd,
0b,
c5,
c9,
37,
fc,
ea,
eb,
d0,
d4,
1f,
b9,
dd,
d5,
e3,
dd,
d7,
08,
1e,
37,
08,
dd,
0b,
f7,
18,
e8,
07,
1d,
25,
00,
fc,
24,
e7,
03,
9c,
ed,
f6,
16,
cd,
f5,
08,
80,
ef,
fa,
e9,
12,
f6,
0e,
19,
dc,
eb,
12,
e9,
f5,
b5,
5d,
c3,
35,
2e,
19,
0f,
e5,
08,
30,
0e,
00,
d5,
22,
29,
2e,
c7,
1c,
23,
d3,
0b,
db,
55,
f7,
f4,
bf,
28,
c4,
cf,
20,
29,
1f,
db,
ee,
fd,
25,
23,
2e,
15,
25,
f6,
d9,
f9,
fe,
e5,
1a,
e1,
01,
ec,
e0,
29,
ce,
fb,
fe,
2f,
15,
19,
1f,
0d,
2b,
13,
75,
30,
fa,
13,
12,
16,
33,
ce,
06,
cc,
08,
22,
ed,
08,
b3,
c0,
51,
c6,
35,
19,
3a,
02,
01,
1f,
11,
f5,
c9,
dd,
10,
fc,
30,
df,
2f,
02,
d6,
46,
ff,
c3,
16,
ec,
f9,
fc,
13,
18,
e3,
d4,
2c,
17,
24,
51,
fc,
a0,
3b,
60,
df,
d3,
4e,
df,
3c,
60,
da,
9b,
2d,
f8,
e4,
10,
11,
f2,
e4,
f7,
e4,
00,
30,
18,
bf,
13,
28,
db,
f5,
1b,
c3,
f7,
07,
1f,
1c,
0b,
b4,
2f,
da,
38,
df,
fe,
2d,
06,
11,
d3,
da,
4f,
db,
d3,
00,
d8,
33,
e0,
2a,
0b,
c8,
e3,
14,
2d,
fe,
0e,
ee,
e2,
4a,
f2,
0a,
e0,
03,
d6,
fc,
00,
1c,
23,
cb,
e1,
0d,
e3,
1d,
32,
c3,
27,
1f,
de,
fb,
e2,
0f,
ff,
21,
ef,
fd,
ff,
1d,
df,
02,
fd,
0d,
e3,
d3,
f9,
e5,
1e,
dc,
e1,
11,
0d,
b7,
0e,
0f,
16,
08,
18,
23,
1f,
1a,
cd,
46,
23,
11,
08,
f5,
0e,
12,
e0,
08,
30,
04,
29,
a5,
d6,
fb,
2d,
10,
6b,
0a,
59,
a4,
03,
2a,
09,
fc,
fa,
e1,
2b,
25,
5a,
81,
d1,
15,
df,
c7,
f9,
17,
e4,
d7,
15,
08,
03,
e6,
1a,
04,
05,
e2,
2f,
e0,
0f,
e2,
b7,
55,
03,
ff,
06,
30,
23,
0a,
13,
f9,
f6,
ec,
25,
f3,
dc,
fe,
11,
20,
08,
04,
dc,
2d,
d1,
ec,
18,
d4,
21,
03,
0d,
10,
f2,
36,
0b,
ea,
da,
0d,
dc,
2f,
f7,
93,
03,
1b,
0a,
08,
f8,
cd,
e8,
e2,
c4,
17,
11,
ef,
ef,
02,
d4,
e4,
6f,
e4,
00,
06,
29,
fc,
ff,
e1,
ca,
51,
06,
0b,
1f,
f3,
ed,
03,
fe,
dc,
26,
20,
14,
00,
e1,
ed,
e4,
e6,
ee,
0e,
18,
1c,
c3,
24,
d6,
03,
41,
b6,
3e,
f4,
cc,
0d,
d8,
0c,
03,
fb,
e3,
f9,
25,
13,
e6,
23,
11,
2e,
ec,
17,
36,
0d,
2b,
b4,
27,
c3,
13,
21,
26,
e8,
fc,
24,
2c,
1e,
fc,
57,
17,
b1,
e7,
22,
ec,
38,
fe,
06,
12,
d7,
0e,
c8,
fc,
b9,
46,
d6,
9f,
23,
2a,
0b,
14,
14,
e5,
23,
13,
f5,
18,
05,
d2,
2c,
c8,
f9,
c9,
e3,
dd,
fe,
39,
f6,
07,
e6,
01,
ee,
1f,
f5,
d2,
d9,
eb,
3a,
02,
2c,
04,
1a,
f4,
c8,
e4,
f8,
1a,
43,
dc,
04,
f8,
0d,
c4,
1a,
1b,
fd,
ed,
1e,
1b,
cb,
07,
00,
2c,
3d,
25,
d9,
26,
03,
0c,
f8,
02,
17,
01,
10,
f2,
08,
fa,
e0,
23,
e2,
c5,
08,
96,
20,
05,
2f,
32,
c7,
2b,
09,
14,
22,
13,
f0,
eb,
07,
b0,
65,
ea,
a1,
d1,
da,
fe,
cd,
2a,
ea,
12,
0a,
c5,
c3,
25,
14,
0d,
f0,
3d,
17,
28,
01,
0b,
02,
e4,
22,
d3,
30,
18,
dc,
01,
10,
ed,
0a,
1d,
f3,
ed,
f5,
22,
11,
f1,
1f,
21,
1c,
fc,
2b,
4f,
aa,
c1,
f6,
e4,
f6,
d4,
2a,
1b,
44,
fe,
0d,
f8,
2e,
1e,
fd,
1d,
fe,
04,
f2,
17,
07,
d8,
dd,
b6,
13,
1a,
ab,
d6,
18,
16,
f3,
ee,
07,
02,
a1,
35,
dd,
1c,
22,
ac,
b5,
7f,
e7,
fa,
d6,
0a,
ef,
29,
da,
08,
e2,
01,
b5,
35,
4a,
f5,
f6,
e7,
19,
0f,
f5,
19,
0e,
ca,
03,
e8,
7f,
13,
0d,
0a,
d0,
f2,
0f,
f8,
e3,
fa,
20,
fe,
1c,
f6,
e5,
fb,
05,
ef,
0a,
e1,
18,
c5,
09,
e7,
d5,
fa,
ee,
d0,
f6,
ed,
53,
eb,
0c,
0c,
f1,
3b,
da,
f3,
29,
e8,
1e,
f9,
f9,
32,
02,
ae,
1c,
04,
fa,
ee,
1b,
1f,
16,
12,
fd,
1a,
db,
02,
05,
f1,
16,
22,
f1,
2b,
b7,
19,
f9,
de,
03,
25,
f6,
ea,
e6,
c8,
18,
fe,
55,
fb,
1f,
1c,
1b,
10,
04,
10,
15,
f2,
13,
de,
0b,
ae,
23,
34,
df,
ea,
e6,
f2,
f8,
29,
c7,
0d,
15,
17,
0d,
e4,
f2,
14,
19,
1f,
e8,
e0,
1b,
19,
3e,
12,
ea,
fb,
f5,
19,
12,
e7,
04,
d2,
27,
10,
fb,
25,
b5,
05,
0e,
e5,
ea,
da,
12,
de,
0c,
e2,
b9,
0e,
16,
f5,
10,
05,
1a,
01,
01,
18,
1c,
1e,
15,
11,
ef,
f9,
fe,
47,
1e,
1b,
3b,
f8,
11,
f1,
f8,
1c,
ef,
e2,
1e,
21,
fa,
0b,
d0,
29,
d0,
16,
0b,
17,
12,
e3,
17,
19,
ed,
fa,
e5,
20,
eb,
1d,
fa,
f8,
e9,
1b,
28,
cb,
0b,
ea,
f0,
f0,
f5,
fc,
15,
f0,
10,
d5,
13,
1f,
e0,
1e,
cf,
05,
13,
1b,
08,
0a,
02,
33,
c3,
fd,
dc,
ff,
02,
fc,
f9,
ed,
0d,
12,
23,
ee,
17,
e8,
f3,
3f,
d6,
fe,
21,
db,
c8,
0a,
14,
fd,
13,
ea,
0b,
18,
04,
bb,
0d,
c8,
f2,
12,
e2,
ed,
fb,
ff,
00,
e2,
e2,
2c,
bf,
0e,
f0,
12,
c6,
12,
3d,
c5,
49,
30,
b3,
e0,
c3,
d7,
00,
f2,
fb,
1b,
cd,
f3,
02,
21,
e8,
99,
3f,
4d,
2b,
f1,
20,
dd,
0a,
10,
f2,
ee,
e4,
eb,
1b,
ca,
0c,
30,
c6,
10,
cc,
05,
39,
f4,
ba,
c5,
98,
47,
ee,
1d,
c1,
28,
bb,
d2,
2d,
dc,
ec,
0d,
00,
e9,
04,
eb,
1f,
ec,
3d,
df,
26,
90,
d4,
e2,
08,
e9,
0f,
23,
0d,
d3,
f1,
26,
de,
21,
19,
e1,
d5,
d9,
33,
32,
ff,
10,
28,
2f,
24,
91,
10,
26,
d8,
f0,
2b,
48,
2e,
0f,
b5,
d0,
05,
2a,
20,
1b,
d1,
d5,
28,
ed,
10,
04,
10,
0e,
13,
27,
2f,
0c,
e9,
11,
32,
c6,
1a,
30,
02,
2a,
43,
fc,
b1,
08,
f1,
18,
e7,
1a,
13,
1b,
1e,
e6,
e6,
fc,
20,
16,
04,
04,
04,
c2,
34,
00,
13,
18,
09,
f5,
01,
ca,
0d,
07,
f8,
ef,
19,
18,
14,
d8,
72,
ee,
f8,
d9,
20,
28,
1c,
00,
cf,
34,
24,
21,
1e,
ea,
da,
27,
fe,
00,
17,
e7,
06,
01,
28,
dc,
e4,
2f,
fa,
39,
e1,
b2,
fd,
15,
03,
e0,
fb,
42,
25,
1d,
d4,
db,
df,
e4,
43,
13,
b7,
23,
dc,
28,
2f,
da,
13,
de,
11,
01,
03,
14,
0b,
3a,
f8,
f7,
a9,
21,
80,
e0,
c2,
18,
05,
fa,
9a,
16,
19,
e8,
05,
f4,
fe,
dd,
17,
ef,
17,
f9,
0e,
60,
3f,
eb,
ee,
07,
f0,
0d,
ee,
24,
3b,
2c,
c5,
7f,
e7,
d3,
e7,
16,
06,
fc,
0d,
1f,
d1,
06,
24,
fc,
38,
f7,
ef,
2d,
f1,
f6,
17,
01,
e6,
e7,
2e,
09,
1f,
12,
f5,
1f,
fc,
fb,
fc,
f5,
17,
fb,
03,
1b,
fd,
04,
dc,
39,
19,
39,
df,
02,
c6,
d2,
e8,
1a,
c7,
f8,
ff,
1b,
e5,
aa,
ed,
d8,
d7,
d8,
22,
02,
03,
1a,
35,
db,
f5,
d4,
f4,
a5,
fc,
09,
02,
1c,
db,
23,
28,
19,
13,
f2,
ef,
0c,
d1,
f8,
f8,
fb,
eb,
df,
e7,
da,
1d,
05,
22,
31,
e7,
1c,
e7,
28,
29,
75,
02,
24,
c9,
d2,
f4,
ec,
ea,
11,
03,
e9,
f9,
ee,
ca,
d5,
35,
fd,
03,
fc,
1e,
fb,
20,
10,
1d,
fe,
f8,
f4,
f9,
17,
f3,
2a,
fa,
54,
d4,
d8,
47,
d9,
36,
34,
03,
fd,
e0,
e9,
17,
f1,
f7,
03,
c3,
e6,
fc,
26,
07,
0b,
0b,
f8,
2f,
d8,
1c,
28,
09,
fe,
f4,
21,
27,
e2,
43,
04,
da,
04,
d9,
dd,
14,
19,
d8,
30,
1a,
fa,
37,
de,
f8,
06,
f2,
17,
05,
04,
eb,
18,
2c,
15,
de,
30,
37,
49,
13,
ff,
fb,
e6,
f2,
fd,
f0,
30,
03,
30,
c3,
fa,
cf,
df,
08,
e4,
c9,
ea,
b6,
16,
d6,
f9,
00,
b8,
20,
f9,
09,
01,
0c,
33,
f7,
37,
9f,
16,
e8,
e0,
c7,
0f,
d7,
d2,
ed,
c0,
68,
fd,
22,
14,
e9,
e4,
02,
dc,
02,
f7,
00,
0a,
13,
02,
f0,
eb,
06,
00,
fd,
fc,
d0,
36,
13,
25,
ec,
f7,
0f,
17,
ec,
06,
4e,
df,
e4,
4b,
56,
e8,
ff,
a1,
01,
28,
34,
ea,
14,
f4,
cf,
2f,
ed,
93,
d8,
0b,
c6,
0b,
ff,
11,
27,
f2,
1d,
27,
ef,
27,
18,
f1,
38,
f4,
f8,
15,
b1,
ca,
60,
f6,
da,
63,
e3,
35,
e2,
d5,
6b,
7f,
bb,
07,
c6,
14,
10,
fe,
dc,
09,
66,
e9,
b8,
e8,
16,
fe,
28,
e8,
d4,
09,
34,
e8,
0f,
cb,
04,
0c,
ec,
ff,
d7,
f8,
08,
ed,
f1,
08,
e9,
dc,
0c,
a9,
18,
f4,
f2,
e3,
10,
0a,
f0,
fb,
df,
3c,
cb,
23,
cc,
e2,
06,
11,
e4,
0d,
d0,
fb,
08,
1c,
fa,
ea,
aa,
0d,
08,
ef,
00,
fe,
24,
2f,
0c,
e8,
0e,
ef,
11,
f6,
b2,
f9,
fb,
43,
01,
f5,
6a,
c9,
f1,
db,
09,
f4,
d0,
b1,
0f,
1c,
ef,
f4,
0e,
06,
27,
18,
2e,
f5,
d5,
f8,
e7,
fd,
3c,
e7,
02,
ec,
10,
e7,
01,
f7,
ff,
d9,
22,
4e,
02,
30,
c2,
e2,
4d,
07,
f5,
0e,
e4,
21,
f6,
f6,
f8,
15,
f7,
bc,
e3,
0b,
04,
e0,
cc,
e2,
df,
ea,
fa,
eb,
0b,
f6,
1c,
b7,
f0,
2f,
a9,
f1,
45,
f0,
23,
f7,
c4,
27,
fb,
16,
08,
00,
fb,
4e,
01,
c7,
45,
bb,
2e,
fa,
d9,
c0,
34,
1c,
ec,
1b,
17,
02,
0b,
67,
1e,
94,
f4,
ef,
ea,
ed,
14,
1f,
15,
10,
e3,
df,
f8,
0e,
e7,
2e,
10,
26,
21,
e0,
0f,
eb,
f5,
eb,
d4,
20,
d2,
64,
c2,
18,
21,
c8,
10,
24,
f3,
ce,
f6,
c0,
fd,
fe,
d6,
c8,
28,
29,
f7,
f9,
01,
dc,
04,
d1,
e8,
e6,
46,
c4,
f8,
2e,
2d,
02,
ef,
18,
26,
d9,
28,
c1,
41,
f5,
f4,
05,
43,
bc,
f8,
e3,
f9,
c2,
f5,
ee,
fa,
cf,
ec,
05,
f7,
17,
26,
dc,
03,
d5,
d3,
e8,
eb,
09,
2f,
70,
08,
db,
e7,
01,
0d,
16,
10,
ed,
15,
eb,
17,
dc,
06,
16,
bd,
0a,
08,
d9,
10,
ee,
e5,
08,
28,
2f,
c6,
c8,
d9,
21,
22,
2c,
cd,
21,
b8,
ef,
37,
08,
f6,
09,
d3,
08,
e5,
1f,
17,
29,
05,
04,
32,
d6,
0f,
04,
d4,
1f,
d4,
f4,
07,
c6,
16,
19,
dc,
6f,
9d,
08,
a8,
3b,
b1,
de,
f3,
d3,
cf,
fb,
19,
f0,
3f,
de,
fb,
20,
ad,
eb,
20,
3d,
06,
59,
1e,
07,
af,
e4,
37,
4a,
e7,
32,
f7,
2d,
e2,
e1,
e9,
16,
39,
2f,
dd,
e5,
2e,
f9,
23,
e3,
39,
0a,
4a,
d7,
27,
03,
2a,
ee,
05,
17,
fe,
f1,
da,
d0,
cc,
ed,
2b,
13,
e3,
ec,
f3,
0f,
fa,
19,
17,
08,
d9,
da,
29,
df,
17,
fc,
d6,
31,
06,
d2,
b0,
e7,
0c,
fc,
37,
09,
4f,
fe,
e9,
3a,
c3,
4a,
dd,
11,
f6,
35,
a0,
13,
9a,
b9,
03,
f9,
10,
06,
ce,
7f,
39,
fd,
f3,
23,
fb,
d9,
d5,
f1,
f3,
f0,
36,
52,
ce,
03,
24,
15,
dc,
10,
e5,
d2,
e1,
d4,
37,
f9,
17,
47,
ed,
fa,
35,
d8,
dd,
92,
54,
2d,
04,
fe,
fa,
44,
ea,
80,
f0,
e3,
0a,
3e,
fd,
3c,
ee,
0e,
c7,
47,
b2,
e8,
22,
f7,
02,
de,
15,
e3,
ee,
0e,
d6,
04,
fc,
e0,
fa,
8d,
48,
d0,
e4,
57,
35,
a2,
01,
ee,
47,
e7,
f7,
12,
21,
50,
1a,
07,
1f,
c5,
17,
dc,
90,
03,
26,
fa,
d0,
22,
da,
2e,
0e,
14,
fc,
ea,
bc,
2e,
04,
f2,
0c,
fb,
c3,
04,
eb,
fd,
10,
f2,
ea,
02,
eb,
f3,
e1,
f2,
b7,
05,
53,
c0,
14,
b4,
0a,
e9,
59,
19,
d5,
0b,
01,
05,
36,
fb,
e7,
31,
07,
25,
06,
fd,
45,
2a,
fd,
f6,
07,
ff,
d3,
e8,
fc,
d9,
f8,
33,
bc,
08,
e4,
d0,
d0,
3a,
23,
f9,
9c,
ee,
c1,
fc,
19,
13,
17,
16,
1d,
0a,
02,
4a,
ab,
0c,
b5,
ec,
eb,
f2,
f5,
47,
ef,
fd,
ea,
1d,
06,
de,
df,
41,
99,
e3,
f2,
e8,
f7,
ea,
49,
ce,
25,
c5,
cb,
08,
da,
e3,
f5,
f7,
ef,
e5,
f9,
f1,
18,
f1,
c3,
f3,
ea,
a2,
ff,
da,
c9,
1c,
e6,
1a,
0f,
15,
ef,
24,
f4,
e2,
39,
12,
fd,
1c,
c0,
ef,
eb,
10,
15,
e7,
d4,
04,
df,
26,
09,
4a,
04,
f2,
04,
0a,
35,
03,
21,
35,
f7,
0f,
3b,
d8,
37,
d1,
18,
61,
1e,
19,
02,
f8,
db,
0d,
c4,
fb,
f4,
f6,
49,
08,
c2,
e6,
f4,
07,
eb,
df,
f2,
fd,
e0,
41,
05,
ee,
de,
b7,
26,
22,
e3,
f3,
29,
1a,
bc,
12,
34,
d5,
e3,
b2,
47,
0c,
09,
f0,
f9,
e8,
f4,
09,
19,
02,
0c,
ea,
28,
16,
e1,
0d,
ee,
dc,
f4,
fc,
fc,
01,
0a,
fb,
19,
04,
ec,
2b,
a2,
e0,
2f,
03,
9a,
4d,
f0,
62,
a8,
9e,
38,
7f,
c8,
c4,
14,
0c,
fc,
25,
0c,
2b,
36,
e5,
b5,
eb,
3a,
39,
20,
08,
ee,
00,
22,
18,
ee,
c4,
f4,
25,
ed,
ee,
f2,
fc,
e5,
20,
ef,
21,
f0,
08,
0d,
15,
2b,
fe,
42,
f8,
ce,
37,
c0,
fa,
e6,
5e,
cc,
24,
1f,
19,
04,
e0,
e9,
f2,
14,
f8,
e2,
25,
d9,
02,
ae,
c3,
44,
15,
e8,
fe,
2b,
ff,
d8,
18,
1b,
e0,
6a,
f2,
c6,
d9,
fb,
42,
ee,
0a,
67,
d0,
fa,
e4,
05,
37,
c8,
cc,
ed,
36,
e3,
d9,
4b,
c7,
25,
e9,
29,
02,
e6,
cd,
de,
d6,
38,
d2,
f1,
06,
df,
e3,
09,
e1,
0f,
f1,
16,
54,
be,
26,
ed,
b9,
40,
12,
09,
e8,
16,
da,
ec,
f9,
f3,
00,
ee,
e1,
21,
e7,
18,
0c,
c9,
eb,
22,
f3,
ed,
e9,
0c,
d9,
36,
cf,
1d,
33,
ea,
db,
15,
eb,
14,
08,
b2,
fe,
39,
f5,
05,
f8,
2b,
57,
08,
ae,
30,
eb,
16,
15,
d1,
8c,
50,
ed,
39,
1c,
0c,
fe,
0c,
6b,
fd,
97,
1f,
f0,
19,
ed,
1f,
00,
24,
ff,
f1,
e6,
fd,
3f,
df,
12,
d2,
e8,
f8,
e4,
22,
e5,
4c,
30,
c0,
2e,
cc,
f8,
37,
07,
0b,
30,
e9,
30,
cf,
0e,
e6,
0b,
43,
09,
fc,
1e,
f3,
29,
df,
c8,
0a,
b9,
27,
a6,
ed,
e3,
60,
eb,
22,
04,
40,
e5,
0b,
fc,
20,
2b,
d9,
ca,
2a,
28,
d8,
3f,
f4,
e0,
e0,
dc,
0a,
04,
d2,
00,
47,
ff,
ec,
15,
14,
ec,
c0,
e6,
da,
07,
ff,
21,
43,
23,
0d,
2b,
d0,
0c,
12,
e9,
35,
df,
f6,
fb,
48,
17,
18,
dc,
dc,
18,
09,
0f,
1b,
ec,
d4,
f7,
da,
e5,
fc,
c3,
0c,
43,
dd,
13,
c1,
23,
bd,
22,
c7,
0f,
cf,
11,
2d,
d5,
dc,
18,
47,
c7,
f5,
ff,
05,
f0,
2a,
0a,
fb,
28,
ca,
f8,
26,
f8,
e6,
2e,
03,
f0,
de,
09,
ed,
01,
1b,
22,
b6,
90,
cf,
b7,
07,
ea,
a6,
25,
34,
d9,
15,
2c,
17,
72,
9e,
f5,
7f,
56,
42,
ec,
25,
00,
35,
34,
f6,
31,
f5,
da,
05,
08,
09,
b8,
fa,
07,
fa,
27,
e7,
d9,
37,
21,
bb,
23,
01,
e0,
f8,
1a,
28,
12,
e1,
17,
f9,
f3,
f0,
10,
15,
24,
0e,
fe,
0b,
fc,
1e,
37,
e0,
ee,
28,
f5,
dc,
1a,
4a,
e0,
37,
04,
d3,
10,
2a,
12,
10,
d7,
cf,
f2,
d1,
fe,
e9,
e4,
ca,
10,
e1,
1b,
27,
da,
cf,
05,
c5,
0d,
f1,
cf,
3d,
f6,
fe,
14,
de,
c6,
59,
0d,
dd,
fd,
0a,
02,
17,
12,
0e,
c9,
3a,
07,
d2,
15,
e7,
f3,
ff,
eb,
0c,
db,
ca,
04,
e6,
80,
19,
2e,
0f,
ef,
2f,
e1,
1c,
1e,
ac,
ed,
d3,
f7,
a4,
cd,
1c,
16,
f0,
f2,
e9,
0a,
d9,
ca,
fd,
53,
50,
f8,
20,
e4,
be,
ed,
23,
01,
fb,
e7,
f4,
c2,
2c,
14,
33,
10,
03,
df,
ff,
04,
2c,
f5,
c7,
fe,
44,
19,
e1,
f8,
04,
1e,
e9,
eb,
3e,
1f,
0e,
05,
19,
d7,
17,
21,
15,
29,
05,
f6,
1d,
07,
32,
ce,
14,
d4,
fb,
dd,
f0,
14,
0d,
bd,
12,
fc,
d8,
19,
10,
26,
11,
1a,
1f,
37,
ff,
a1,
4b,
35,
13,
1f,
04,
e1,
e8,
0f,
21,
1d,
13,
e9,
1c,
f7,
c5,
0b,
ec,
24,
10,
14,
19,
fa,
e5,
df,
26,
f4,
07,
1a,
f0,
eb,
02,
e5,
e9,
0c,
3a,
fe,
bf,
da,
f4,
24,
fa,
d1,
0f,
f2,
38,
f6,
10,
11,
d7,
17,
df,
ee,
01,
cc,
58,
c9,
1e,
1c,
f6,
ff,
f6,
f9,
e2,
eb,
d9,
1c,
e3,
0a,
e1,
e6,
0b,
f2,
fd,
ca,
4b,
25,
d5,
13,
38,
ba,
03,
0e,
e2,
f8,
f1,
f6,
11,
e5,
e9,
eb,
03,
0c,
f9,
18,
e8,
27,
ce,
ce,
1c,
fd,
36,
19,
f7,
e5,
fa,
e7,
ea,
d4,
0f,
d7,
3c,
ef,
39,
f9,
cb,
ee,
1c,
26,
3a,
dd,
4a,
3d,
f0,
fb,
f1,
23,
03,
f9,
dc,
cc,
12,
ed,
f8,
f1,
2a,
10,
29,
1d,
cf,
2d,
e0,
fe,
05,
e8,
f2,
ed,
05,
e5,
e8,
ea,
de,
63,
1f,
dc,
2e,
f2,
21,
04,
2c,
1f,
d4,
19,
30,
f1,
db,
28,
e0,
d9,
3d,
48,
b0,
11,
03,
b8,
13,
3d,
15,
2a,
fb,
c8,
e8,
0f,
f5,
f7,
30,
39,
f2,
b9,
04,
0a,
18,
20,
ee,
f5,
eb,
f0,
12,
f3,
0e,
e5,
2d,
03,
28,
f0,
1d,
4e,
f7,
bf,
10,
4e,
37,
9c,
ef,
3e,
16,
2d,
e1,
06,
f0,
0f,
15,
26,
03,
0d,
0a,
d8,
f4,
1e,
c2,
e5,
0e,
57,
e8,
d1,
17,
25,
de,
03,
ef,
ea,
bf,
f4,
09,
ee,
1e,
ee,
1d,
1c,
ed,
19,
1f,
03,
eb,
01,
01,
11,
1b,
e4,
2d,
16,
d8,
f6,
4b,
af,
27,
db,
d1,
17,
f4,
d9,
25,
f2,
d1,
dd,
f9,
17,
c2,
fd,
e8,
35,
bc,
1a,
12,
22,
f5,
39,
d4,
ea,
22,
90,
d1,
08,
65,
f6,
04,
2f,
af,
bd,
03,
e6,
49,
0d,
e7,
e4,
fd,
e6,
13,
da,
c5,
b1,
58,
09,
f2,
03,
38,
1c,
f6,
15,
3e,
08,
06,
06,
df,
18,
18,
c3,
dc,
12,
f0,
bf,
c2,
21,
d5,
f5,
fe,
34,
f0,
e6,
d4,
27,
f7,
e2,
e5,
17,
24,
e1,
1b,
02,
fc,
ed,
1f,
ea,
0f,
1c,
d8,
cc,
0d,
f3,
f3,
f3,
10,
0f,
fa,
1a,
22,
18,
09,
10,
d3,
00,
7f,
26,
a0,
e2,
e7,
ea,
45,
15,
16,
fd,
0a,
13,
d5,
fa,
ea,
08,
09,
c9,
6a,
0e,
2f,
e3,
0c,
b0,
3e,
24,
e2,
fc,
0e,
e1,
fb,
eb,
d8,
cb,
e8,
f4,
bb,
fa,
2b,
ec,
d6,
f4,
e2,
ee,
12,
ea,
1e,
30,
e5,
5a,
d0,
f3,
42,
e2,
07,
22,
aa,
23,
1e,
cc,
05,
05,
4c,
15,
d2,
02,
cb,
1b,
ec,
f9,
12,
80,
3a,
31,
56,
d3,
42,
df,
0b,
fa,
f5,
26,
1c,
f0,
f8,
26,
a4,
ce,
20,
1d,
fc,
33,
38,
2e,
d4,
1e,
6f,
e0,
2c,
d9,
68,
f6,
21,
c9,
46,
e0,
06,
fa,
eb,
e5,
f3,
f5,
04,
21,
db,
16,
03,
0c,
15,
42,
29,
f0,
d7,
f0,
25,
2c,
ed,
2b,
02,
05,
cb,
df,
2d,
05,
0d,
f1,
10,
2c,
f2,
12,
16,
2b,
eb,
fc,
b9,
e4,
ff,
3d,
b2,
fb,
a1,
f4,
16,
15,
1f,
17,
2e,
fe,
35,
e7,
24,
e0,
37,
f3,
0e,
12,
da,
04,
e2,
23,
e6,
40,
ee,
13,
fd,
17,
d1,
1c,
06,
47,
be,
b1,
e9,
e0,
15,
3c,
a0,
20,
03,
c8,
20,
0f,
10,
3f,
8c,
25,
2a,
3d,
09,
1e,
e0,
e3,
2a,
f8,
d7,
26,
11,
24,
ff,
04,
e5,
d8,
0d,
da,
eb,
19,
00,
97,
f5,
b3,
1a,
23,
ef,
08,
13,
1f,
14,
25,
e4,
10,
ec,
2d,
fe,
0e,
df,
f8,
16,
24,
3a,
a2,
35,
f8,
ff,
f3,
05,
37,
b3,
e2,
d5,
cf,
62,
50,
c6,
f0,
16,
04,
7a,
d7,
fe,
0d,
c1,
0c,
f8,
dd,
c2,
1c,
f6,
2e,
26,
e3,
f9,
1b,
e0,
f8,
39,
e9,
52,
c3,
cf,
ec,
e1,
a3,
33,
fd,
05,
21,
1d,
f9,
2e,
2f,
17,
31,
43,
d7,
b5,
23,
12,
06,
fc,
d1,
f5,
ed,
dc,
e3,
45,
81,
4c,
1f,
0c,
00,
f0,
1b,
e6,
d9,
00,
1e,
25,
39,
fc,
d9,
44,
d6,
48,
0a,
dc,
ea,
22,
44,
cc,
f5,
bf,
1a,
9a,
1b,
1b,
d4,
28,
05,
e5,
f2,
0d,
ee,
fd,
c7,
36,
be,
1f,
0a,
b7,
f8,
79,
d6,
d4,
1e,
e8,
54,
f5,
ea,
48,
24,
b9,
2e,
1b,
33,
24,
19,
1c,
2a,
22,
32,
be,
ee,
07,
3a,
14,
cf,
ea,
1f,
39,
0a,
09,
12,
10,
06,
31,
f3,
1d,
26,
e4,
0a,
e2,
1b,
ef,
d7,
26,
a4,
11,
18,
16,
06,
10,
1b,
b6,
a1,
26,
36,
30,
f2,
ff,
d7,
fc,
f9,
1f,
51,
d9,
21,
e8,
f9,
c1,
f5,
fe,
14,
fe,
01,
0b,
2d,
08,
ea,
f9,
1e,
fa,
b9,
0c,
cf,
46,
cd,
40,
2c,
2c,
f9,
30,
c9,
56,
0f,
f0,
ff,
e1,
f2,
26,
e0,
40,
12,
57,
e3,
f5,
e1,
30,
fd,
d9,
e5,
1d,
04,
1f,
fa,
e6,
de,
24,
fa,
de,
c1,
10,
00,
11,
5f,
95,
42,
24,
d0,
18,
f8,
c1,
02,
f5,
f9,
22,
da,
05,
ed,
eb,
e7,
d4,
ee,
0d,
e1,
fb,
ee,
15,
fe,
03,
f6,
da,
bf,
4d,
cb,
0b,
0b,
ba,
c6,
1e,
00,
01,
ef,
f2,
eb,
0c,
11,
f1,
0d,
43,
4f,
eb,
10,
e1,
16,
08,
08,
0a,
d8,
64,
b0,
4b,
e7,
24,
18,
f3,
3c,
72,
ee,
a9,
d1,
0a,
1d,
0c,
06,
bf,
ca,
f8,
a7,
bd,
0a,
0b,
f6,
05,
0f,
1c,
ed,
b0,
05,
0f,
cc,
d7,
f4,
03,
16,
43,
ed,
2b,
16,
05,
dd,
51,
f5,
90,
8f,
db,
1c,
c3,
f0,
e9,
e9,
05,
f7,
f3,
9e,
3b,
31,
0c,
4c,
c4,
0f,
31,
39,
dc,
0d,
e3,
f0,
14,
0b,
f5,
08,
fd,
d0,
ee,
a8,
10,
29,
4a,
80,
18,
ba,
35,
de,
47,
de,
3d,
df,
2b,
c2,
11,
f8,
20,
39,
f4,
b4,
a7,
65,
30,
e2,
eb,
02,
e2,
20,
64,
c5,
c5,
09,
03,
23,
41,
45,
f1,
13,
bf,
db,
07,
04,
f1,
2b,
da,
39,
fb,
48,
e4,
19,
23,
2e,
44,
c7,
ff,
12,
b4,
44,
36,
c6,
d7,
38,
2d,
1f,
2c,
db,
0c,
d8,
c8,
d2,
e9,
0b,
38,
f7,
ea,
e7,
e5,
3c,
d7,
48,
d7,
28,
ed,
58,
ed,
03,
c2,
1c,
fe,
da,
37,
fa,
a7,
22,
ab,
fa,
4f,
0b,
01,
0b,
f7,
f9,
eb,
5d,
b1,
00,
25,
f4,
98,
df,
52,
e8,
d2,
27,
f4,
0a,
f8,
04,
f1,
3b,
fc,
d8,
32,
f2,
68,
a5,
45,
af,
60,
d0,
26,
08,
d6,
d2,
16,
e3,
23,
d4,
23,
20,
0e,
10,
dc,
f9,
2c,
cf,
28,
a7,
3c,
4b,
ba,
08,
03,
0d,
2d,
f6,
d4,
ab,
4b,
05,
e2,
1e,
41,
20,
9e,
ef,
0f,
ed,
36,
2f,
04,
10,
cc,
05,
af,
51,
0f,
93,
24,
ed,
ab,
61,
10,
14,
17,
f4,
37,
3c,
ac,
5c,
34,
dd,
cc,
e9,
03,
05,
0c,
13,
16,
bf,
14,
3f,
a7,
1b,
27,
00,
fe,
ee,
2c,
f7,
22,
ce,
fb,
20,
cd,
53,
d1,
2c,
43,
3d,
0d,
05,
e4,
12,
ce,
fc,
f5,
ea,
e8,
c9,
1d,
e8,
16,
eb,
e6,
7b,
d1,
9b,
d4,
2e,
fc,
e5,
d7,
1f,
cb,
11,
25,
ff,
e0,
bf,
5e,
09,
f3,
d7,
09,
eb,
0b,
ae,
1f,
17,
c4,
ec,
da,
2f,
10,
17,
e0,
e7,
16,
2a,
10,
f4,
de,
f9,
04,
c4,
fb,
0a,
24,
fe,
db,
16,
e6,
f9,
e3,
18,
37,
46,
c1,
2f,
06,
fa,
08,
24,
2e,
e1,
d9,
f4,
0f,
fd,
1f,
12,
e8,
0a,
0d,
f2,
c3,
cd,
59,
dd,
e5,
d3,
41,
cf,
57,
19,
ef,
00,
21,
05,
04,
15,
d2,
19,
e1,
e4,
c6,
df,
25,
1b,
e6,
e3,
13,
19,
21,
f1,
d9,
29,
e3,
07,
d7,
c2,
16,
c1,
1d,
41,
01,
23,
dc,
d8,
5b,
e9,
27,
03,
e2,
c7,
00,
c0,
11,
ed,
c6,
0f,
ff,
20,
01,
df,
1b,
e4,
37,
c9,
bb,
ee,
df,
1a,
25,
ef,
1e,
fa,
1e,
1b,
ea,
0a,
1c,
0d,
00,
49,
13,
1f,
d4,
ff,
12,
17,
f9,
1a,
1b,
d9,
f1,
dd,
e8,
ee,
e3,
fd,
e0,
53,
ce,
ff,
0e,
07,
07,
e1,
f3,
14,
0f,
f2,
01,
c3,
32,
05,
c8,
e8,
cd,
e5,
ea,
fe,
29,
f4,
24,
da,
4a,
2d,
0e,
e7,
f8,
3a,
d5,
0e,
de,
eb,
db,
ea,
e0,
f8,
18,
b4,
40,
7f,
d8,
f2,
f0,
1e,
1c,
ec,
f7,
c8,
04,
e9,
bf,
3a,
19,
fc,
06,
f9,
f7,
32,
b2,
05,
07,
d6,
25,
26,
eb,
11,
00,
c2,
19,
d6,
f9,
ce,
56,
f4,
02,
b7,
f2,
4e,
ea,
d5,
ec,
fc,
28,
11,
2f,
e3,
0d,
49,
06,
0f,
03,
ed,
f0,
1d,
e8,
13,
ee,
12,
db,
20,
f6,
12,
e3,
1a,
0b,
d7,
40,
e6,
e9,
21,
39,
bf,
20,
a2,
33,
11,
c3,
b8,
2f,
fa,
f5,
d0,
06,
16,
fb,
bb,
8d,
13,
25,
d9,
ca,
e7,
12,
22,
38,
d9,
c1,
2f,
f8,
34,
f5,
24,
23,
f2,
b7,
f2,
f8,
dc,
12,
eb,
24,
ff,
21,
49,
b7,
e4,
f9,
39,
16,
bf,
4a,
f7,
e0,
c2,
00,
d9,
24,
1a,
ea,
24,
3f,
04,
25,
f5,
1d,
e6,
f2,
27,
5e,
f3,
d1,
fb,
03,
dd,
ea,
37,
0e,
04,
eb,
0f,
d8,
f9,
2b,
06,
bc,
18,
ef,
3e,
d5,
5f,
e0,
ea,
18,
d1,
2f,
1c,
e1,
f5,
e8,
3a,
80,
1a,
09,
d7,
d1,
da,
38,
ea,
e5,
40,
c9,
29,
ea,
16,
19,
29,
eb,
21,
df,
39,
ec,
88,
58,
b1,
35,
30,
e2,
fd,
e8,
17,
de,
fb,
16,
de,
dc,
e8,
06,
2c,
cd,
2a,
17,
03,
30,
cd,
f1,
47,
c1,
e5,
16,
00,
df,
3a,
ec,
ca,
37,
46,
d5,
fc,
08,
fa,
ea,
14,
12,
12,
f3,
e2,
19,
10,
19,
57,
ec,
32,
db,
f0,
10,
05,
ac,
1f,
0e,
23,
1e,
d1,
1b,
fb,
fb,
53,
3a,
da,
e2,
20,
0d,
e0,
0c,
de,
d8,
0b,
1d,
08,
fd,
12,
e5,
f4,
e7,
11,
c0,
fd,
f9,
e2,
1f,
b4,
1c,
e5,
f8,
fa,
14,
df,
1c,
cb,
42,
f9,
f6,
cc,
01,
31,
ff,
d0,
f1,
eb,
f7,
29,
d4,
f9,
28,
60,
e2,
2a,
e9,
d8,
18,
23,
03,
da,
0c,
e5,
06,
fa,
ef,
40,
d0,
16,
09,
98,
26,
3b,
cb,
ee,
ed,
09,
1d,
f7,
1f,
dd,
1e,
d3,
0b,
2d,
31,
05,
18,
ef,
fa,
12,
b8,
f8,
21,
dc,
26,
f4,
e7,
f8,
35,
cc,
fb,
12,
06,
12,
dc,
f7,
00,
21,
e5,
e8,
f6,
f8,
f5,
12,
19,
1c,
fe,
16,
cf,
ef,
fa,
1e,
ff,
e7,
31,
ce,
f0,
d6,
29,
10,
28,
0c,
0e,
f6,
ce,
17,
02,
1e,
30,
e6,
0e,
ec,
e3,
ec,
25,
0d,
e3,
ec,
0b,
05,
05,
ff,
e7,
36,
39,
06,
c3,
e9,
fc,
34,
17,
4d,
d7,
25,
d1,
13,
ea,
f5,
f9,
2a,
e4,
ce,
02,
0e,
81,
e1,
dc,
0b,
e9,
f7,
dc,
13,
c6,
0c,
de,
03,
04,
e2,
1d,
2c,
c6,
f0,
13,
10,
1f,
be,
1c,
02,
04,
d8,
d4,
0f,
fa,
05,
17,
f4,
f5,
f2,
04,
ef,
01,
1b,
de,
f5,
dd,
e0,
24,
b3,
ef,
0e,
06,
15,
e9,
18,
09,
14,
e7,
ed,
30,
0f,
ed,
f2,
15,
08,
e0,
07,
47,
0b,
18,
0f,
f7,
15,
dc,
13,
e4,
eb,
f0,
e9,
4b,
17,
02,
49,
e4,
18,
ef,
ea,
24,
01,
c9,
14,
24,
e9,
02,
12,
ff,
f7,
ea,
16,
0f,
23,
25,
20,
ec,
2d,
09,
33,
37,
0e,
41,
f9,
0c,
e6,
fa,
a8,
2e,
11,
30,
4e,
cf,
14,
0a,
29,
b3,
e6,
d2,
fd,
e2,
f2,
25,
32,
2e,
1d,
eb,
f4,
d8,
1c,
16,
47,
d0,
b0,
1e,
e8,
ab,
db,
2c,
c4,
fb,
ce,
e1,
06,
36,
73,
32,
26,
d4,
1d,
d3,
35,
15,
db,
15,
2a,
2b,
1b,
86,
02,
14,
e8,
3a,
2b,
13,
fb,
d6,
02,
05,
34,
0d,
43,
b4,
2a,
78,
24,
10,
e9,
27,
f3,
48,
d4,
21,
11,
46,
0b,
ea,
af,
69,
13,
e6,
14,
38,
eb,
16,
08,
28,
de,
f5,
f7,
55,
0a,
f4,
f3,
ce,
b7,
04,
c4,
37,
fe,
4f,
1c,
cf,
0d,
b4,
38,
fc,
f3,
36,
1d,
dd,
f7,
02,
ae,
1a,
1a,
f9,
22,
2e,
aa,
3e,
f1,
d7,
14,
37,
ee,
00,
97,
62,
08,
c7,
2c,
e7,
c7,
f6,
f5,
3d,
1a,
fc,
a3,
4a,
b4,
45,
f1,
51,
80,
e5,
e6,
32,
dd,
a7,
2a,
18,
f1,
00,
e6,
ee,
f6,
ef,
24,
0f,
0a,
f9,
37,
0f,
50,
a1,
07,
0b,
d3,
17,
0f,
eb,
ec,
35,
e0,
d3,
24,
0e,
f8,
2b,
f1,
ee,
21,
0a,
40,
d3,
18,
20,
2c,
3a,
20,
0e,
e7,
ed,
ed,
3d,
37,
03,
b6,
52,
1f,
0f,
df,
00,
f9,
26,
01,
2e,
b5,
2e,
d0,
c9,
dd,
c2,
ed,
fd,
05,
2b,
c7,
46,
a1,
ea,
f5,
b0,
5f,
2e,
31,
ef,
34,
83,
cf,
f7,
cb,
1d,
33,
dc,
07,
16,
eb,
9b,
2c,
51,
1b,
e1,
db,
ee,
ee,
18,
26,
21,
13,
dd,
6e,
aa,
02,
0d,
3f,
f5,
2f,
f7,
ee,
c6,
31,
0f,
c6,
34,
d4,
26,
da,
fb,
01,
ed,
e4,
fd,
e9,
0e,
c9,
14,
14,
1a,
ef,
0c,
fd,
31,
13,
2d,
19,
1d,
1b,
b9,
d4,
60,
da,
07,
4b,
d0,
fa,
f9,
d3,
ef,
00,
29,
cb,
4c,
b8,
33,
24,
ed,
d8,
c0,
f1,
06,
2d,
0a,
f4,
f0,
0d,
20,
0e,
e0,
04,
24,
fe,
22,
0d,
07,
cf,
18,
23,
28,
0e,
0b,
09,
dc,
18,
eb,
27,
19,
05,
0e,
e8,
1e,
17,
30,
10,
cc,
13,
fa,
46,
c3,
22,
b0,
38,
e0,
d6,
06,
15,
f4,
da,
24,
e6,
f6,
17,
b0,
fb,
1e,
01,
e5,
1c,
e2,
dd,
da,
21,
dc,
1d,
d4,
f5,
f9,
09,
d7,
21,
ef,
5d,
ac,
b3,
25,
d7,
20,
0c,
b0,
f1,
2b,
bf,
07,
ea,
c4,
60,
a1,
04,
34,
7f,
0a,
e2,
b7,
14,
48,
fe,
13,
01,
e5,
10,
f0,
db,
cc,
e0,
2b,
03,
0a,
f7,
da,
e6,
3e,
dc,
19,
fe,
f9,
11,
27,
e0,
f9,
ec,
e3,
f7,
e0,
11,
17,
ee,
2a,
0a,
fb,
f8,
e7,
00,
21,
23,
c0,
0a,
00,
24,
d3,
ec,
12,
f1,
f5,
13,
0d,
f0,
df,
08,
02,
19,
03,
01,
00,
2a,
ec,
37,
da,
06,
ee,
fc,
07,
01,
df,
22,
97,
2a,
18,
cd,
50,
10,
e2,
06,
31,
be,
40,
dc,
f8,
17,
fd,
e0,
0d,
f7,
02,
fa,
22,
25,
c2,
f8,
1e,
11,
01,
11,
19,
10,
e5,
4f,
d7,
fc,
ae,
e2,
25,
c7,
2c,
f9,
03,
28,
c5,
cf,
18,
0a,
bc,
df,
2a,
d8,
d5,
e7,
ec,
01,
17,
ec,
fc,
dd,
4c,
ea,
f6,
25,
e4,
12,
1c,
f0,
02,
e5,
f4,
df,
07,
e5,
48,
f5,
e0,
33,
de,
cb,
1c,
2f,
1f,
d6,
23,
38,
1c,
d7,
40,
6a,
c3,
e8,
0e,
29,
e2,
02,
10,
e5,
3f,
02,
d3,
13,
fc,
0e,
ec,
05,
f8,
d7,
03,
f2,
29,
ee,
c2,
e4,
fb,
cf,
19,
f7,
12,
24,
ef,
23,
fd,
11,
e8,
18,
15,
d7,
fb,
f8,
d3,
0e,
ee,
dc,
e2,
22,
f8,
17,
cd,
02,
ea,
08,
13,
ce,
e0,
f8,
e2,
20,
f6,
00,
c6,
f1,
29,
fd,
1d,
03,
08,
26,
dc,
dd,
01,
fb,
1a,
1f,
f9,
3c,
ed,
1b,
d0,
b0,
4f,
d3,
1b,
f7,
e0,
29,
06,
ec,
f9,
22,
ce,
cb,
7f,
fe,
0e,
15,
0d,
05,
f3,
01,
d6,
13,
ed,
15,
04,
11,
e4,
f7,
e1,
d7,
0d,
b2,
2e,
1a,
cb,
15,
fe,
dd,
32,
16,
fd,
02,
f6,
00,
fb,
f0,
17,
ed,
f5,
de,
e7,
fa,
22,
e9,
c2,
ad,
2f,
06,
f7,
08,
e6,
f3,
fe,
ed,
db,
11,
31,
fc,
f6,
fc,
2e,
15,
34,
f5,
0c,
15,
d5,
db,
44,
6d,
d7,
df,
0e,
39,
fd,
f2,
cf,
eb,
35,
d5,
5e,
f2,
61,
bf,
ea,
13,
0f,
e3,
f7,
17,
e3,
0c,
e7,
ec,
1a,
0a,
01,
0b,
eb,
31,
c7,
e6,
2f,
31,
d5,
df,
b3,
d9,
16,
a3,
2e,
25,
e9,
1a,
f2,
2d,
e5,
0d,
0b,
bd,
e8,
08,
11,
a6,
cf,
d0,
11,
d9,
46,
ed,
23,
3e,
c1,
78,
f1,
a7,
94,
5e,
93,
dc,
30,
2a,
fb,
39,
2e,
11,
fd,
25,
d6,
c6,
b9,
f6,
32,
c6,
f5,
e7,
2a,
29,
b2,
05,
fc,
02,
06,
df,
11,
01,
d6,
1f,
f9,
ff,
ec,
f4,
21,
c8,
dd,
04,
5b,
d5,
a4,
fa,
fc,
d4,
e2,
fc,
28,
3b,
99,
39,
0a,
08,
d1,
26,
be,
ec,
dc,
ca,
21,
21,
fb,
df,
28,
03,
da,
55,
9c,
0c,
6c,
ee,
1e,
b7,
1c,
31,
61,
31,
da,
2b,
dc,
22,
04,
0c,
bc,
09,
e9,
da,
ca,
2b,
27,
22,
f4,
27,
08,
cb,
0c,
24,
c9,
27,
d7,
03,
b2,
06,
07,
e3,
31,
45,
62,
fd,
14,
23,
db,
10,
0b,
eb,
2b,
0a,
a8,
da,
fc,
43,
80,
45,
ca,
f7,
d3,
e9,
39,
e9,
f4,
e4,
ca,
f0,
f5,
28,
f6,
1e,
c9,
e6,
11,
39,
e2,
c3,
2d,
07,
4d,
16,
fd,
1e,
ca,
d8,
25,
f8,
f4,
fa,
26,
c1,
d8,
c9,
e3,
1f,
01,
f6,
17,
1a,
de,
0e,
da,
22,
ec,
22,
36,
d3,
cf,
cd,
d0,
e7,
1e,
29,
b3,
e0,
8c,
ea,
20,
da,
34,
39,
2d,
46,
6b,
0d,
ee,
cc,
2c,
e6,
20,
32,
f4,
21,
fe,
c4,
0e,
eb,
4a,
f2,
4e,
4a,
03,
ed,
05,
28,
1f,
f8,
0e,
cd,
27,
be,
20,
e9,
e4,
fd,
05,
e2,
0e,
14,
d0,
f3,
fb,
2c,
e9,
f1,
f0,
b9,
ec,
39,
09,
e5,
2a,
fd,
36,
29,
ed,
cc,
f2,
26,
c5,
1a,
fa,
04,
fb,
10,
f3,
f0,
30,
7f,
10,
01,
f3,
25,
fa,
1d,
a6,
f3,
f7,
e4,
0d,
f7,
ec,
4e,
98,
39,
e3,
f2,
28,
19,
b1,
cc,
dd,
34,
ec,
f6,
b7,
1b,
ea,
b0,
10,
cd,
07,
0a,
fa,
25,
09,
12,
fc,
c3,
1f,
c2,
3e,
c4,
eb,
d0,
dc,
11,
2b,
02,
0b,
da,
f5,
09,
ea,
e5,
ee,
02,
f8,
f8,
2d,
fb,
f3,
1b,
17,
4e,
e3,
e6,
4b,
e2,
eb,
d1,
1e,
2d,
00,
14,
b4,
fc,
28,
01,
09,
f4,
ea,
f1,
1d,
e8,
1a,
00,
1a,
f9,
f5,
f1,
49,
e6,
00,
ed,
03,
c9,
ef,
27,
11,
0b,
71,
fc,
c5,
1b,
22,
3f,
19,
6c,
fc,
15,
12,
14,
dc,
24,
1d,
f1,
15,
c2,
29,
0a,
a3,
a2,
f5,
04,
ed,
17,
f5,
d9,
ff,
fa,
01,
15,
f4,
ec,
1e,
1d,
35,
1b,
f2,
e0,
00,
d9,
f7,
c2,
2d,
24,
fa,
f0,
2c,
f7,
20,
f5,
e4,
f7,
05,
fa,
fb,
ee,
05,
f1,
fe,
13,
0c,
2e,
06,
00,
0d,
12,
0d,
04,
eb,
35,
e2,
34,
09,
20,
0e,
12,
2b,
07,
b9,
da,
1f,
de,
00,
ed,
f5,
d3,
21,
ee,
f4,
d3,
05,
f5,
16,
d4,
f2,
2f,
dd,
2f,
bf,
23,
f5,
d5,
c9,
00,
34,
fb,
eb,
1a,
06,
f1,
04,
f6,
17,
4b,
0d,
2c,
19,
17,
ea,
03,
1d,
f6,
1b,
2c,
e5,
c8,
34,
d4,
7f,
41,
eb,
c8,
e9,
11,
e1,
20,
4a,
cc,
0d,
1a,
30,
3c,
ee,
08,
f6,
fa,
e8,
d6,
2b,
fa,
df,
44,
0c,
1d,
df,
1d,
1a,
f5,
08,
10,
05,
fa,
1f,
e9,
3a,
2a,
ab,
e2,
3d,
d5,
1c,
1b,
f8,
d2,
2a,
ed,
ff,
fa,
1a,
55,
ac,
8c,
2e,
2f,
fd,
15,
e8,
e2,
16,
1c,
bf,
0b,
00,
cf,
11,
f2,
fc,
0d,
02,
1a,
dc,
08,
13,
0e,
17,
14,
01,
1a,
3e,
09,
01,
00,
0e,
0f,
e5,
da,
e9,
1b,
11,
f6,
26,
ee,
0d,
d5,
1b,
30,
21,
d6,
17,
e2,
24,
0f,
00,
21,
f9,
f1,
e5,
d3,
28,
e7,
fa,
e2,
0f,
fa,
fe,
e3,
11,
ff,
fc,
de,
1e,
f1,
0a,
e2,
f7,
f4,
6c,
ef,
39,
01,
36,
33,
d0,
fe,
2c,
e9,
e8,
da,
0a,
35,
42,
a3,
1c,
eb,
c4,
e8,
d2,
1b,
0b,
e8,
ef,
f0,
07,
e4,
f2,
07,
1c,
ec,
15,
38,
04,
10,
dc,
0e,
dc,
dd,
d9,
02,
e7,
3f,
b2,
ef,
0f,
0b,
01,
f5,
00,
e1,
e2,
33,
09,
25,
02,
17,
f6,
ff,
28,
2d,
ff,
d7,
f1,
13,
e7,
ff,
f2,
14,
cb,
22,
07,
31,
e4,
f9,
dd,
1a,
4b,
f8,
bf,
03,
e9,
ec,
bc,
c3,
3b,
18,
ea,
c9,
ed,
e7,
49,
23,
21,
bb,
08,
27,
e9,
35,
1a,
e0,
df,
20,
d8,
02,
e4,
f2,
11,
ee,
f8,
e7,
e0,
09,
f3,
cc,
5c,
d3,
dc,
fa,
ee,
ec,
cc,
d8,
ad,
22,
ff,
80,
e3,
38,
3a,
c4,
49,
b3,
0e,
fe,
dc,
14,
a2,
af,
97,
d9,
3a,
b7,
d4,
e0,
eb,
0d,
01,
c7,
1d,
6b,
12,
0e,
38,
c4,
0a,
ff,
2d,
bc,
cf,
1a,
e9,
18,
09,
23,
1c,
2a,
f3,
c1,
21,
f1,
37,
28,
35,
fb,
2a,
e7,
31,
dd,
36,
4b,
ce,
20,
e4,
dd,
2f,
e3,
fa,
fa,
ee,
42,
07,
01,
e5,
cf,
2f,
01,
63,
ca,
e2,
e3,
24,
ee,
de,
f5,
e0,
fc,
1f,
c2,
c7,
d7,
f9,
ff,
1c,
0d,
01,
f3,
eb,
9b,
00,
3b,
ca,
ec,
c1,
c7,
b0,
19,
2f,
2e,
ed,
17,
f7,
ec,
bb,
f6,
e7,
29,
1f,
2d,
30,
00,
f3,
d7,
0b,
d4,
15,
c8,
d8,
dc,
f6,
d3,
0e,
42,
24,
10,
a8,
ea,
03,
19,
2e,
f5,
11,
18,
cf,
e3,
e5,
4a,
e8,
13,
24,
2b,
08,
1d,
08,
ba,
e2,
01,
ba,
d2,
25,
fa,
ef,
f8,
b6,
1e,
e0,
24,
ee,
ea,
d9,
20,
23,
e2,
15,
db,
f8,
03,
1f,
8e,
27,
df,
24,
23,
2e,
03,
20,
f5,
f7,
06,
01,
fc,
03,
1a,
d4,
f9,
d6,
ac,
0b,
3e,
e7,
0f,
de,
ec,
e3,
c7,
1f,
c2,
4b,
dc,
08,
f1,
3c,
cf,
ee,
cf,
1c,
3e,
04,
0a,
30,
5b,
a2,
ed,
d4,
24,
f1,
cd,
03,
e8,
46,
2a,
16,
1b,
42,
ea,
f6,
3d,
b8,
57,
0c,
29,
28,
16,
15,
0d,
da,
15,
d6,
04,
08,
0b,
23,
10,
dc,
06,
eb,
f4,
00,
e3,
ca,
cb,
5b,
2c,
96,
b4,
2d,
eb,
9f,
4c,
f0,
94,
63,
52,
41,
d5,
19,
f1,
09,
de,
f8,
ee,
e2,
11,
17,
7e,
b9,
c8,
d4,
c6,
eb,
f4,
0c,
1c,
bd,
fc,
0f,
f8,
17,
48,
c7,
f5,
f3,
e7,
ec,
20,
d7,
db,
2a,
61,
06,
ed,
18,
35,
0a,
b1,
4d,
3d,
1a,
d6,
04,
13,
ef,
f9,
1e,
1b,
b9,
ed,
0b,
dc,
20,
3e,
e7,
e8,
d7,
fe,
2b,
22,
a3,
dd,
2a,
ec,
ea,
cc,
05,
17,
e5,
f3,
ee,
f9,
fe,
28,
0a,
d9,
c2,
4c,
d3,
a8,
6b,
fe,
35,
b6,
08,
ce,
0c,
21,
af,
d5,
e8,
15,
f2,
11,
fe,
2e,
0c,
ee,
b8,
dc,
dc,
ee,
08,
29,
0a,
26,
f3,
01,
27,
dc,
fd,
aa,
3a,
fc,
c0,
ad,
f4,
6c,
91,
5a,
09,
fa,
ae,
d8,
e9,
f7,
cf,
bd,
17,
1c,
3c,
5a,
96,
05,
e1,
0e,
0f,
20,
1f,
0b,
09,
d3,
33,
fd,
f1,
00,
22,
e3,
80,
e4,
11,
1e,
bc,
bf,
0d,
f1,
20,
fe,
0a,
19,
ef,
dc,
fd,
db,
e9,
de,
fe,
f0,
13,
d9,
f6,
20,
07,
b2,
24,
c6,
05,
3a,
13,
e9,
1d,
1f,
03,
ec,
40,
14,
39,
e1,
26,
fc,
24,
21,
fc,
1a,
4e,
e5,
f3,
16,
01,
3d,
31,
ae,
45,
13,
28,
d2,
e4,
ba,
3d,
0e,
12,
08,
35,
e3,
31,
51,
14,
cf,
cc,
ee,
e3,
e5,
17,
e7,
dd,
13,
f7,
fc,
36,
ee,
03,
0f,
f8,
26,
f6,
23,
e3,
17,
0e,
e4,
ff,
de,
64,
63,
fe,
bf,
1a,
1b,
e7,
f2,
48,
09,
01,
2c,
2a,
24,
d3,
ce,
fd,
1c,
e4,
02,
f9,
fb,
02,
26,
1a,
19,
e2,
13,
d9,
e9,
37,
0b,
18,
24,
26,
e9,
09,
ff,
f2,
ee,
51,
ce,
16,
38,
d4,
c3,
68,
af,
22,
aa,
49,
44,
ea,
94,
0f,
3e,
fc,
f0,
19,
d0,
e0,
0a,
ac,
1d,
12,
09,
f3,
d2,
e1,
fe,
19,
e3,
e2,
e6,
28,
3c,
0f,
1e,
0e,
18,
05,
f8,
f1,
0d,
d9,
dc,
15,
f8,
13,
d6,
1c,
3f,
b1,
1a,
27,
ef,
2f,
0f,
d9,
a0,
35,
14,
16,
e8,
e0,
eb,
17,
2f,
f9,
de,
34,
ea,
1c,
1b,
4c,
32,
ce,
fd,
0c,
0b,
e6,
ed,
10,
e0,
db,
1c,
aa,
0a,
11,
e0,
19,
ef,
05,
e4,
d6,
e0,
c1,
26,
e9,
d3,
fd,
1d,
f5,
eb,
12,
0b,
0d,
24,
ed,
db,
fd,
e1,
f9,
28,
37,
24,
e0,
23,
1c,
01,
e7,
e0,
15,
06,
ea,
0f,
c8,
be,
20,
ff,
e0,
1a,
ba,
0a,
1a,
eb,
f4,
14,
df,
ea,
13,
3a,
fa,
22,
d5,
04,
d8,
da,
1f,
12,
04,
d2,
29,
09,
f8,
32,
f7,
24,
07,
d3,
42,
20,
d8,
16,
01,
22,
7f,
f1,
db,
f5,
24,
30,
d4,
c9,
1c,
4f,
d3,
04,
d8,
0f,
1b,
53,
1d,
db,
d8,
0d,
fc,
24,
01,
d1,
0a,
10,
c3,
19,
1a,
db,
f4,
fe,
18,
eb,
e5,
02,
14,
bd,
e1,
0b,
16,
13,
df,
f8,
01,
06,
33,
7d,
fa,
74,
81,
db,
e3,
29,
35,
f3,
d8,
2b,
ef,
d8,
00,
04,
24,
3e,
08,
17,
b2,
10,
f9,
ed,
1c,
f9,
e6,
0b,
1c,
16,
4e,
0f,
f9,
e7,
af,
e0,
da,
15,
dc,
fe,
28,
df,
ea,
0c,
fa,
34,
f1,
a9,
96,
4e,
b2,
fb,
f9,
2d,
f5,
ec,
e9,
f2,
29,
bf,
fa,
06,
f0,
21,
e4,
f5,
0c,
dd,
28,
da,
15,
fa,
e8,
e2,
d5,
e8,
15,
25,
1b,
f2,
a5,
27,
fc,
f3,
01,
16,
fd,
11,
24,
2e,
20,
2d,
17,
56,
07,
bf,
21,
fc,
f5,
22,
0a,
27,
38,
e2,
ae,
d1,
21,
1a,
18,
22,
03,
ca,
18,
d2,
03,
f5,
ea,
01,
fd,
f5,
fa,
f2,
17,
27,
15,
34,
07,
1c,
f9,
07,
67,
06,
f1,
58,
bc,
1c,
d2,
3e,
e3,
3c,
29,
fb,
dd,
07,
25,
e1,
f9,
14,
cf,
f7,
de,
f5,
26,
f0,
fc,
f5,
f5,
b6,
00,
f9,
dc,
fa,
e1,
14,
00,
bd,
2a,
03,
fd,
ba,
d7,
ed,
27,
cd,
fe,
2f,
c6,
02,
26,
de,
fa,
24,
e5,
f4,
f4,
d2,
f8,
05,
2b,
fe,
fd,
04,
0b,
53,
e2,
c1,
ed,
1a,
13,
07,
d4,
2d,
f9,
47,
f0,
10,
c4,
10,
3e,
ff,
24,
eb,
c7,
ea,
c4,
bf,
17,
b8,
f6,
cc,
3a,
01,
21,
03,
cb,
07,
b8,
fb,
f9,
1d,
26,
cd,
fe,
d5,
e4,
f4,
24,
12,
f9,
0f,
11,
fb,
39,
19,
0c,
10,
16,
2f,
0c,
f2,
1a,
e3,
0a,
eb,
c7,
e2,
09,
06,
0c,
1d,
05,
bf,
22,
63,
a0,
0f,
10,
c9,
27,
53,
27,
b5,
fa,
ea,
eb,
35,
ee,
f4,
19,
00,
ec,
24,
1a,
1c,
b9,
1a,
da,
10,
32,
e7,
ac,
f0,
fe,
e0,
ed,
14,
d9,
53,
c3,
28,
cf,
ff,
01,
37,
17,
bf,
d5,
53,
f3,
0d,
e8,
f3,
2b,
d4,
11,
c6,
e6,
e3,
fd,
0a,
ff,
37,
f9,
ae,
37,
9b,
32,
fe,
ee,
f0,
d1,
07,
0f,
45,
f9,
e2,
0d,
2a,
e6,
ee,
f6,
01,
fa,
08,
24,
de,
0e,
0e,
f4,
0a,
de,
09,
14,
c7,
41,
c9,
30,
ed,
32,
18,
0a,
ea,
32,
ef,
0c,
1c,
d2,
ea,
19,
14,
f8,
10,
cd,
0a,
10,
e6,
14,
0c,
0e,
2c,
1b,
0b,
f1,
08,
df,
05,
4b,
e9,
17,
bd,
07,
18,
10,
51,
0d,
40,
d2,
ed,
0d,
ed,
ff,
d4,
09,
eb,
09,
34,
80,
cd,
e3,
ee,
17,
e0,
e7,
ee,
0f,
14,
07,
d6,
17,
02,
2a,
11,
e8,
09,
0e,
06,
04,
e1,
14,
cf,
24,
fb,
f0,
1d,
19,
e3,
e4,
1c,
0b,
e8,
12,
de,
09,
0f,
01,
0f,
e6,
fb,
10,
34,
fd,
0e,
0a,
0c,
ef,
f5,
ec,
16,
32,
26,
b3,
13,
09,
fc,
fc,
df,
a2,
11,
11,
06,
1c,
18,
0d,
03,
02,
a3,
0f,
f2,
11,
16,
24,
cc,
e1,
41,
d7,
29,
c1,
33,
ed,
1c,
e9,
97,
fa,
ea,
1c,
08,
00,
fb,
18,
1a,
16,
f5,
f6,
f0,
10,
f4,
fd,
27,
f3,
1c,
0d,
25,
25,
28,
13,
2e,
fa,
04,
b7,
ca,
ff,
03,
f9,
1e,
50,
cb,
14,
44,
40,
6f,
eb,
fc,
07,
d8,
eb,
f7,
22,
0c,
bb,
0e,
e6,
43,
17,
2b,
3a,
1e,
e9,
fb,
df,
29,
15,
05,
37,
17,
90,
4f,
fe,
dc,
4b,
31,
81,
3c,
ed,
1c,
ca,
dd,
cf,
2f,
c8,
83,
25,
45,
15,
06,
29,
ef,
16,
32,
0c,
fd,
29,
ff,
f5,
dc,
c9,
02,
19,
1b,
00,
32,
11,
23,
e0,
24,
0c,
18,
11,
08,
14,
fb,
f3,
e7,
f9,
1d,
13,
17,
fb,
de,
2c,
07,
04,
ff,
5a,
15,
4f,
9c,
db,
18,
3d,
ed,
0f,
25,
15,
da,
e9,
1e,
1a,
f9,
16,
ea,
02,
2b,
d8,
2a,
08,
dd,
23,
c5,
ef,
29,
db,
18,
0f,
fa,
23,
2a,
1a,
0c,
1d,
40,
b7,
06,
fa,
f7,
f4,
fb,
f9,
3e,
fc,
c5,
14,
ce,
ae,
b6,
de,
28,
1d,
1f,
d1,
08,
19,
fd,
cd,
0b,
02,
da,
22,
fc,
0d,
27,
de,
11,
c9,
13,
0d,
f6,
cc,
5d,
cf,
10,
f7,
e1,
08,
17,
10,
f8,
22,
14,
0a,
f1,
f2,
1c,
e5,
e4,
1c,
25,
fa,
c6,
30,
22,
e4,
0e,
e1,
1b,
cd,
0e,
e6,
25,
f3,
0d,
d0,
09,
16,
e7,
f9,
e1,
d5,
f3,
c9,
a2,
03,
24,
0e,
d1,
e1,
f3,
32,
40,
16,
00,
d3,
39,
fd,
07,
0c,
98,
d7,
e3,
1f,
ec,
22,
1a,
17,
12,
1e,
e3,
da,
69,
f9,
0e,
61,
01,
d5,
07,
13,
04,
cb,
04,
1f,
c6,
3e,
d8,
d9,
94,
5f,
1d,
aa,
04,
0e,
b1,
35,
3d,
de,
ac,
0d,
06,
df,
1e,
01,
0d,
e5,
0c,
03,
ef,
3c,
25,
e5,
e2,
1c,
dc,
fd,
0a,
02,
00,
1a,
0e,
0d,
58,
b3,
4f,
0a,
1e,
de,
dc,
03,
55,
48,
b9,
31,
2d,
48,
e9,
19,
e7,
31,
07,
18,
d1,
d0,
f6,
fe,
15,
e7,
63,
aa,
ee,
14,
f4,
44,
5f,
02,
12,
fb,
00,
0f,
ff,
ce,
f6,
1a,
1a,
0a,
ea,
e8,
2d,
28,
e3,
11,
fc,
1b,
24,
f1,
df,
d7,
16,
ec,
cf,
5b,
cd,
32,
ea,
db,
09,
16,
20,
20,
0f,
df,
21,
d8,
08,
ed,
f4,
e4,
18,
f9,
0e,
15,
b8,
19,
ef,
03,
08,
e5,
14,
f5,
e7,
1e,
2a,
2a,
03,
d9,
a5,
2c,
22,
b8,
58,
d4,
05,
80,
e2,
27,
09,
e0,
cf,
f6,
0f,
f0,
64,
82,
b0,
db,
f4,
f4,
07,
24,
4e,
d3,
e5,
41,
e9,
01,
0b,
e1,
f3,
d6,
0d,
29,
2f,
e8,
b6,
23,
fd,
51,
d6,
f6,
e5,
16,
01,
fc,
ec,
13,
ee,
15,
26,
ff,
23,
fc,
e0,
0d,
f6,
24,
87,
35,
6a,
16,
e5,
ef,
eb,
f8,
f9,
1c,
cb,
1f,
03,
0a,
df,
1c,
f9,
c9,
07,
2b,
e7,
2e,
22,
e4,
1d,
00,
c3,
d2,
11,
24,
b1,
f4,
d4,
16,
4c,
1c,
ec,
02,
11,
0e,
62,
d8,
af,
fa,
eb,
0d,
ea,
f5,
eb,
14,
2d,
fa,
f9,
35,
c2,
b4,
e8,
db,
16,
1c,
f5,
0a,
02,
3f,
cd,
10,
05,
31,
b8,
19,
2c,
ad,
1a,
24,
0c,
dc,
ff,
3f,
e4,
39,
f9,
d0,
63,
2f,
ea,
dd,
11,
00,
fc,
2c,
fe,
fd,
d2,
01,
ea,
fb,
fc,
f4,
e8,
2c,
ed,
ea,
49,
f9,
12,
f0,
1f,
1f,
38,
db,
36,
2c,
ce,
cd,
53,
15,
3f,
db,
3d,
e3,
b7,
21,
02,
fb,
1f,
04,
27,
ed,
7f,
08,
cf,
c8,
dc,
19,
22,
ee,
e5,
bc,
2e,
f8,
e3,
dd,
f8,
65,
21,
f9,
0f,
03,
0c,
2b,
fd,
1d,
d7,
df,
12,
12,
f2,
18,
1e,
17,
02,
f8,
de,
24,
08,
22,
f6,
f7,
01,
46,
21,
14,
1f,
e7,
2c,
10,
ea,
e7,
dc,
f3,
03,
d5,
e7,
ef,
f8,
de,
17,
27,
c7,
21,
e9,
e5,
d9,
0d,
e3,
49,
de,
28,
f2,
fb,
15,
1f,
ff,
e1,
09,
02,
0d,
08,
e1,
32,
d5,
dc,
14,
df,
bf,
19,
f5,
3c,
07,
ed,
e8,
11,
18,
48,
df,
df,
13,
20,
09,
15,
f4,
f2,
2e,
d2,
06,
f1,
16,
c4,
29,
03,
ed,
e6,
f2,
e9,
00,
e5,
fe,
fb,
34,
20,
e6,
39,
f8,
03,
27,
2f,
35,
27,
0b,
f2,
e7,
e5,
e7,
f6,
15,
1b,
27,
aa,
e2,
e9,
1d,
ef,
20,
dc,
16,
ea,
ee,
34,
15,
b1,
db,
1e,
ac,
13,
c9,
03,
00,
2c,
18,
13,
f5,
e1,
fc,
b1,
2e,
0e,
19,
e8,
9e,
dc,
0d,
15,
e8,
22,
e3,
18,
18,
e9,
d0,
ec,
ae,
00,
31,
02,
12,
01,
f0,
bc,
dd,
f0,
13,
33,
e3,
ba,
24,
ca,
32,
41,
de,
55,
f8,
e9,
16,
18,
b2,
f9,
23,
1e,
de,
e2,
24,
0b,
18,
d0,
2c,
9a,
0c,
a9,
74,
f5,
14,
d6,
0c,
b7,
e3,
ff,
d1,
ec,
e2,
42,
1f,
de,
20,
f3,
b4,
25,
b5,
1a,
0f,
a3,
32,
08,
e6,
19,
c1,
05,
29,
d3,
24,
46,
dc,
29,
e4,
f9,
e3,
d4,
03,
35,
cf,
dd,
07,
f2,
e3,
f1,
2c,
1b,
32,
ad,
2c,
b4,
ea,
12,
f3,
b5,
c8,
d1,
e0,
e2,
1f,
31,
e5,
f8,
19,
e5,
a6,
d2,
36,
09,
ea,
15,
f4,
49,
30,
2a,
1c,
df,
d1,
15,
21,
d9,
1d,
f3,
40,
d3,
ed,
f7,
07,
07,
de,
1c,
e5,
1f,
ca,
fc,
eb,
06,
31,
f1,
2a,
e7,
e1,
b6,
21,
06,
67,
10,
24,
e3,
f7,
3e,
1b,
de,
18,
27,
f3,
e6,
c8,
2e,
11,
80,
0e,
f5,
ec,
cd,
0d,
df,
d7,
cf,
ec,
c9,
db,
21,
31,
de,
4f,
c8,
30,
08,
17,
32,
05,
68,
1d,
29,
09,
ee,
1e,
db,
fd,
e3,
31,
de,
22,
2e,
e0,
d3,
f8,
f0,
ee,
03,
e0,
18,
ee,
cf,
21,
25,
ee,
13,
f4,
0f,
32,
d0,
f7,
f1,
0d,
38,
00,
f4,
25,
89,
ed,
46,
07,
08,
14,
1c,
0a,
06,
05,
18,
e7,
d9,
4b,
4a,
10,
f2,
07,
c4,
f6,
dd,
c0,
ea,
00,
e4,
12,
4c,
ea,
ee,
1a,
de,
e0,
16,
1a,
2b,
f0,
25,
4a,
17,
e7,
11,
ea,
f6,
10,
11,
27,
3e,
0e,
cc,
76,
e6,
b8,
1c,
1a,
d0,
f8,
fb,
06,
fe,
ff,
34,
ec,
4b,
2f,
f5,
58,
ff,
12,
0a,
d6,
0b,
be,
52,
e1,
fc,
ef,
38,
e5,
dc,
0b,
ee,
10,
eb,
e6,
f3,
23,
b4,
ed,
e5,
53,
ce,
06,
e0,
16,
cb,
b4,
cf,
4a,
f0,
c4,
1b,
2b,
fc,
f2,
4f,
ec,
bd,
ce,
dd,
09,
f1,
2b,
f2,
be,
f2,
0f,
38,
c1,
e4,
e5,
f8,
01,
01,
db,
37,
0e,
18,
fa,
1a,
3c,
df,
0f,
25,
03,
e3,
0e,
14,
f7,
eb,
f9,
0b,
2f,
d6,
05,
ce,
da,
f4,
48,
c2,
ea,
e1,
f0,
36,
f7,
e2,
ec,
db,
da,
1b,
17,
0b,
f8,
0f,
21,
ef,
e5,
25,
06,
ec,
1c,
03,
c7,
f8,
ed,
e7,
14,
f7,
f6,
e8,
f6,
ef,
fc,
e4,
2b,
13,
4b,
b3,
19,
e4,
13,
14,
fd,
24,
26,
c5,
30,
fc,
e3,
f8,
15,
dc,
e3,
20,
f1,
d9,
f2,
04,
fc,
f5,
f9,
0a,
f9,
df,
28,
d5,
fc,
b5,
c1,
31,
01,
c1,
47,
f9,
e6,
4b,
f5,
f8,
f9,
00,
14,
e1,
0d,
f8,
13,
31,
24,
ff,
fd,
fd,
f4,
fd,
06,
29,
f7,
f8,
1b,
fd,
f1,
3c,
33,
fa,
2e,
dd,
27,
22,
23,
18,
e3,
e4,
07,
13,
36,
b4,
9e,
d1,
e5,
04,
d8,
1b,
25,
07,
3f,
f7,
25,
de,
1d,
be,
3c,
c5,
22,
09,
80,
6a,
e1,
18,
04,
0d,
fe,
3f,
24,
03,
0a,
47,
b8,
df,
f4,
ee,
e9,
eb,
15,
1b,
05,
e6,
ef,
2b,
2b,
e1,
26,
e7,
f9,
f8,
fa,
ff,
9a,
3a,
2f,
3e,
e2,
30,
14,
17,
cc,
f8,
ea,
07,
e6,
e1,
68,
e4,
80,
a3,
19,
01,
18,
24,
1a,
13,
fe,
0b,
23,
ec,
ee,
df,
e2,
e7,
c4,
31,
0f,
f4,
c5,
37,
4c,
49,
ff,
e7,
ec,
3a,
13,
f5,
02,
f7,
2a,
f4,
ee,
fd,
d9,
ec,
ed,
fa,
dc,
e9,
0d,
c8,
0c,
1a,
1b,
ec,
40,
f8,
23,
c6,
f8,
2e,
cf,
2a,
36,
d3,
24,
ed,
f4,
dc,
d0,
f1,
0b,
fa,
c9,
cc,
47,
a8,
f5,
39,
f7,
e6,
e3,
01,
e9,
4c,
23,
b8,
f5,
de,
e5,
17,
02,
dc,
01,
f4,
13,
db,
1f,
33,
11,
fb,
f0,
f3,
0e,
f6,
01,
f9,
ed,
17,
db,
a5,
01,
1d,
ee,
0e,
33,
e0,
fa,
e2,
f7,
d9,
23,
fa,
e0,
f4,
fa,
16,
04,
24,
2e,
e3,
01,
e5,
f3,
15,
ec,
24,
17,
25,
0a,
f3,
f9,
15,
22,
24,
e8,
cb,
18,
1a,
17,
da,
00,
1a,
26,
ec,
08,
1e,
dc,
ec,
f7,
f1,
07,
f1,
f7,
1b,
f8,
f5,
06,
dd,
e2,
09,
e4,
f5,
e1,
d4,
fa,
c5,
10,
ed,
16,
e7,
ec,
2f,
d6,
09,
06,
28,
27,
cf,
fc,
1f,
0e,
26,
fb,
14,
47,
18,
15,
3a,
f2,
33,
e4,
e9,
35,
ca,
fa,
e7,
d7,
ee,
df,
f1,
05,
03,
13,
72,
14,
02,
f9,
07,
ea,
e4,
f3,
dc,
f4,
24,
e2,
23,
ba,
cc,
fd,
15,
09,
e4,
ca,
00,
01,
03,
ce,
2a,
98,
2a,
0d,
00,
26,
dd,
18,
3a,
06,
17,
38,
e4,
de,
c8,
bb,
d8,
f4,
30,
dd,
1d,
07,
d4,
45,
17,
1f,
ca,
dd,
b5,
15,
f8,
15,
24,
18,
f6,
1d,
fa,
25,
1e,
1a,
e9,
11,
19,
f6,
10,
44,
5f,
c3,
b4,
17,
dd,
3a,
e7,
10,
31,
17,
e2,
13,
14,
eb,
fd,
02,
01,
2a,
0d,
0c,
f8,
f4,
0f,
0a,
1a,
db,
ea,
10,
2f,
f0,
f8,
e9,
32,
12,
1f,
0c,
1c,
29,
15,
e0,
db,
d4,
f0,
04,
f2,
d1,
24,
19,
25,
bd,
31,
08,
d7,
c3,
e4,
2c,
2a,
f6,
f4,
fc,
0b,
dd,
d2,
22,
df,
09,
ef,
06,
ff,
21,
f9,
d7,
08,
0d,
fa,
12,
27,
d4,
21,
f5,
fe,
df,
26,
ef,
f1,
81,
2d,
47,
24,
fd,
06,
ea,
e5,
e4,
22,
38,
f4,
cb,
10,
c6,
3d,
f1,
d9,
c6,
08,
ec,
eb,
dd,
ce,
23,
00,
c3,
f5,
06,
13,
fd,
f6,
16,
e2,
1a,
23,
23,
35,
34,
d7,
15,
02,
ca,
1a,
fa,
e2,
f4,
19,
f6,
f2,
dc,
11,
f1,
04,
dc,
0d,
1b,
12,
e6,
19,
eb,
de,
11,
19,
f7,
fb,
e1,
31,
fa,
1a,
1e,
b8,
b8,
4d,
0e,
fe,
10,
c4,
24,
4c,
e2,
39,
fd,
d7,
1e,
30,
d3,
fc,
e1,
e1,
fc,
1e,
e9,
36,
e3,
18,
0a,
e9,
32,
1c,
24,
00,
20,
c2,
20,
18,
1d,
e2,
18,
da,
e5,
08,
c0,
ee,
dc,
40;