MEMORY_INITIALIZATION_RADIX = 16;
MEMORY_INITIALIZATION_VECTOR = 
1f,
57,
33,
1e,
2e,
a9,
11,
13,
be,
c4,
9c,
35,
e8,
af,
fd,
e9,
db,
2d,
31,
1b,
f6,
9d,
7f,
b5,
5a,
db,
4a,
99,
df,
9c,
9a,
a1,
df,
b5,
f3,
ae,
06,
55,
44,
fc,
df,
e1,
9f,
1d,
d7,
52,
0b,
fb,
03,
0f,
eb,
fa,
00,
ef,
4e,
19,
e4,
4b,
6e,
31,
fc,
0d,
c8,
cd,
2c,
1a,
0a,
9f,
6a,
3f,
8d,
8c,
fb,
40,
7f,
c4,
bc,
aa,
ea,
b9,
2d,
fc,
73,
ef,
f5,
7f,
2d,
5f,
ee,
3e,
03,
14,
44,
bb,
98,
e9,
39,
d1,
ba,
bd,
31,
e4,
2a,
c2,
13,
92,
cd,
09,
c8,
32,
8c,
52,
43,
4f,
1e,
21,
ee,
69,
ff,
df,
c1,
e1,
bc,
0b,
a0,
9f,
a1,
41,
e9,
e6,
cc,
f7,
d7,
b6,
e6,
ec,
23,
f8,
f8,
54,
e3,
d8,
dc,
b4,
cf,
b0,
dc,
b0,
e2,
98,
9f,
e1,
f4,
d9,
89,
26,
53,
2f,
ba,
ca,
0d,
2e,
d0,
de,
9d,
5a,
a5,
4e,
ee,
3b,
58,
2e,
27,
80,
dd,
b8,
ff,
c4,
54,
f3,
29,
10,
cd,
c5,
3d,
e8,
19,
cf,
c7,
b2,
30,
58,
52,
a9,
fc,
3a,
ec,
e9,
bf,
7f,
65,
48,
5b,
b0,
b5,
39,
38,
61,
b5,
b4,
04,
2a,
57,
71,
c9,
a7,
40,
46,
53,
c7,
1e,
5d,
15,
d3,
ca,
d3,
cc,
b5,
5d,
71,
c3,
09,
db,
d0,
05,
f4,
42,
29,
39,
fd,
c4,
cc,
97,
35,
15,
06,
b5,
18,
3f,
3f,
d4,
36,
2e,
b9,
cf,
a8,
59,
01,
69,
a6,
01,
4a,
c7,
00,
7b,
ea,
cf,
4e,
7f,
66,
b8,
cf,
ed,
88,
42,
1f,
59,
dd,
d7,
57,
71,
88,
5a,
45,
65,
8a,
e6,
a5,
f2,
c0,
3e,
aa,
32,
2c,
b4,
14,
a7,
de,
03,
51,
5e,
5c,
13,
a9,
e6,
43,
3e,
47,
aa,
ca,
48,
50,
45,
fe,
4e,
51,
ab,
95,
79,
a9,
43,
ed,
af,
60,
69,
2f,
56,
3d,
cf,
b5,
20,
36,
71,
4b,
d7,
4a,
e4,
18,
7b,
23,
ec,
1b,
7f,
16,
3f,
54,
34,
ca,
5e,
aa,
ad,
08,
08,
97,
be,
a9,
a1,
3b,
63,
df,
4b,
25,
6a,
53,
d7,
93,
ab,
a0,
19,
e2,
f7,
d5,
c0,
a4,
9c,
31,
36,
27,
0f,
c6,
67,
fe,
7f,
b4,
b9,
fb,
13,
2c,
71,
54,
97,
c2,
52,
03,
09,
2e,
5b,
4f,
17,
19,
b9,
be,
4f,
8f,
80,
22,
23,
f7,
f1,
04,
5f,
eb,
19,
e4,
da,
c1,
08,
49,
f6,
ca,
c7,
12,
0a,
a0,
c0,
df,
a1,
a7,
7c,
c7,
55,
00,
0a,
d5,
b2,
e2,
f0,
d7,
c4,
29,
5e,
44,
45,
b8,
57,
2b,
46,
a8,
e8,
ae,
26,
42,
ee,
cb,
f9,
80,
c6,
a1,
d7,
bc,
eb,
a0,
dd,
d7,
f0,
6e,
fb,
dd,
b5,
f0,
b2,
e3,
47,
e5,
a8,
fc,
3a,
d7,
f7,
e1,
cc,
4e,
3a,
4d,
12,
23,
fd,
9f,
dc,
49,
f2,
43,
a3,
29,
c0,
20,
c5,
4d,
51,
1c,
f1,
4c,
a1,
1e,
c3,
53,
f1,
c7,
38,
17,
e8,
af,
c8,
06,
da,
03,
21,
7f,
f4,
e4,
33,
f3,
30,
12,
1b,
ce,
15,
4d,
fd,
52,
56,
61,
40,
44,
bd,
33,
21,
c7,
21,
0c,
b0,
f1,
82,
58,
c5,
59,
aa,
04,
06,
00,
3d,
25,
e2,
15,
40,
ad,
f8,
a2,
3a,
4f,
31,
3c,
45,
1b,
3a,
3c,
eb,
b8,
48,
77,
50,
04,
08,
4d,
38,
04,
a3,
b1,
b8,
d5,
f6,
4e,
9a,
ec,
47,
ae,
15,
0d,
dd,
a8,
eb,
10,
f8,
75,
4c,
bb,
f9,
6a,
3b,
4c,
c1,
96,
ed,
dc,
d3,
65,
9f,
1a,
fb,
3f,
86,
29,
3a,
e6,
4f,
b1,
d2,
62,
99,
05,
6e,
a1,
5e,
b7,
16,
44,
35,
d4,
9d,
4d,
b9,
e2,
83,
43,
44,
13,
63,
56,
41,
81,
bf,
09,
c2,
5e,
de,
2d,
24,
1a,
a7,
b1,
e7,
ec,
22,
25,
37,
a4,
d7,
a6,
7f,
ac,
72,
00,
17,
fb,
ec,
08,
f9,
a7,
cf,
ee,
08,
cc,
14,
25,
bf,
36,
f4,
aa,
f2,
da,
c0,
56,
25,
c2,
07,
3b,
b6,
c9,
ef,
3f,
13,
6c,
06,
ab,
fc,
99,
08,
25,
b1,
0c,
39,
b4,
e7,
32,
d4,
19,
9c,
d5,
3c,
14,
d4,
dd,
bc,
7f,
23,
d4,
b8,
74,
38,
f5,
41,
4b,
91,
41,
a3,
a2,
76,
43,
42,
75,
0d,
ea,
49,
54,
d1,
ec,
e3,
d8,
dd,
4a,
b8,
ad,
b9,
f2,
bf,
f2,
11,
44,
3e,
5b,
08,
b5,
85,
40,
56,
4d,
de,
5f,
17,
05,
72,
40,
59,
29,
31,
fe,
2e,
2e,
2f,
bb,
15,
5a,
29,
14,
1d,
8f,
e8,
68,
e5,
43,
08,
1d,
80,
c0,
3d,
1c,
51,
54,
91,
1b,
af,
98,
df,
ff,
79,
31,
98,
2c,
f9,
00,
c4,
f5,
eb,
e8,
02,
c7,
3f,
54,
a1,
4b,
b9,
50,
c7,
d1,
49,
aa,
0e,
ec,
e1,
4b,
f4,
e4,
16,
e3,
cc,
0e,
a5,
01,
f5,
b0,
ff,
33,
12,
2f,
22,
10,
b0,
08,
4d,
de,
20,
25,
08,
dc,
53,
0d,
20,
a3,
c7,
98,
da,
25,
25,
fc,
5f,
c4,
e2,
38,
e1,
09,
35,
0e,
bb,
43,
ff,
4f,
f9,
e0,
7f,
dd,
38,
da,
ab,
05,
c8,
0f,
c6,
0e,
18,
df,
25,
fc,
45,
b7,
16,
17,
9a,
35,
30,
08,
ea,
fa,
3a,
04,
e7,
23,
d6,
2a,
47,
3e,
54,
bf,
c9,
bf,
5d,
55,
a3,
ef,
98,
57,
5d,
7a,
47,
f3,
2c,
0d,
5c,
86,
26,
1d,
af,
15,
26,
01,
d9,
e3,
bc,
a7,
db,
33,
2d,
5c,
04,
0c,
dd,
59,
d9,
36,
fb,
7f,
10,
b7,
a5,
43,
52,
69,
80,
9e,
eb,
4f,
d9,
0d,
bf,
c9,
bb,
90,
3a,
a7,
7f,
df,
12,
1b,
d4,
3f,
56,
ce,
c4,
21,
16,
f5,
32,
bf,
33,
0c,
ca,
ea,
f4,
45,
e2,
d1,
02,
e3,
a3,
d1,
45,
8e,
ee,
3c,
d5,
ea,
a0,
fd,
b8,
b3,
ef,
3e,
e4,
ed,
3a,
38,
6a,
c9,
20,
be,
4b,
4e,
dd,
d3,
6c,
bf,
22,
0e,
47,
13,
0a,
56,
c3,
2c,
ff,
80,
02,
ce,
d2,
9e,
0d,
b2,
de,
d9,
35,
1d,
ed,
46,
8a,
e7,
eb,
99,
f1,
c3,
26,
1c,
bb,
b3,
e9,
f2,
d1,
1e,
f4,
45,
51,
a4,
4a,
e1,
20,
16,
1b,
db,
92,
0b,
3a,
4c,
15,
e0,
6e,
be,
cf,
2d,
5d,
04,
0d,
5b,
2c,
f4,
15,
2d,
dc,
c5,
69,
24,
00,
80,
e7,
b3,
62,
c6,
20,
be,
04,
53,
f9,
5c,
00,
13,
53,
0e,
fc,
f0,
22,
c5,
02,
4d,
88,
d5,
ff,
4f,
09,
f0,
1c,
30,
07,
26,
d1,
ff,
aa,
20,
04,
08,
04,
1e,
39,
fd,
05,
e4,
2e,
4f,
80,
13,
c0,
ef,
0b,
cf,
cc,
09,
11,
28,
de,
f6,
c6,
04,
d9,
1f,
0c,
de,
5d,
db,
ba,
43,
bc,
d7,
17,
26,
3b,
e2,
dc,
51,
06,
c9,
58,
54,
d0,
3a,
c6,
89,
64,
4c,
a5,
ef,
24,
d9,
da,
d4,
d1,
34,
c5,
2c,
8b,
a0,
ca,
a3,
2b,
c9,
04,
43,
b8,
74,
46,
a3,
55,
fe,
9b,
f5,
36,
e9,
ef,
b6,
42,
56,
48,
13,
e9,
05,
ca,
11,
49,
1b,
06,
80,
0a,
4c,
f3,
28,
9b,
bf,
39,
e9,
c4,
cd;