MEMORY_INITIALIZATION_RADIX = 16;
MEMORY_INITIALIZATION_VECTOR = 
0000091d,
0000121e,
fffffab0,
ffffee69,
00001816,
00000d10,
fffffb95,
fffff3be,
00001201,
00000554,
00001c0f,
000000eb,
ffffde72,
fffff774,
00001003,
00000e94,
000005af,
00000f1d,
00000de3,
000007c4,
0000061b,
00000611,
00001133,
00000e55,
000015e7,
ffffff99,
0000206f,
fffffdc3,
fffffab7,
00000e5d,
000001ed,
00000fe2;