MEMORY_INITIALIZATION_RADIX = 16;
MEMORY_INITIALIZATION_VECTOR = 
cf,
04,
26,
de,
fe,
11,
da,
e7,
fc,
e4,
d0,
19,
dd,
4c,
0d,
24,
fb,
12,
1b,
df,
02,
d8,
fb,
e8,
db,
ff,
d9,
e6,
59,
00,
15,
fe,
58,
ec,
97,
f7,
c6,
a1,
a4,
9a,
2a,
cf,
0a,
f3,
0d,
10,
07,
c2,
f9,
18,
d9,
f4,
3b,
fa,
d9,
ff,
f8,
d9,
27,
00,
e3,
05,
26,
3c,
ba,
e2,
fd,
0c,
e8,
4b,
28,
fb,
23,
f2,
e3,
d5,
e7,
b2,
f5,
47,
0c,
ce,
06,
db,
df,
fe,
f5,
27,
c8,
17,
ea,
cd,
0d,
00,
e2,
e9,
d8,
43,
04,
f6,
ee,
e3,
1b,
c4,
f8,
dd,
f2,
e1,
23,
e1,
24,
30,
f1,
12,
f3,
df,
eb,
05,
1a,
aa,
1e,
ed,
0c,
0c,
33,
e1,
11,
1d,
0f,
b8,
2c,
02,
ed,
3f,
df,
10,
cf,
e1,
04,
10,
1a,
e9,
20,
da,
fd,
e4,
e1,
07,
2a,
e9,
02,
10,
ec,
b7,
c0,
f9,
fe,
0a,
35,
d1,
22,
f2,
08,
fe,
b3,
23,
d0,
fe,
0b,
41,
da,
fd,
04,
59,
bd,
0d,
e3,
15,
bd,
23,
fb,
07,
e5,
16,
01,
10,
0b,
ca,
0d,
d9,
06,
03,
d7,
17,
44,
f9,
f7,
db,
f9,
39,
f8,
d9,
00,
fa,
28,
12,
ee,
1b,
f7,
f0,
07,
cf,
25,
ae,
2c,
d0,
2a,
0b,
4f,
f0,
1a,
f6,
e0,
3c,
e9,
e0,
04,
0c,
05,
21,
fd,
ed,
0b,
c9,
d3,
e5,
c6,
04,
cf,
1d,
06,
00,
4c,
79,
f9,
0d,
ca,
ec,
ef,
14,
eb,
20,
3b,
f0,
e9,
ee,
03,
14,
e0,
ad,
da,
e8,
c0,
d6,
32,
1e,
d5,
50,
04,
be,
f5,
d0,
21,
99,
f5,
20,
01,
31,
f5,
2a,
d4,
e0,
ea,
db,
c4,
1f,
21,
1c,
2d,
06,
0b,
e9,
12,
20,
cf,
0d,
fb,
30,
ff,
7e,
fc,
e0,
df,
03,
04,
ec,
e7,
04,
e9,
03,
06,
dc,
1b,
18,
24,
0e,
12,
f8,
0e,
f6,
14,
e6,
17,
05,
1c,
ef,
18,
01,
55,
a5,
00,
b4,
bf,
0e,
f8,
17,
d0,
f1,
c0,
c4,
0e,
04,
06,
18,
ef,
de,
cf,
ef,
15,
f2,
19,
0b,
f2,
06,
24,
44,
ee,
07,
3e,
fb,
f5,
cf,
33,
ce,
09,
ea,
db,
56,
27,
15,
fa,
2f,
48,
ed,
f8,
13,
42,
4f,
f7,
06,
dc,
fd,
46,
c7,
ed,
e0,
b3,
39,
e8,
05,
fa,
e3,
1b,
9d,
0d,
ed,
d9,
ef,
e9,
10,
0f,
f4,
cf,
3c,
0b,
03,
fe,
45,
f4,
d6,
ce,
ff,
26,
19,
de,
1c,
ae,
cf,
db,
fe,
df,
2d,
44,
28,
22,
fe,
f3,
1d,
29,
ac,
53,
03,
1a,
02,
e3,
ea,
0b,
0d,
28,
84,
22,
3a,
03,
17,
20,
32,
fd,
c3,
1f,
f8,
09,
e9,
e5,
fc,
f2,
23,
18,
fb,
fb,
03,
e7,
ce,
05,
27,
df,
01,
00,
18,
25,
7f,
f3,
cb,
df,
f9,
fc,
b2,
1e,
0d,
eb,
eb,
f5,
ee,
d8,
26,
f1,
08,
ed,
0b,
0b,
ca,
22,
20,
fa,
49,
19,
14,
c7,
14,
c9,
de,
34,
d6,
ff,
ce,
f8,
fb,
10,
f7,
2c,
ea,
ca,
f0,
0a,
09,
f0,
19,
17,
27,
c6,
19,
19,
e5,
08,
d0,
0f,
12,
13,
31,
e7,
f5,
c9,
01,
cc,
44,
fa,
15,
d5,
25,
2c,
4d,
1e,
ed,
b8,
ff,
c1,
e4,
19,
e8,
e8,
cb,
d8,
f1,
ab,
01,
e5,
01,
1e,
d7,
32,
10,
09,
e7,
24,
06,
d5,
f0,
d1,
12,
2f,
06,
d9,
e9,
13,
f7,
ef,
27,
de,
1e,
22,
db,
0d,
ff,
63,
22,
52,
ed,
11,
ec,
0a,
bd,
01,
be,
32,
3f,
25,
d7,
b5,
ea,
04,
19,
13,
3e,
ff,
11,
0a,
02,
24,
fe,
ec,
c9,
05,
e7,
d4,
fe,
f5,
1f,
0b,
e1,
18,
e6,
fb,
15,
fa,
35,
f0,
09,
de,
02,
24,
05,
f9,
17,
f1,
58,
f8,
f3,
0e,
28,
cf,
1e,
f5,
0e,
f4,
28,
dc,
10,
00,
0e,
d7,
d4,
20,
f3,
31,
47,
32,
0b,
0b,
2d,
cd,
14,
f1,
34,
0a,
09,
0f,
40,
f9,
03,
1a,
26,
ec,
15,
f4,
18,
d3,
0e,
05,
0a,
f0,
1a,
e1,
dc,
ed,
f9,
12,
16,
15,
fd,
ea,
0c,
16,
0e,
24,
17,
fa,
17,
f1,
f9,
f6,
19,
f2,
b8,
d1,
13,
fb,
dd,
25,
ee,
5e,
1e,
f7,
e9,
4c,
f9,
b2,
0c,
fb,
de,
df,
41,
f6,
cf,
f3,
22,
0a,
3a,
e1,
0f,
14,
08,
f1,
06,
06,
b9,
cd,
1f,
fa,
08,
ff,
f6,
16,
09,
ec,
ff,
11,
c5,
05,
3c,
1f,
e9,
a2,
fb,
09,
cf,
07,
f4,
c2,
0c,
1a,
ca,
0c,
f7,
37,
08,
a0,
fb,
20,
2a,
18,
d0,
04,
21,
16,
10,
14,
06,
36,
21,
0d,
fa,
49,
e7,
cd,
0b,
29,
f8,
fe,
f2,
e0,
fd,
ec,
eb,
f8,
dc,
12,
17,
ea,
1b,
36,
fb,
f6,
d6,
48,
e3,
94,
bd,
23,
da,
bf,
de,
19,
f9,
fe,
e5,
26,
e6,
ec,
5a,
eb,
ab,
20,
ff,
d0,
e4,
49,
06,
27,
37,
fe,
fb,
fe,
49,
5d,
fa,
a0,
01,
d2,
19,
ef,
1c,
1f,
45,
2a,
ce,
e7,
d4,
03,
05,
13,
4a,
d5,
e6,
38,
0b,
10,
c0,
d2,
cf,
e8,
d3,
b8,
f9,
0e,
42,
02,
ed,
2e,
33,
20,
15,
f7,
e8,
a5,
79,
f0,
3c,
af,
ec,
19,
f3,
18,
fc,
fb,
20,
ed,
f9,
fa,
ae,
ca,
db,
f9,
0d,
1c,
06,
07,
d8,
1e,
16,
e7,
fb,
0a,
36,
17,
e9,
fa,
f9,
e3,
44,
18,
0b,
cf,
de,
0b,
2a,
1a,
1c,
08,
07,
10,
42,
fd,
df,
eb,
4c,
1d,
15,
23,
f9,
c8,
5a,
d8,
f0,
0b,
a8,
2d,
0f,
01,
fd,
1e,
34,
0a,
f7,
25,
0e,
00,
1a,
51,
e0,
f2,
1e,
f3,
32,
de,
17,
e6,
08,
c9,
04,
d0,
06,
30,
98,
c4,
16,
06,
d9,
dd,
13,
fa,
f1,
3d,
2e,
0b,
de,
c6,
0a,
ee,
ba,
cf,
fa,
c8,
13,
28,
f5,
f5,
f8,
df,
d9,
c9,
32,
0c,
1a,
e8,
38,
2c,
0c,
1c,
1b,
e1,
fa,
0e,
bf,
53,
bd,
33,
c4,
ff,
d8,
eb,
ec,
f8,
2d,
fc,
39,
20,
05,
41,
f8,
80,
2f,
dd,
0b,
98,
e5,
21,
44,
ff,
1d,
25,
1d,
fb,
34,
23,
cc,
e6,
20,
1f,
e4,
ed,
f3,
e1,
0a,
2d,
30,
12,
29,
ce,
24,
2d,
07,
22,
f0,
f6,
35,
eb,
2f,
1d,
15,
ff,
f3,
3d,
43,
c1,
2c,
17,
fd,
15,
36,
34,
ea,
13,
37,
07,
f5,
1b,
f3,
8b,
11,
03,
f0,
16,
09,
ef,
d6,
f4,
ea,
ef,
08,
d8,
fb,
18,
d5,
ce,
e6,
9d,
0d,
11,
a6,
ca,
06,
db,
02,
e0,
0c,
e6,
ea,
14,
01,
f7,
15,
0c,
f1,
fa,
0e,
fa,
00,
00,
f1,
fd,
e6,
f7,
1c,
e1,
22,
04,
27,
ec,
23,
1e,
55,
c2,
dd,
cb,
c8,
20,
f1,
06,
15,
34,
05,
37,
d8,
19,
1c,
c9,
e4,
1f,
50,
0a,
55,
2b,
dc,
37,
fa,
ed,
1f,
e4,
44,
0b,
04,
14,
04,
06,
cc,
f2,
fb,
ee,
0c,
d3,
b0,
32,
0e,
22,
42,
21,
0e,
fc,
3e,
1b,
07,
00,
e3,
c8,
de,
0b,
15,
c3,
25,
0f,
55,
f1,
14,
d8,
0b,
45,
fd,
97,
f6,
50,
48,
d7,
15,
1f,
d8,
01,
ab,
fe,
f7,
e3,
16,
32,
1b,
07,
10,
fc,
b0,
2a,
30,
03,
24,
0a,
d8,
b0,
f4,
23,
03,
0c,
14,
e9,
11,
48,
fb,
c8,
e1,
2e,
10,
d6,
d4,
f3,
16,
2d,
2e,
de,
e7,
e2,
46,
35,
e6,
0f,
18,
27,
2c,
14,
d4,
d8,
34,
fd,
ec,
e3,
c7,
e4,
28,
3a,
e5,
ed,
dd,
e4,
4d,
04,
fb,
c9,
1c,
1c,
01,
2f,
45,
d5,
c5,
e3,
1d,
fe,
e0,
25,
1c,
17,
d5,
f0,
f2,
bd,
dd,
c0,
db,
4a,
fb,
22,
27,
18,
b7,
24,
26,
ef,
fa,
5e,
f2,
2a,
de,
f4,
20,
ca,
f4,
db,
0d,
e5,
e0,
22,
1c,
0d,
24,
cc,
2f,
19,
0c,
24,
4f,
3c,
dd,
9e,
2c,
f1,
e4,
e3,
f9,
18,
bc,
11,
23,
d6,
0a,
ca,
c6,
90,
1e,
de,
22,
1d,
4e,
31,
8a,
c8,
12,
51,
e9,
bb,
f9,
e5,
df,
23,
d3,
41,
f4,
47,
35,
f0,
c8,
2e,
2e,
06,
0e,
3e,
cc,
01,
2d,
ff,
bb,
fc,
d6,
16,
1f,
f7,
2c,
04,
1d,
7f,
d9,
35,
e8,
db,
16,
25,
10,
f3,
2c,
0c,
e2,
47,
0f,
ff,
86,
40,
11,
d1,
29,
d2,
df,
12,
c8,
ed,
4b,
fb,
c7,
0a,
c9,
e3,
1b,
ce,
15,
f8,
14,
07,
1c,
0c,
da,
1c,
1b,
f0,
25,
15,
12,
a2,
e4,
de,
be,
18,
08,
1c,
f6,
0b,
1a,
c0,
20,
32,
f7,
f4,
d4,
c8,
08,
af,
28,
f5,
12,
11,
03,
e5,
dd,
15,
15,
02,
0f,
07,
3f,
25,
07,
af,
d5,
24,
e7,
2f,
b8,
24,
f7,
2e,
ee,
35,
21,
e6,
e4,
11,
f6,
fb,
f3,
fc,
1a,
fb,
f1,
06,
f3,
f5,
fe,
ec,
18,
1c,
0b,
f2,
ca,
d8,
fc,
e9,
13,
ca,
14,
2c,
3f,
f8,
e0,
13,
d4,
17,
01,
06,
d6,
dc,
2d,
16,
95,
16,
d9,
f6,
c7,
1e,
f8,
bf,
e1,
0c,
10,
c8,
dd,
13,
24,
e5,
0c,
21,
db,
f6,
27,
00,
3c,
23,
00,
f8,
12,
f4,
bd,
05,
f4,
04,
d9,
e6,
3c,
03,
87,
ed,
2c,
ca,
bd,
be,
03,
39,
e7,
2f,
cb,
1b,
1a,
4b,
3e,
e8,
3a,
c8,
87,
e7,
e1,
d2,
fe,
10,
bd,
bc,
40,
ea,
d6,
05,
db,
f5,
0b,
46,
2e,
ce,
e6,
dc,
2f,
d2,
ef,
3a,
1a,
d0,
34,
ef,
f7,
3f,
26,
2a,
bd,
e5,
04,
1d,
2e,
fb,
2e,
db,
05,
dd,
ef,
67,
f5,
11,
13,
18,
37,
e2,
0e,
45,
08,
03,
ee,
b8,
22,
21,
e4,
c5,
eb,
e2,
ee,
c1,
25,
f8,
69,
39,
fb,
f6,
06,
0a,
02,
d1,
f1,
01,
51,
4c,
fc,
d5,
0b,
10,
b7,
40,
eb,
0d,
0d,
d1,
26,
b0,
80,
07,
e8,
19,
10,
1f,
12,
da,
1d,
f7,
0e,
0b,
f8,
20,
de,
f2,
ef,
11,
0c,
20,
0f,
fe,
f2,
d2,
ea,
cd,
3f,
ec,
0b,
12,
c1,
dc,
0f,
db,
d5,
0e,
27,
fe,
e5,
f9,
ea,
c6,
0b,
02,
f7,
11,
01,
e8,
dc,
00,
f7,
e4,
fa,
e4,
11,
24,
ec,
d7,
32,
11,
17,
e6,
23,
38,
d9,
e5,
f6,
e7,
e7,
c5,
fe,
3d,
1a,
12,
f9,
f9,
c5,
d3,
f6,
d0,
5b,
f1,
12,
1c,
09,
fa,
09,
1c,
0c,
f5,
fb,
ff,
20,
06,
d4,
02,
d1,
34,
ff,
f3,
cb,
f0,
0e,
00,
02,
07,
20,
f3,
ee,
ef,
ee,
ec,
13,
0d,
dc,
2d,
cb,
1a,
e2,
d8,
0a,
cc,
0f,
24,
20,
f4,
fd,
df,
d5,
0e,
23,
e3,
f6,
43,
df,
1c,
f6,
1f,
e7,
0f,
14,
d4,
e4,
52,
0c,
2c,
de,
35,
da,
2d,
e3,
ff,
fe,
0a,
ed,
3d,
fb,
22,
f5,
17,
26,
ed,
e0,
db,
1c,
22,
30,
28,
25,
23,
db,
1e,
ee,
d2,
f8,
f9,
c1,
04,
f5,
25,
35,
fb,
e8,
d9,
e4,
f7,
01,
f2,
b4,
f3,
bb,
fa,
1c,
f2,
fe,
17,
10,
e1,
38,
1b,
09,
e9,
db,
e1,
cb,
43,
dc,
db,
56,
f3,
3f,
a0,
e6,
6b,
02,
12,
df,
0d,
e4,
d6,
df,
ef,
16,
0b,
e6,
f7,
ed,
1b,
fa,
c7,
07,
16,
0b,
f4,
33,
fd,
25,
0d,
12,
47,
fe,
29,
1f,
f6,
12,
eb,
06,
f3,
fa,
f4,
d5,
22,
04,
21,
f7,
d9,
35,
f6,
24,
19,
08,
e3,
fa,
f6,
0a,
00,
0a,
11,
20,
0c,
dd,
fa,
eb,
0c,
fc,
34,
fb,
f3,
dc,
06,
0b,
d9,
fe,
fe,
46,
f5,
27,
00,
f4,
c1,
e2,
f4,
f1,
ca,
3d,
28,
e4,
38,
29,
22,
22,
f6,
d1,
f3,
26,
0b,
dc,
26,
09,
aa,
1a,
05,
d7,
14,
58,
0c,
05,
01,
0e,
11,
49,
d8,
df,
db,
e6,
27,
26,
d1,
07,
35,
40,
05,
9b,
29,
28,
f9,
e8,
17,
eb,
d0,
20,
53,
17,
d5,
f9,
e2,
cf,
f0,
98,
f5,
2b,
fd,
f1,
ca,
43,
18,
19,
da,
1a,
1b,
ef,
02,
e6,
fd,
1b,
ff,
e0,
37,
05,
fa,
e5,
e4,
ed,
d3,
ff,
2a,
fd,
08,
12,
b0,
47,
fa,
19,
f8,
e0,
ff,
2c,
d1,
a8,
d5,
1e,
d0,
e3,
d5,
2a,
c9,
e6,
08,
f5,
32,
ff,
d9,
ee,
06,
23,
d3,
37,
c9,
28,
ed,
e2,
0a,
21,
f5,
f7,
fe,
c1,
db,
29,
09,
1a,
2a,
d2,
0c,
f2,
db,
1d,
d9,
ed,
f9,
3f,
14,
0f,
d2,
f3,
f5,
f9,
09,
eb,
40,
c2,
e9,
29,
19,
e8,
16,
f6,
fb,
34,
0d,
15,
17,
12,
15,
04,
b5,
ef,
26,
f0,
f5,
2f,
14,
03,
f8,
fd,
3f,
d7,
21,
d9,
52,
e6,
ab,
08,
f6,
bb,
dc,
1d,
1d,
0f,
28,
e7,
20,
29,
21,
1a,
db,
ec,
36,
06,
1c,
8d,
3e,
07,
db,
2c,
bb,
f2,
fb,
0f,
1a,
07,
3b,
d7,
29,
d6,
9f,
2d,
2f,
f1,
29,
c0,
ec,
b8,
c9,
fe,
01,
1a,
f0,
be,
f3,
16,
1e,
19,
bc,
06,
f7,
06,
1c,
12,
da,
45,
00,
ec,
d6,
1a,
9e,
0f,
10,
c7,
df,
49,
ee,
ec,
ef,
e2,
f2,
e8,
f4,
31,
35,
09,
3a,
fa,
c7,
9c,
56,
b8,
f7,
0e,
17,
d1,
09,
fe,
ec,
1d,
df,
0a,
43,
f8,
05,
f9,
04,
ea,
b1,
e6,
20,
26,
25,
d5,
16,
01,
27,
1e,
0a,
4b,
e2,
ed,
24,
47,
0a,
f3,
56,
f0,
e7,
fe,
07,
e5,
d0,
ab,
2a,
e1,
31,
d3,
0d,
19,
0a,
09,
d4,
1e,
12,
0e,
d1,
de,
14,
1d,
ea,
fe,
c8,
f7,
09,
0c,
02,
0d,
0c,
15,
06,
09,
10,
02,
0c,
f0,
09,
f0,
18,
e6,
01,
e3,
ef,
fa,
f5,
fb,
06,
25,
ea,
dc,
f3,
0b,
34,
ca,
f5,
02,
bb,
14,
03,
df,
e9,
e5,
f9,
ff,
14,
d1,
eb,
e9,
dc,
0b,
24,
e0,
f0,
13,
28,
15,
f4,
d0,
ce,
d5,
57,
16,
f5,
ce,
2c,
05,
cb,
ea,
e8,
2c,
f7,
fb,
e2,
cd,
1a,
e8,
e7,
fa,
08,
ef,
cb,
3c,
28,
2a,
ee,
fb,
2e,
02,
1b,
ee,
0b,
27,
c8,
fa,
23,
d2,
f2,
ae,
c7,
50,
e6,
f5,
fe,
24,
db,
ff,
06,
ee,
06,
ea,
f4,
fd,
d9,
34,
1e,
b5,
38,
0d,
f6,
db,
0b,
2f,
b6,
ea,
2e,
db,
00,
d8,
07,
dc,
e0,
11,
ee,
db,
61,
31,
b0,
ce,
28,
10,
11,
e8,
fb,
e0,
11,
10,
d1,
08,
0b,
36,
00,
fd,
02,
f4,
e6,
17,
be,
c3,
ff,
1b,
14,
11,
33,
32,
ec,
c9,
f4,
db,
0d,
d7,
1a,
06,
2c,
1f,
e8,
f8,
15,
fb,
f0,
fa,
06,
30,
14,
0e,
f2,
f4,
e6,
25,
c4,
00,
21,
f1,
3d,
11,
f2,
e4,
ef,
d7,
f3,
e9,
02,
34,
24,
fe,
f7,
fe,
23,
f1,
e4,
0b,
d8,
ef,
14,
1c,
d6,
2a,
ee,
e1,
00,
c5,
02,
e0,
2e,
0e,
02,
f4,
2d,
06,
dd,
d8,
d5,
e5,
18,
f7,
fe,
18,
da,
dd,
0f,
0a,
ec,
19,
d7,
d5,
ff,
c7,
ee,
01,
1b,
ef,
f2,
1b,
f8,
14,
f2,
08,
1a,
0e,
e1,
12,
cf,
e6,
f1,
35,
e7,
20,
f3,
e8,
e9,
fa,
df,
13,
c0,
ee,
08,
fc,
2e,
f4,
2b,
fc,
f9,
c3,
2a,
dd,
f9,
f3,
d3,
da,
13,
13,
e1,
eb,
f6,
16,
d6,
3e,
dc,
ec,
d1,
02,
04,
f0,
26,
ef,
17,
f3,
fe,
dd,
15,
fc,
f6,
da,
27,
f4,
f6,
15,
da,
d9,
10,
d5,
25,
e4,
0c,
f1,
e4,
fd,
16,
09,
d7,
0e,
3d,
ed,
ab,
fd,
02,
29,
fb,
02,
27,
41,
37,
2c,
d6,
24,
fd,
f8,
ec,
17,
f7,
f4,
e3,
11,
09,
fb,
42,
0c,
ff,
e8,
f7,
15,
22,
08,
f3,
ff,
f0,
06,
08,
e9,
f3,
d9,
f9,
0d,
c9,
2e,
da,
f2,
0d,
07,
01,
02,
ee,
12,
d6,
f7,
0c,
0d,
c9,
fd,
c4,
07,
f9,
d5,
c9,
0c,
1f,
29,
fe,
f6,
01,
fe,
34,
e8,
d5,
3c,
dc,
e3,
13,
de,
fd,
d4,
36,
bd,
1c,
d0,
e1,
0f,
e7,
20,
e9,
ce,
fd,
19,
31,
cd,
f3,
2c,
fb,
eb,
07,
04,
c7,
2b,
02,
1c,
f7,
13,
f0,
0e,
fb,
fb,
15,
dd,
f7,
eb,
ff,
f3,
05,
1c,
f8,
f9,
09,
02,
08,
e5,
f4,
12,
09,
1b,
f1,
d0,
52,
ea,
13,
16,
e0,
c1,
12,
b8,
0b,
ed,
fd,
f7,
e8,
e2,
f6,
32,
f5,
ae,
39,
08,
cf,
04,
13,
ff,
df,
09,
24,
ed,
f7,
ee,
cb,
e6,
e1,
07,
32,
fb,
f0,
f8,
e6,
22,
2a,
01,
35,
e6,
f5,
0d,
e5,
26,
cc,
2a,
3e,
25,
15,
e2,
4b,
10,
11,
fd,
3b,
28,
32,
03,
07,
ec,
29,
e2,
e1,
e3,
e7,
10,
f5,
f1,
0a,
13,
0a,
1a,
02,
f8,
f6,
f3,
43,
07,
fb,
d1,
14,
0c,
24,
fc,
e5,
32,
bb,
10,
2a,
ca,
d0,
32,
fb,
fe,
fc,
f4,
f5,
17,
fd,
1e,
bd,
de,
20,
e4,
d0,
e8,
22,
e0,
08,
31,
ea,
cc,
26,
ff,
eb,
1e,
f4,
ca,
04,
d7,
f5,
eb,
f5,
15,
fd,
07,
13,
da,
2e,
2c,
e0,
fb,
d3,
23,
43,
d8,
cd,
0a,
38,
ff,
e7,
19,
f6,
09,
cf,
03,
1b,
ee,
14,
1a,
10,
35,
f8,
cc,
04,
0b,
ee,
19,
e8,
f1,
0b,
e1,
fd,
f2,
1f,
b8,
0d,
ff,
12,
f5,
b5,
10,
eb,
03,
0b,
ee,
01,
d2,
19,
ef,
20,
06,
02,
21,
ee,
d4,
3a,
0b,
e6,
f3,
2a,
04,
ff,
c6,
37,
24,
11,
13,
40,
fa,
f1,
0a,
00,
20,
e1,
07,
d6,
06,
e0,
35,
ea,
06,
c6,
1e,
fd,
09,
03,
04,
01,
1b,
44,
9a,
f2,
f4,
fb,
f9,
fa,
40,
1a,
c9,
12,
bd,
c6,
2f,
06,
ee,
0c,
e0,
e1,
30,
d1,
13,
de,
0f,
d8,
bd,
ed,
0a,
f4,
e2,
e9,
68,
19,
fa,
3a,
25,
f9,
ba,
1d,
cc,
e4,
06,
ec,
15,
cb,
00,
dd,
1b,
cf,
12,
19,
03,
04,
fa,
15,
fe,
09,
f2,
ed,
06,
f4,
19,
22,
c7,
13,
13,
d2,
03,
ea,
ed,
b7,
e1,
09,
3e,
04,
08,
c1,
c6,
12,
f2,
f9,
e2,
0c,
1c,
d5,
4b,
db,
0a,
13,
11,
e8,
f6,
1f,
01,
fa,
ee,
25,
e4,
1d,
cd,
3c,
da,
13,
26,
d9,
1e,
8d,
11,
10,
d5,
2f,
ea,
cc,
fd,
b3,
dc,
f6,
b6,
fa,
fd,
0d,
fa,
03,
12,
0c,
fb,
f1,
ec,
12,
f0,
0e,
05,
12,
06,
08,
fb,
23,
04,
12,
fb,
fa,
0a,
14,
d3,
0d,
d3,
f6,
02,
ed,
ea,
da,
5c,
1a,
26,
f4,
e2,
12,
08,
3f,
ed,
f8,
03,
0c,
02,
e6,
f6,
08,
02,
16,
d6,
da,
1b,
05,
eb,
3e,
32,
e2,
f2,
48,
21,
0f,
00,
f9,
b6,
07,
20,
25,
26,
e0,
eb,
d8,
39,
eb,
10,
df,
15,
0e,
0e,
ea,
ec,
f6,
2a,
5f,
0d,
fd,
fd,
32,
24,
e9,
34,
22,
1b,
80,
0d,
44,
0a,
00,
09,
e5,
01,
1c,
fd,
01,
09,
15,
04,
dc,
df,
1d,
00,
13,
0b,
d5,
d5,
1e,
07,
ee,
23,
05,
f5,
18,
f9,
d6,
fd,
f5,
ff,
05,
d9,
0f,
fd,
e0,
18,
2d,
2a,
ee,
10,
d4,
36,
d6,
fd,
13,
7f,
16,
04,
eb,
d8,
a5,
1a,
c5,
e5,
e5,
23,
f5,
d6,
1f,
f3,
ef,
d8,
be,
d7,
ca,
10,
c9,
ff,
1d,
f0,
0d,
15,
0a,
4a,
40,
27,
db,
dd,
08,
0d,
0c,
f7,
10,
e3,
2f,
15,
d4,
9b,
e7,
d9,
f4,
fc,
1e,
f0,
24,
f1,
fd,
09,
09,
cc,
17,
2c,
2d,
ec,
0d,
c7,
f0,
e4,
23,
04,
13,
ff,
02,
f4,
cd,
e0,
be,
f7,
57,
c7,
06,
eb,
e4,
0a,
e7,
43,
29,
fe,
e4,
e3,
35,
a4,
e2,
28,
15,
0c,
3b,
f5,
0d,
f8,
1e,
f0,
e3,
38,
e8,
2f,
05,
22,
e3,
fd,
f9,
fa,
12,
33,
21,
c6,
31,
0b,
ed,
de,
10,
f2,
ff,
f0,
e2,
36,
da,
ee,
34,
e8,
07,
cf,
0d,
0b,
02,
f9,
23,
f1,
2d,
22,
f3,
02,
0f,
ed,
fa,
24,
fb,
0d,
08,
04,
f8,
d9,
f6,
fd,
06,
14,
e4,
0d,
1d,
ee,
df,
0d,
0f,
06,
f0,
07,
de,
f8,
14,
db,
cf,
32,
bf,
01,
15,
18,
d1,
15,
18,
20,
db,
1c,
f5,
fc,
fa,
f3,
1a,
20,
0a,
f8,
36,
0e,
08,
f3,
1c,
15,
ff,
e6,
d1,
e4,
f0,
22,
1d,
12,
19,
e6,
26,
e7,
32,
fa,
e5,
1b,
19,
ff,
37,
23,
d4,
ff,
0f,
dc,
ed,
c5,
07,
e4,
fc,
fd,
ad,
b1,
ea,
dd,
d4,
f6,
d9,
ec,
2a,
fe,
fa,
f6,
de,
d8,
dd,
f8,
ff,
18,
d0,
06,
e6,
f2,
22,
31,
dc,
cc,
da,
fc,
32,
ef,
e7,
28,
04,
10,
fb,
ec,
08,
d9,
bf,
08,
c8,
f6,
f2,
d2,
ed,
cc,
31,
2a,
4d,
f8,
04,
3d,
be,
df,
b4,
15,
07,
1d,
ab,
26,
bd,
f4,
f6,
f5,
13,
e6,
05,
f8,
f6,
24,
eb,
e5,
08,
01,
10,
ec,
2a,
19,
f4,
fc,
ee,
08,
12,
fd,
fa,
f3,
fd,
fe,
1e,
0b,
1a,
fe,
04,
f0,
d9,
d8,
12,
17,
05,
06,
de,
1b,
cf,
05,
cb,
51,
ed,
f5,
e2,
1a,
b4,
20,
00,
1a,
14,
20,
d1,
17,
d6,
11,
e8,
ec,
dc,
e8,
0f,
25,
ce,
21,
f9,
4e,
21,
3a,
fe,
fb,
0c,
cb,
e4,
f0,
24,
c5,
28,
26,
09,
18,
d6,
67,
fc,
fc,
28,
f6,
58,
49,
f2,
3c,
67,
09,
eb,
d1,
15,
f6,
12,
14,
db,
04,
00,
0f,
e7,
17,
1e,
02,
e9,
e6,
0f,
2b,
e0,
c2,
fd,
2c,
de,
23,
2c,
0b,
ee,
25,
f6,
e2,
cc,
1f,
df,
e1,
d7,
ca,
e2,
19,
d3,
ca,
d8,
ea,
d1,
06,
07,
f1,
0f,
19,
d7,
e8,
22,
f7,
ec,
04,
01,
03,
0c,
0a,
cf,
fa,
d7,
fc,
e9,
33,
35,
ff,
09,
dc,
fa,
c9,
ca,
de,
f5,
04,
fa,
db,
01,
09,
ed,
ec,
ee,
0c,
25,
09,
0b,
ff,
0c,
22,
ff,
03,
f4,
ce,
fc,
21,
fb,
b2,
f7,
11,
30,
be,
0f,
fb,
f7,
d8,
fe,
de,
01,
0d,
fd,
f2,
0e,
d1,
20,
ff,
d0,
bf,
d9,
08,
e3,
ab,
1c,
fc,
46,
16,
3b,
f9,
ee,
e7,
39,
39,
09,
2a,
2f,
d8,
19,
43,
0a,
f3,
28,
fc,
18,
07,
10,
e3,
ec,
ee,
df,
d4,
ca,
2a,
03,
19,
c4,
f5,
f5,
ae,
f1,
ff,
f0,
ec,
31,
e6,
55,
3c,
ac,
da,
02,
db,
02,
1f,
24,
04,
fd,
ea,
27,
c4,
b3,
46,
20,
5c,
eb,
07,
0d,
2e,
ed,
11,
e9,
00,
19,
e8,
50,
57,
03,
35,
26,
f3,
d3,
27,
2c,
d4,
46,
1c,
3e,
d5,
ef,
01,
0e,
ed,
e5,
de,
ef,
05,
f6,
17,
f8,
ff,
d7,
ec,
dc,
08,
ce,
da,
dc,
d8,
f4,
e7,
fe,
16,
e6,
29,
0c,
2e,
14,
dc,
01,
19,
0c,
28,
24,
14,
01,
f0,
3c,
d3,
42,
3f,
25,
0a,
cd,
e8,
bb,
f8,
2d,
31,
f9,
29,
e5,
0a,
18,
ea,
ce,
14,
37,
17,
f0,
02,
e8,
f3,
fd,
25,
ed,
1e,
ca,
d5,
f4,
11,
e7,
39,
bb,
2d,
d4,
01,
f9,
f7,
f6,
10,
03,
e6,
f0,
f8,
04,
0e,
0f,
0f,
e2,
e3,
13,
e9,
ff,
21,
03,
0a,
f9,
dc,
0a,
0c,
af,
2d,
ed,
fe,
29,
1a,
f7,
0b,
15,
21,
2c,
e2,
af,
ff,
02,
ff,
c2,
36,
05,
08,
ca,
04,
fe,
08,
58,
18,
00,
db,
14,
f3,
de,
d6,
1f,
ef,
ff,
1b,
e9,
db,
28,
d7,
30,
f4,
f6,
1d,
25,
02,
3d,
f5,
f2,
0e,
ff,
12,
36,
f2,
d8,
e8,
ad,
d3,
34,
0c,
e3,
1b,
2d,
d7,
20,
cb,
ce,
08,
02,
f3,
23,
06,
bb,
08,
11,
f6,
11,
bc,
e3,
e5,
f5,
f1,
24,
fb,
a8,
0c,
e0,
e5,
1c,
e3,
db,
06,
18,
01,
fb,
ff,
04,
da,
e6,
ea,
1c,
0e,
d3,
01,
ad,
d4,
19,
3f,
e2,
d8,
09,
06,
f1,
d2,
ec,
2c,
52,
ff,
01,
ec,
f0,
bf,
e8,
04,
06,
0a,
ee,
0f,
2a,
e4,
27,
dc,
43,
ed,
27,
2f,
27,
be,
07,
0c,
35,
d5,
c4,
66,
00,
d4,
b0,
f2,
bf,
24,
dc,
35,
0d,
00,
09,
1b,
0c,
ef,
e4,
0b,
0b,
05,
1f,
ea,
fc,
ff,
07,
23,
c8,
db,
d5,
f6,
f7,
f0,
10,
2c,
0c,
e0,
0c,
e5,
20,
1e,
f3,
1d,
e0,
11,
d2,
f1,
d2,
e8,
ca,
00,
b5,
16,
22,
2f,
e2,
08,
ed,
f7,
ec,
07,
03,
ed,
f5,
e4,
25,
eb,
39,
f7,
f7,
01,
ea,
0d,
ff,
0a,
14,
0a,
07,
0b,
00,
19,
1b,
10,
fd,
d4,
f5,
e7,
10,
e3,
0a,
eb,
e5,
c0,
3c,
24,
dd,
07,
e5,
11,
d6,
21,
03,
7f,
dd,
09,
eb,
09,
0d,
ea,
ff,
d0,
1b,
f2,
e7,
1b,
03,
ed,
31,
fd,
fb,
fe,
01,
0f,
e9,
4c,
07,
c6,
b3,
ff,
03,
f4,
11,
f1,
0a,
07,
fc,
fe,
e0,
0b,
0b,
d6,
3f,
32,
fa,
f2,
ec,
08,
09,
02,
e9,
fb,
13,
e5,
0a,
e8,
0a,
dd,
ec,
0a,
c8,
48,
0b,
fb,
b2,
e7,
0d,
ff,
eb,
dc,
46,
18,
2d,
fc,
ec,
26,
4e,
f9,
0e,
cb,
fc,
d7,
13,
d8,
ca,
fe,
dc,
f5,
fe,
cd,
14,
1f,
18,
20,
f9,
e5,
40,
5c,
fa,
a7,
ff,
1c,
20,
0b,
d5,
eb,
2c,
e1,
1a,
48,
d2,
e0,
2d,
04,
0a,
fc,
4c,
ea,
d0,
01,
f1,
00,
62,
df,
08,
e2,
11,
2f,
07,
dc,
e7,
1d,
c5,
fe,
42,
00,
f7,
ee,
fc,
03,
0d,
13,
b3,
15,
18,
d0,
95,
19,
15,
4e,
c5,
ed,
f0,
0b,
25,
37,
40,
ff,
e0,
15,
f1,
01,
0a,
0d,
fa,
13,
fc,
0d,
f2,
f9,
12,
e8,
00,
03,
0b,
11,
f2,
1b,
d6,
1f,
e4,
f4,
1d,
ed,
f4,
3d,
42,
18,
ea,
ec,
d7,
ec,
f3,
a9,
d7,
19,
03,
42,
f5,
f0,
fc,
15,
e7,
dd,
05,
08,
be,
14,
01,
2a,
f2,
f9,
12,
13,
f3,
ed,
de,
e1,
32,
1c,
c6,
0b,
11,
f8,
19,
cc,
3d,
02,
03,
fa,
e0,
ff,
f3,
03,
fa,
f4,
13,
d6,
d5,
d8,
29,
ff,
1b,
ec,
df,
2d,
30,
21,
40,
bc,
e4,
f0,
25,
00,
f1,
de,
cf,
f2,
17,
2c,
ec,
e6,
1a,
da,
b4,
15,
ff,
e9,
32,
10,
f5,
13,
25,
0a,
96,
18,
19,
ea,
0b,
fb,
e3,
03,
0a,
f9,
f0,
fa,
12,
0e,
29,
33,
1c,
3d,
ef,
1a,
17,
23,
b9,
d9,
db,
27,
1c,
e2,
e0,
46,
23,
08,
14,
dd,
11,
e0,
21,
02,
f8,
23,
1c,
fb,
13,
36,
1e,
e6,
1f,
25,
06,
da,
0f,
d8,
16,
27,
fb,
2a,
25,
e7,
f3,
0a,
e3,
ef,
0e,
26,
ee,
f4,
de,
f4,
d2,
16,
cf,
03,
c0,
2b,
2f,
05,
22,
14,
3e,
54,
dc,
fd,
04,
e5,
06,
3b,
0d,
30,
3b,
04,
27,
e4,
cb,
1b,
c4,
26,
16,
e9,
24,
b6,
dd,
f1,
0e,
02,
2d,
0f,
db,
ce,
0e,
21,
ea,
09,
ee,
0c,
f1,
f3,
fb,
fb,
0a,
1a,
f5,
bd,
3e,
27,
2e,
c1,
1e,
fa,
08,
dd,
a8,
f7,
34,
07,
ec,
ec,
1b,
f8,
33,
f8,
2d,
e0,
04,
b8,
1b,
28,
fd,
1c,
e8,
b9,
d6,
25,
1e,
f3,
57,
22,
1f,
ff,
f3,
06,
1b,
fe,
b5,
da,
d8,
f6,
dc,
05,
0f,
b7,
1a,
07,
c9,
2c,
42,
1f,
33,
0a,
d4,
31,
ff,
d6,
d8,
dc,
09,
bd,
b8,
14,
f4,
21,
12,
1a,
ff,
0d,
14,
d0,
dc,
10,
17,
f4,
d8,
d3,
08,
16,
13,
08,
07,
f5,
ec,
ed,
20,
fe,
18,
12,
23,
fd,
df,
1c,
da,
c7,
43,
fe,
de,
cb,
d8,
cf,
a0,
2d,
b9,
01,
38,
07,
10,
6e,
db,
38,
eb,
11,
ca,
27,
f9,
fc,
23,
00,
2a,
16,
d6,
05,
d3,
14,
38,
13,
d4,
f4,
f9,
d8,
03,
f1,
df,
ee,
05,
dc,
10,
18,
06,
17,
f3,
0d,
d9,
eb,
f1,
25,
da,
e8,
35,
f9,
14,
0e,
08,
16,
ea,
07,
0d,
01,
e6,
08,
f6,
0c,
26,
1d,
2e,
f0,
f9,
4e,
d4,
f3,
08,
e2,
d1,
15,
0a,
cf,
fe,
1b,
f3,
4f,
14,
f1,
f6,
15,
c9,
f0,
1d,
13,
1a,
df,
d8,
ec,
f3,
50,
22,
da,
0a,
15,
f4,
e6,
e8,
2b,
33,
da,
1f,
e0,
ff,
e8,
fb,
0d,
fd,
e5,
10,
cf,
b2,
ef,
be,
df,
2c,
ee,
f8,
32,
7b,
5d,
1d,
d1,
fb,
d9,
a2,
ef,
f8,
18,
e8,
12,
1a,
04,
df,
f9,
f2,
ed,
08,
0e,
29,
11,
10,
17,
0a,
d9,
1b,
23,
c5,
ea,
e1,
29,
0c,
ff,
3b,
b1,
d1,
21,
3d,
16,
dd,
12,
e4,
ff,
aa,
0e,
ee,
36,
8a,
f3,
17,
88,
14,
09,
d4,
37,
14,
0e,
00,
1a,
0f,
e0,
03,
fc,
23,
13,
f5,
ec,
25,
32,
0b,
f1,
a2,
e1,
20,
fa,
fb,
15,
11,
34,
de,
41,
08,
8e,
15,
df,
cb,
24,
00,
c0,
ed,
f3,
24,
0b,
16,
15,
8c,
0b,
46,
e4,
e4,
ee,
bd,
ee,
29,
0b,
00,
ef,
1a,
d2,
f2,
e0,
df,
1f,
16,
52,
f9,
f7,
eb,
12,
24,
2a,
f2,
0a,
d5,
1e,
25,
fa,
ef,
dc,
e6,
de,
ce,
1c,
27,
d7,
fb,
e6,
23,
0e,
f9,
02,
bd,
0b,
f0,
32,
12,
09,
36,
40,
f4,
11,
ed,
0a,
2c,
dd,
ef,
fc,
06,
25,
01,
04,
db,
f8,
18,
ea,
06,
f8,
1b,
43,
44,
f9,
0e,
ca,
3c,
c1,
28,
32,
b9,
0f,
d2,
cc,
3c,
eb,
07,
fe,
48,
26,
53,
25,
d9,
f2,
02,
05,
27,
cf,
fd,
16,
09,
13,
d8,
17,
f1,
1e,
0c,
2d,
03,
15,
19,
1c,
e8,
d1,
e4,
03,
10,
1e,
1c,
cd,
d5,
51,
dc,
c4,
45,
fd,
e7,
05,
e2,
21,
09,
e9,
19,
f8,
1c,
00,
0a,
f9,
c8,
20,
c6,
bc,
f4,
e4,
36,
97,
3d,
d8,
20,
04,
e3,
5e,
e8,
eb,
d9,
d4,
19,
1e,
7f,
23,
f7,
cd,
13,
d0,
f5,
f1,
db,
38,
d2,
d4,
37,
23,
b5,
19,
39,
e9,
e7,
94,
b2,
d0,
18,
fc,
c5,
1d,
df,
b6,
1c,
cb,
d7,
31,
40,
f0,
ef,
0a,
c8,
19,
15,
f1,
ff,
ef,
cb,
5c,
26,
16,
18,
e2,
40,
01,
9d,
db,
20,
cd,
19,
f4,
e1,
1b,
1f,
99,
e8,
55,
46,
05,
42,
2e,
fe,
e1,
df,
ed,
e6,
e2,
e6,
06,
08,
f7,
13,
02,
ec,
0f,
5f,
ea,
f6,
f7,
fa,
fd,
ef,
07,
f1,
1a,
0c,
ec,
fd,
e2,
fd,
11,
22,
14,
da,
f9,
29,
e8,
ee,
04,
09,
04,
05,
ad,
6a,
50,
fe,
e9,
c6,
35,
f2,
e6,
13,
2a,
17,
15,
c9,
d1,
03,
e1,
25,
6d,
13,
43,
01,
0c,
1c,
bf,
f9,
af,
07,
35,
0c,
19,
d6,
05,
0a,
14,
fd,
4f,
02,
20,
0c,
21,
fb,
fe,
39,
b6,
c5,
62,
63,
4b,
fd,
e0,
f6,
34,
0a,
18,
f6,
b0,
04,
f6,
01,
fa,
b8,
ff,
15,
fc,
0c,
42,
1c,
e7,
2b,
bf,
0f,
07,
d5,
c1,
27,
27,
c9,
f7,
34,
f7,
16,
fa,
29,
1a,
dc,
14,
10,
24,
fa,
c3,
23,
17,
00,
bf,
bb,
12,
20,
f2,
d4,
d8,
34,
d8,
df,
ed,
33,
0d,
ef,
2a,
cc,
03,
3c,
dc,
f7,
d1,
02,
e3,
23,
0d,
e2,
ec,
1a,
f6,
27,
c1,
09,
13,
34,
e6,
da,
23,
fd,
3a,
3c,
f6,
2a,
90,
10,
b4,
bc,
ff,
fb,
2a,
fa,
d8,
d4,
e0,
f2,
22,
f4,
0b,
a8,
17,
36,
4c,
dd,
c9,
09,
05,
fd,
30,
f5,
09,
1f,
cb,
ee,
13,
f3,
1b,
cd,
bd,
02,
f0,
2b,
f3,
0f,
e7,
f2,
f7,
ef,
e6,
f0,
2d,
36,
a5,
f6,
1d,
cf,
ff,
11,
28,
d5,
0d,
07,
26,
e2,
2b,
e0,
17,
bd,
b9,
1c,
35,
1a,
21,
b6,
fc,
8d,
08,
0c,
c9,
05,
c9,
4b,
ff,
20,
01,
13,
31,
f4,
09,
db,
9f,
31,
d2,
f3,
fe,
09,
a3,
08,
03,
07,
db,
26,
17,
12,
3f,
0b,
b3,
e5,
2d,
0f,
11,
28,
36,
55,
0d,
c1,
66,
22,
b8,
f3,
e8,
da,
09,
f7,
dd,
31,
10,
19,
f3,
4b,
8e,
fd,
af,
02,
98,
23,
08,
fa,
00,
1a,
29,
1e,
f7,
39,
e7,
23,
0f,
40,
0a,
3d,
13,
ff,
16,
fe,
b9,
d6,
2c,
ff,
24,
e6,
2a,
e2,
09,
f3,
46,
d9,
e1,
16,
de,
13,
f2,
f9,
0d,
af,
f3,
59,
18,
e0,
26,
10,
2d,
e7,
cc,
1c,
f9,
d3,
4b,
14,
be,
c5,
e9,
d5,
ae,
dd,
41,
0a,
e5,
d6,
21,
02,
1a,
1d,
e9,
13,
07,
36,
4b,
1b,
4c,
ff,
00,
4d,
b3,
0e,
6b,
f3,
d4,
c6,
0a,
06,
15,
03,
f1,
f6,
f5,
0a,
0f,
06,
0d,
16,
04,
0c,
01,
0e,
eb,
fe,
3d,
10,
0d,
f3,
f9,
ef,
e6,
fd,
0c,
08,
dd,
3e,
0a,
cf,
d4,
0f,
9c,
c4,
10,
19,
c7,
25,
e9,
0e,
12,
06,
b3,
f2,
bc,
eb,
12,
24,
1a,
5f,
18,
23,
ed,
d7,
1f,
52,
e2,
bc,
d6,
f8,
22,
36,
30,
c1,
41,
38,
09,
1d,
e2,
18,
cb,
c0,
0e,
60,
91,
d5,
d9,
31,
34,
d1,
2e,
1b,
f6,
06,
2f,
3f,
bc,
fe,
c8,
0b,
f8,
1a,
0d,
28,
0e,
2d,
e3,
e3,
2a,
dd,
fd,
19,
ba,
3b,
27,
19,
de,
ea,
1f,
a1,
e3,
7f,
f8,
e6,
0c,
ee,
3f,
0e,
4a,
e7,
ac,
30,
cd,
1b,
f1,
e9,
ff,
08,
24,
e7,
da,
da,
4d,
03,
25,
37,
26,
ff,
19,
2e,
10,
eb,
ce,
29,
11,
c7,
10,
f4,
fc,
09,
eb,
e4,
d6,
f9,
1f,
11,
d7,
0d,
23,
ef,
d7,
f8,
16,
07,
18,
df,
fd,
05,
eb,
d8,
12,
15,
fb,
db,
fc,
fa,
ed,
02,
00,
e9,
d7,
2a,
09,
f8,
19,
17,
f6,
fa,
f0,
ff,
dd,
16,
f6,
fb,
39,
08,
ea,
1b,
22,
13,
0e,
2e,
e7,
10,
f4,
f1,
ec,
1e,
e8,
0a,
ef,
e0,
30,
ee,
e9,
f8,
10,
f4,
21,
13,
d5,
db,
0b,
e7,
2d,
e7,
17,
11,
e3,
0b,
05,
2b,
e3,
fa,
cf,
19,
02,
05,
df,
12,
2b,
d1,
08,
f0,
f6,
04,
04,
ed,
29,
28,
00,
18,
e4,
dc,
0e,
0b,
19,
18,
39,
fb,
ee,
f2,
d1,
de,
16,
03,
fa,
33,
e5,
eb,
16,
e1,
1c,
1e,
f2,
1c,
c3,
27,
19,
07,
c3,
d4,
dd,
f4,
d3,
ef,
d5,
17,
e2,
ef,
ee,
e4,
ef,
09,
1f,
ff,
2c,
19,
e2,
d4,
15,
df,
fe,
15,
04,
0d,
c1,
f7,
3a,
09,
2d,
12,
f4,
df,
cb,
f7,
f4,
08,
f5,
1c,
ca,
f0,
01,
2e,
01,
23,
1d,
e6,
05,
23,
05,
51,
e0,
f4,
28,
0c,
1c,
f6,
08,
23,
07,
3e,
25,
f0,
d6,
17,
d4,
07,
01,
1f,
09,
07,
07,
c5,
04,
f4,
15,
09,
34,
e6,
01,
e7,
1f,
fe,
f8,
f6,
f7,
ed,
01,
27,
bd,
03,
4d,
eb,
e9,
e6,
de,
06,
05,
f8,
f0,
04,
f2,
ee,
ac,
d8,
ea,
eb,
e6,
11,
3b,
16,
0d,
fa,
d9,
c2,
dc,
f7,
19,
f5,
ef,
fe,
e2,
17,
51,
06,
f4,
c7,
21,
ed,
32,
d5,
34,
0b,
e9,
f9,
f5,
0e,
fd,
08,
31,
18,
3f,
13,
02,
0a,
03,
f8,
fb,
16,
0a,
16,
ed,
02,
17,
fb,
fc,
04,
0d,
f6,
00,
06,
e8,
04,
f2,
e0,
fe,
0f,
fe,
ea,
2f,
f2,
16,
f7,
ea,
0c,
9a,
2a,
14,
f4,
da,
3f,
20,
08,
26,
e9,
0b,
e3,
f6,
24,
dd,
08,
ef,
03,
f3,
32,
e6,
3a,
20,
eb,
17,
0b,
ed,
fa,
e4,
f3,
b1,
0e,
17,
1c,
26,
d6,
cf,
da,
00,
d5,
03,
be,
f7,
10,
13,
da,
de,
08,
16,
d8,
11,
09,
d0,
23,
38,
13,
49,
f7,
fa,
3f,
2d,
f3,
13,
3c,
ad,
00,
fb,
0e,
f5,
f3,
28,
12,
32,
04,
07,
08,
1f,
f0,
d0,
f4,
fd,
26,
02,
03,
1f,
db,
e8,
eb,
0b,
dd,
ed,
26,
e0,
e8,
0a,
0a,
da,
1d,
f9,
f4,
e5,
32,
e9,
1f,
1b,
14,
ef,
e5,
13,
d5,
00,
15,
fb,
df,
00,
ff,
ff,
c1,
1d,
1e,
fe,
f3,
e4,
14,
1f,
f2,
f3,
ec,
fa,
08,
29,
fd,
13,
29,
05,
fd,
f8,
23,
1a,
07,
c8,
f3,
f2,
d7,
08,
0b,
fa,
ec,
e5,
dd,
0e,
f5,
00,
41,
26,
09,
1a,
13,
ce,
eb,
08,
fa,
13,
f1,
f1,
c7,
f7,
0b,
f0,
f7,
0d,
fa,
fb,
d6,
20,
f3,
f1,
e2,
00,
e4,
dc,
3d,
fc,
e6,
00,
17,
df,
c8,
28,
ee,
18,
d5,
d7,
25,
fc,
0b,
08,
30,
37,
19,
3a,
0a,
bd,
7f,
05,
e7,
16,
c2,
22,
23,
6c,
08,
33,
3c,
f4,
f5,
1a,
ed,
0b,
16,
f8,
ff,
de,
1e,
c4,
35,
db,
bf,
0f,
c2,
ec,
f0,
0a,
d8,
14,
e8,
1f,
da,
e0,
22,
ef,
c2,
de,
f9,
26,
ff,
cb,
e5,
17,
f7,
34,
fd,
09,
10,
14,
ca,
e9,
c0,
66,
08,
ef,
0c,
fd,
09,
3f,
0f,
b7,
ec,
f0,
f9,
fa,
d6,
26,
e7,
09,
2f,
1b,
e8,
00,
e0,
ca,
e1,
fe,
e3,
f8,
f9,
e0,
f4,
f8,
e6,
41,
fa,
ef,
38,
f9,
02,
fe,
e4,
03,
3d,
fc,
20,
f7,
15,
c4,
0b,
de,
0e,
49,
ef,
1a,
08,
ef,
0b,
21,
16,
20,
e6,
fd,
d6,
0c,
bb,
1e,
f3,
e4,
1b,
dc,
d2,
25,
04,
f5,
f8,
03,
f6,
ee,
d4,
b9,
0d,
e0,
e7,
f3,
e4,
f1,
fb,
0d,
f1,
0e,
ed,
f5,
0b,
00,
14,
1c,
e7,
08,
f9,
00,
0d,
fa,
1b,
e9,
0f,
f9,
ef,
16,
10,
03,
fd,
0d,
ff,
0f,
45,
00,
e9,
06,
f2,
08,
cf,
0c,
0e,
1c,
09,
32,
e8,
dd,
fc,
30,
fb,
ec,
fc,
11,
04,
00,
1c,
05,
3a,
f0,
f4,
b9,
df,
14,
12,
ec,
39,
14,
e3,
1f,
d5,
f7,
00,
05,
cd,
ea,
d9,
fa,
15,
d2,
01,
12,
03,
fe,
dc,
28,
f1,
e4,
03,
db,
18,
f7,
1d,
1d,
d7,
24,
cc,
e0,
41,
0b,
c5,
d8,
24,
f6,
24,
21,
da,
ca,
c7,
e6,
ef,
fb,
20,
f8,
fa,
da,
1e,
d8,
17,
01,
f2,
0e,
f2,
f6,
ed,
e6,
d9,
f6,
f9,
e8,
fe,
3b,
dd,
07,
db,
37,
5c,
aa,
01,
1b,
10,
f1,
31,
af,
34,
b9,
21,
04,
0e,
df,
23,
37,
e2,
fa,
f5,
f3,
f8,
0b,
dd,
f1,
dc,
17,
42,
02,
32,
15,
e9,
f1,
35,
43,
1a,
25,
51,
fc,
cb,
07,
1f,
e9,
f0,
b8,
f9,
ff,
f4,
0f,
26,
1f,
0d,
01,
df,
c1,
ee,
19,
08,
ee,
f7,
f3,
e2,
c7,
2f,
f6,
f7,
19,
0d,
f5,
71,
44,
15,
0b,
f4,
eb,
02,
10,
12,
1e,
1a,
0f,
0f,
c5,
f4,
47,
2b,
30,
06,
d7,
03,
2d,
f9,
f6,
b8,
fc,
f5,
e3,
e9,
ff,
4e,
f0,
17,
0d,
14,
02,
de,
dd,
cc,
e8,
dc,
f6,
c7,
f7,
0a,
1a,
df,
0b,
cf,
15,
08,
ea,
33,
07,
ff,
fd,
0d,
10,
d8,
f0,
1c,
21,
18,
1a,
02,
73,
d7,
e0,
12,
e7,
ec,
c0,
eb,
bd,
f9,
ec,
ff,
16,
b2,
09,
46,
1b,
bd,
22,
26,
ea,
d0,
fb,
17,
16,
2c,
1f,
b5,
e8,
f8,
c1,
f5,
03,
c3,
32,
c1,
1f,
fd,
d6,
06,
2d,
c2,
08,
22,
03,
e5,
e5,
dc,
08,
ec,
bb,
f0,
36,
df,
2d,
e5,
18,
ee,
e5,
be,
0e,
a2,
22,
dc,
f0,
ef,
20,
23,
ad,
29,
de,
13,
0f,
db,
f9,
df,
f4,
f7,
09,
29,
a9,
18,
15,
f8,
3e,
0e,
f3,
9b,
09,
0e,
ef,
fb,
11,
f3,
da,
31,
f4,
f5,
e0,
07,
03,
09,
ed,
b8,
cd,
f3,
14,
25,
fe,
0c,
14,
f9,
e3,
cf,
13,
ec,
ef,
fd,
0f,
12,
df,
fa,
dc,
10,
0f,
39,
b3,
0e,
c4,
d2,
1b,
21,
e0,
b9,
bf,
fa,
d9,
e4,
1b,
e1,
3d,
bd,
56,
db,
ea,
12,
db,
32,
f6,
fa,
c3,
0f,
3a,
d6,
11,
58,
ed,
cc,
23,
fc,
0a,
ed,
e3,
0d,
f0,
f4,
02,
13,
fa,
0c,
0c,
0c,
f9,
f0,
e3,
0b,
30,
dc,
f6,
ff,
df,
06,
e1,
13,
ed,
08,
e7,
f5,
36,
21,
ea,
fa,
f1,
e5,
5b,
ff,
14,
25,
d0,
0f,
e6,
ed,
b7,
0f,
1e,
c8,
19,
18,
eb,
c5,
dc,
3d,
c6,
fa,
42,
f7,
20,
d3,
18,
38,
0d,
13,
f8,
a9,
f4,
05,
13,
1b,
eb,
1a,
fc,
c5,
e5,
f7,
2d,
25,
ad,
06,
e2,
de,
f7,
2d,
15,
fb,
1b,
c9,
f3,
dd,
0a,
ba,
0d,
04,
0c,
29,
01,
26,
1a,
20,
28,
fa,
e9,
f3,
ff,
d7,
e3,
44,
0a,
f7,
db,
29,
40,
e1,
c3,
f7,
f5,
47,
df,
fa,
c8,
0a,
ae,
ea,
29,
df,
26,
03,
fd,
fd,
0b,
1e,
24,
d0,
08,
18,
4f,
04,
05,
bd,
13,
15,
eb,
c3,
27,
2c,
e0,
d6,
fd,
16,
fb,
0e,
da,
fc,
12,
07,
d2,
1b,
05,
e0,
f2,
1d,
28,
0b,
e9,
10,
e1,
f1,
1c,
0e,
09,
de,
13,
0f,
01,
cd,
25,
be,
06,
08,
e0,
59,
de,
06,
ca,
1b,
ee,
0c,
21,
15,
12,
fc,
fe,
ed,
ef,
13,
d1,
eb,
26,
43,
c6,
24,
d3,
35,
cb,
16,
18,
d5,
19,
e0,
20,
e4,
0a,
1e,
0a,
d3,
8f,
16,
cf,
62,
0d,
fe,
fa,
d7,
21,
ae,
24,
43,
07,
00,
13,
e9,
1b,
1e,
34,
f8,
f5,
53,
ea,
08,
da,
c9,
27,
3b,
2f,
0d,
01,
dd,
a9,
26,
0c,
31,
f9,
04,
25,
17,
f9,
db,
fe,
e9,
ce,
2d,
7f,
02,
09,
da,
e0,
3b,
01,
e9,
f1,
0e,
31,
f3,
4b,
e5,
01,
f8,
ef,
ee,
0a,
1d,
0d,
17,
d0,
0c,
ec,
eb,
07,
e1,
2c,
e0,
2b,
c9,
5a,
f1,
17,
cb,
11,
f2,
45,
20,
24,
db,
04,
13,
d7,
0f,
37,
f5,
c1,
19,
ef,
dd,
f8,
13,
3d,
29,
e0,
d0,
ea,
c7,
f6,
ec,
0d,
0c,
e4,
c4,
30,
db,
29,
1f,
13,
18,
eb,
fc,
01,
fa,
2d,
d3,
13,
be,
b4,
3a,
01,
12,
11,
0f,
c0,
f5,
1e,
e4,
e7,
43,
3c,
1a,
eb,
38,
d3,
ef,
07,
05,
08,
c7,
a6,
f1,
b9,
0c,
5f,
e9,
e3,
21,
1c,
d4,
a0,
f1,
ef,
0a,
0a,
ff,
ec,
f4,
e6,
f5,
0e,
fc,
ea,
f8,
ec,
f7,
0e,
02,
f0,
0e,
26,
12,
09,
f2,
f2,
06,
01,
f5,
fb,
07,
ef,
d6,
cb,
f4,
49,
f3,
23,
fc,
db,
eb,
03,
fe,
f4,
13,
2c,
19,
07,
d3,
63,
10,
ee,
fc,
06,
1f,
cf,
fd,
1c,
ef,
d5,
0e,
f7,
ee,
da,
42,
18,
ed,
b4,
e4,
c0,
1b,
ed,
03,
1e,
2b,
d3,
05,
26,
bc,
bb,
3a,
42,
20,
08,
0c,
22,
17,
4a,
d9,
f6,
30,
f0,
f6,
05,
02,
09,
ca,
fd,
40,
fb,
53,
12,
ef,
25,
52,
21,
40,
0a,
1b,
e1,
c6,
19,
0e,
0f,
f9,
f2,
ed,
26,
43,
30,
f3,
0f,
d7,
cc,
0a,
04,
05,
d8,
26,
16,
de,
ef,
ca,
49,
15,
0b,
f4,
d1,
39,
9a,
d1,
4b,
2c,
e3,
32,
c1,
0a,
4a,
01,
e5,
e8,
1c,
05,
18,
10,
c7,
09,
f3,
15,
df,
4c,
08,
70,
17,
3e,
05,
c0,
36,
c7,
d6,
4e,
02,
c7,
24,
b5,
30,
d5,
de,
cc,
9c,
d7,
03,
f4,
df,
13,
f2,
f3,
21,
05,
30,
28,
df,
2e,
d4,
f8,
bf,
db,
28,
e9,
1f,
d3,
ed,
1a,
ce,
1e,
28,
05,
34,
23,
e1,
ec,
ff,
19,
25,
c7,
ca,
0f,
e8,
01,
eb,
2f,
04,
a4,
13,
dc,
cf,
1e,
00,
17,
e5,
e1,
c3,
ea,
1d,
fa,
24,
37,
f8,
c6,
fe,
39,
db,
f7,
ec,
10,
0a,
26,
f2,
f2,
da,
f2,
21,
34,
b9,
f7,
cc,
12,
f1,
e0,
e5,
ed,
00,
fe,
06,
fd,
07,
21,
ff,
26,
e7,
1b,
13,
41,
06,
10,
ed,
dc,
f2,
10,
de,
df,
19,
ac,
08,
e3,
3e,
30,
0f,
e2,
cd,
36,
e1,
27,
21,
19,
ea,
30,
34,
e6,
e2,
ff,
d4,
0a,
02,
f5,
ce,
f4,
e5,
01,
fc,
e1,
1f,
37,
d8,
1a,
07,
e9,
10,
f5,
1f,
e9,
1e,
ed,
e0,
c9,
de,
15,
13,
e6,
ad,
e3,
fc,
f4,
ea,
e6,
d8,
11,
2f,
1a,
10,
fe,
2c,
20,
19,
da,
ee,
19,
e0,
38,
f9,
00,
e9,
db,
fc,
fa,
26,
12,
33,
da,
31,
f9,
ed,
0c,
00,
fb,
02,
0a,
cf,
ca,
f0,
0a,
2e,
46,
0a,
1b,
10,
f1,
0b,
1d,
0b,
e5,
05,
d6,
c9,
1f,
0c,
3a,
d6,
0a,
9d,
dc,
2b,
f9,
f3,
07,
20,
02,
f5,
29,
0f,
b5,
27,
1c,
ea,
a3,
fe,
05,
00,
0d,
18,
e6,
f8,
fc,
2c,
16,
0e,
10,
fb,
a8,
05,
ea,
e4,
f0,
2a,
3e,
0f,
30,
2e,
06,
da,
fd,
09,
e6,
0a,
01,
00,
00,
16,
16,
fb,
ff,
f4,
3d,
fd,
fc,
f5,
00,
f7,
f0,
f7,
f9,
10,
ed,
fc,
01,
0b,
2d,
08,
db,
fa,
d9,
1a,
4c,
05,
c9,
2d,
eb,
38,
35,
09,
bd,
fa,
fe,
1c,
13,
02,
27,
0e,
2c,
ae,
33,
43,
20,
fa,
05,
05,
ef,
00,
d6,
11,
f1,
07,
ef,
08,
08,
f1,
36,
e6,
24,
0b,
f6,
ee,
d2,
b7,
d5,
ec,
cf,
16,
22,
ed,
bd,
02,
61,
c5,
26,
1d,
0f,
05,
17,
ff,
d2,
45,
f7,
f8,
70,
f3,
fa,
fe,
1e,
ef,
d2,
fa,
1e,
fc,
bf,
04,
54,
0e,
0f,
2f,
e3,
dc,
0c,
00,
d7,
ca,
17,
41,
29,
0a,
fe,
07,
c3,
1d,
08,
f3,
e7,
e0,
e8,
2f,
0b,
01,
f4,
14,
fe,
1f,
4e,
fa,
e3,
e4,
11,
fd,
eb,
da,
d7,
f5,
ed,
00,
e9,
b3,
08,
ee,
3d,
f6,
c2,
e3,
07,
e7,
f6,
20,
29,
22,
19,
d6,
30,
eb,
dc,
11,
c8,
ed,
db,
47,
20,
3e,
d6,
d8,
e6,
09,
cc,
50,
ec,
e1,
03,
d0,
23,
02,
2a,
03,
17,
f4,
2b,
d1,
00,
16,
20,
c8,
f1,
ed,
d2,
11,
ed,
00,
3a,
e3,
db,
e3,
02,
e9,
28,
0e,
21,
0d,
fb,
fe,
1b,
de,
24,
34,
e7,
06,
03,
e1,
f8,
d3,
fb,
ea,
e2,
1d,
eb,
11,
19,
12,
bc,
3a,
e3,
05,
e1,
e3,
58,
cf,
e5,
10,
25,
ae,
3b,
24,
10,
fc,
25,
05,
09,
04,
be,
c6,
ab,
28,
16,
b7,
dd,
36,
20,
f0,
e1,
1c,
ee,
cc,
06,
30,
3e,
0b,
c8,
d2,
15,
18,
e4,
fa,
cf,
02,
e6,
07,
00,
03,
00,
ea,
ef,
ea,
d2,
6e,
f7,
3b,
00,
0a,
31,
2a,
e0,
df,
aa,
fe,
dc,
eb,
eb,
1e,
ee,
dd,
e9,
09,
e0,
fa,
c9,
03,
b9,
0d,
1a,
fc,
00,
02,
0b,
11,
23,
ac,
1c,
f3,
f4,
2d,
ba,
23,
bd,
16,
0e,
fc,
1b,
0f,
d8,
c1,
46,
09,
cb,
dd,
10,
e7,
e6,
de,
eb,
f0,
10,
2f,
09,
de,
12,
f3,
23,
f6,
ae,
c2,
80,
dc,
22,
f8,
d1,
43,
fa,
32,
c0,
eb,
30,
24,
0c,
ff,
fa,
dd,
d0,
f8,
1d,
e1,
ec,
f7,
f3,
f5,
14,
0a,
05,
e6,
f6,
fb,
e8,
e4,
0a,
fb,
1e,
fa,
07,
f3,
f2,
0d,
13,
e1,
1f,
f8,
fa,
db,
10,
07,
3f,
f1,
24,
0d,
f2,
31,
2f,
28,
25,
1e,
48,
f9,
04,
f8,
ea,
c9,
d9,
ea,
f6,
ed,
04,
f2,
23,
c5,
d6,
4b,
f0,
fc,
06,
f6,
1e,
e3,
0d,
fa,
3f,
15,
b7,
28,
08,
02,
08,
11,
e6,
0a,
f3,
02,
04,
0a,
0d,
b3,
eb,
d7,
56,
e7,
ff,
32,
d9,
f7,
d9,
1e,
f2,
ca,
eb,
f6,
c0,
f9,
19,
0b,
e7,
ef,
20,
cb,
fe,
27,
06,
09,
ba,
22,
44,
f0,
b6,
54,
04,
1c,
bd,
10,
f6,
e5,
04,
3e,
36,
06,
15,
15,
f3,
f8,
fc,
c8,
31,
c2,
16,
28,
fc,
b4,
2d,
fb,
1e,
d6,
1a,
cc,
26,
ed,
f0,
da,
0a,
ed,
cd,
cc,
ff,
17,
40,
f4,
ec,
d9,
f4,
dd,
43,
ec,
07,
06,
06,
de,
ce,
17,
d8,
c3,
31,
fc,
04,
ff,
b7,
f4,
ee,
e4,
44,
ed,
ec,
e6,
de,
0e,
f8,
fc,
0f,
e9,
fd,
08,
10,
c8,
fc,
46,
fb,
11,
09,
f5,
e7,
c4,
eb,
28,
f0,
19,
dc,
f3,
f1,
00,
df,
ef,
27,
da,
11,
18,
04,
00,
f1,
09,
c9,
14,
1a,
f1,
0a,
b9,
3f,
d5,
f5,
2e,
1c,
fc,
14,
e8,
10,
13,
08,
0b,
ca,
fe,
1d,
ef,
ef,
f2,
dd,
2b,
ef,
ec,
0f,
07,
08,
e8,
08,
ee,
d8,
04,
17,
db,
42,
e5,
e8,
ee,
eb,
0a,
09,
11,
e1,
2a,
ef,
ea,
da,
0a,
ef,
fe,
1d,
13,
f8,
1a,
07,
05,
e9,
08,
23,
10,
e2,
01,
f8,
fd,
29,
ee,
0c,
0b,
f1,
f9,
f9,
fb,
09,
ff,
df,
ed,
0e,
3c,
20,
2f,
f1,
f5,
ef,
df,
20,
fb,
3c,
f1,
cc,
0a,
14,
f8,
df,
e8,
00,
03,
2e,
c6,
cc,
e7,
f1,
fa,
0d,
09,
16,
26,
33,
0f,
0f,
1b,
d5,
08,
0e,
0f,
16,
10,
f5,
0e,
46,
02,
ea,
e8,
23,
58,
e6,
ef,
f0,
3f,
40,
2e,
d7,
9f,
05,
e3,
09,
03,
02,
e9,
f8,
e4,
c2,
02,
37,
df,
d8,
1a,
1a,
fc,
cf,
e6,
07,
f9,
3c,
f9,
fd,
d8,
2d,
d0,
f8,
0a,
f6,
db,
10,
dd,
10,
e3,
ec,
ff,
13,
ca,
08,
fa,
2a,
f6,
00,
f9,
0a,
0c,
07,
e4,
18,
d8,
ff,
0d,
c0,
ea,
e9,
bf,
f2,
e3,
3d,
f4,
fa,
2c,
12,
f2,
19,
da,
0c,
db,
f9,
1b,
3c,
03,
14,
0e,
e7,
ef,
d5,
05,
fc,
ec,
06,
26,
02,
0a,
0a,
00,
11,
12,
ff,
fb,
f4,
fb,
0f,
0c,
fb,
d9,
f4,
fc,
13,
03,
07,
f7,
09,
25,
f4,
0f,
01,
18,
d2,
e5,
f0,
ee,
f5,
27,
e8,
1c,
20,
34,
f9,
00,
ef,
cd,
ed,
01,
0c,
23,
f1,
06,
e1,
30,
48,
ff,
1d,
df,
d7,
e2,
ff,
b3,
f3,
d9,
26,
de,
fd,
06,
e2,
24,
c8,
0d,
af,
0b,
f9,
f1,
f6,
f2,
ff,
3b,
25,
f4,
e6,
e5,
0a,
2c,
c1,
d8,
f6,
1e,
2d,
fb,
c6,
ee,
31,
32,
22,
eb,
d8,
09,
f0,
ed,
ff,
f7,
14,
fe,
e9,
df,
35,
0c,
22,
04,
32,
02,
12,
02,
0d,
00,
0d,
eb,
40,
26,
06,
a6,
1d,
35,
06,
f8,
fe,
e4,
01,
09,
2d,
ef,
f6,
cd,
15,
eb,
f2,
d6,
12,
cb,
e8,
23,
f7,
ea,
39,
39,
e8,
29,
e1,
f0,
06,
cc,
e6,
f1,
bd,
2f,
0a,
37,
fe,
28,
1a,
06,
0b,
aa,
df,
15,
25,
03,
f0,
f5,
d0,
e9,
eb,
f9,
06,
14,
eb,
fc,
1a,
fd,
0d,
09,
00,
18,
10,
0e,
da,
f7,
e1,
04,
0e,
ff,
e1,
06,
18,
0c,
08,
2e,
ec,
09,
0e,
15,
f3,
09,
d7,
fb,
04,
c5,
f4,
0f,
bc,
22,
3f,
ff,
05,
1e,
18,
c0,
fe,
fc,
d7,
02,
e4,
ef,
12,
f8,
07,
05,
15,
ff,
2d,
da,
e8,
23,
c2,
1d,
fb,
19,
f8,
ed,
7f,
f9,
db,
0a,
39,
e0,
24,
e0,
2a,
2b,
fb,
b8,
f6,
0d,
2f,
0d,
db,
08,
dc,
fe,
14,
04,
fd,
c0,
02,
e9,
18,
01,
0d,
00,
df,
fc,
3a,
1d,
f0,
d3,
1e,
ee,
2f,
e3,
ff,
ec,
0f,
26,
21,
0a,
f2,
1b,
fd,
f6,
c6,
ec,
13,
33,
d9,
37,
ff,
c9,
06,
fb,
17,
df,
e4,
10,
ec,
d8,
f5,
22,
f6,
fb,
dc,
04,
f7,
0c,
e4,
e6,
01,
b6,
1c,
e5,
fe,
1f,
54,
10,
c0,
39,
f2,
e4,
d7,
ff,
1d,
16,
dd,
11,
f7,
fc,
07,
45,
fa,
09,
e7,
19,
13,
28,
1a,
dc,
4d,
d6,
25,
3d,
27,
e0,
20,
e0,
13,
ee,
33,
dc,
09,
1e,
bb,
08,
cd,
10,
db,
d6,
35,
00,
c5,
e3,
fa,
08,
ff,
dc,
c2,
f8,
fd,
eb,
f7,
0e,
ed,
17,
00,
f6,
0c,
02,
fd,
ec,
d9,
07,
f1,
18,
f3,
e5,
10,
1d,
fc,
f2,
f2,
ff,
02,
e2,
f3,
17,
2b,
cc,
e5,
c9,
11,
fd,
2e,
ee,
e3,
13,
00,
2b,
58,
f8,
1d,
20,
30,
18,
fa,
fa,
ec,
12,
30,
3d,
e6,
19,
0d,
fc,
19,
b7,
0b,
25,
e9,
1e,
ed,
2d,
39,
11,
37,
36,
d1,
fb,
09,
08,
ac,
ef,
0d,
09,
ef,
58,
fd,
26,
f6,
13,
13,
c6,
26,
d0,
27,
2b,
b3,
dc,
de,
07,
32,
ed,
38,
e0,
ff,
e2,
dd,
16,
01,
cd,
00,
cd,
e6,
e0,
f9,
25,
d0,
12,
28,
ef,
da,
e8,
4d,
f5,
f2,
12,
09,
f4,
12,
f8,
df,
fc,
e1,
04,
d5,
ea,
c0,
e6,
fc,
c3,
e1,
00,
0e,
f8,
df,
ad,
29,
27,
e3,
0d,
b6,
17,
18,
41,
03,
d7,
0c,
35,
62,
bb,
c6,
ef,
04,
52,
3b,
9a,
23,
f6,
3d,
49,
3e,
c1,
3f,
ff,
0d,
61,
14,
25,
12,
98,
59,
2a,
f3,
3c,
fa,
20,
01,
eb,
4a,
2b,
fa,
d9,
4a,
fd,
8d,
24,
46,
1b,
f0,
f9,
df,
e9,
fc,
27,
fc,
18,
b4,
f8,
11,
25,
e9,
0c,
fd,
0e,
2e,
ec,
bf,
15,
14,
11,
f6,
01,
07,
c8,
2c,
08,
e7,
07,
f2,
2f,
08,
02,
0b,
ef,
33,
28,
e7,
10,
05,
04,
12,
d9,
1a,
bb,
47,
f7,
19,
19,
04,
f2,
1c,
3a,
ec,
e3,
df,
f7,
06,
ce,
ea,
ac,
22,
ca,
fa,
fa,
ff,
0d,
da,
0b,
e9,
cb,
fb,
1e,
2e,
fe,
2c,
ec,
06,
29,
2e,
4c,
e8,
ee,
1c,
52,
31,
f0,
f3,
0f,
2f,
15,
f8,
11,
0d,
e4,
22,
e0,
24,
fb,
ff,
6a,
0d,
3c,
b1,
ff,
e8,
f4,
02,
20,
e5,
35,
1a,
d9,
12,
eb,
d1,
de,
1d,
09,
32,
0b,
13,
1c,
0b,
24,
45,
fb,
f6,
d3,
00,
e6,
fd,
e9,
09,
af,
da,
db,
68,
fc,
f6,
b8,
f3,
fb,
1c,
3b,
93,
d9,
0d,
47,
32,
c8,
be,
1e,
f1,
0a,
e3,
f1,
1e,
c7,
31,
15,
6d,
18,
08,
09,
ee,
0e,
17,
00,
ea,
33,
04,
40,
0c,
cc,
d2,
ec,
cd,
22,
15,
fd,
01,
d4,
04,
e0,
0f,
7f,
fb,
bf,
ce,
22,
03,
23,
05,
ef,
29,
53,
3a,
1c,
e5,
f4,
08,
1a,
ac,
16,
db,
f8,
ea,
0c,
eb,
ec,
fa,
b6,
c0,
2c,
1d,
4b,
02,
6a,
3f,
36,
a2,
30,
28,
1a,
c5,
10,
03,
eb,
fd,
fc,
12,
f0,
03,
00,
e9,
02,
13,
f8,
30,
ed,
02,
df,
0b,
06,
e3,
0b,
f9,
e8,
04,
13,
19,
f3,
21,
dd,
fa,
f9,
f6,
07,
f9,
34,
27,
f0,
0b,
16,
28,
6a,
2b,
07,
38,
f8,
d0,
1c,
eb,
4d,
96,
4c,
3d,
d2,
ce,
ba,
00,
10,
18,
06,
da,
08,
da,
f8,
e7,
e3,
fc,
ca,
fa,
d1,
e0,
5b,
06,
eb,
27,
40,
57,
35,
d1,
15,
d4,
e6,
45,
0c,
ef,
a3,
1c,
1e,
f4,
ef,
a6,
24,
62,
01,
ed,
a6,
b1,
27,
fb,
40,
92,
40,
03,
0d,
00,
92,
14,
e7,
1b,
d2,
dd,
0d,
17,
f9,
b4,
3c,
13,
e7,
10,
11,
cc,
db,
29,
1a,
02,
29,
2c,
1d,
f5,
08,
b9,
f7,
f8,
2d,
2d,
10,
b3,
24,
0c,
59,
12,
06,
fc,
c5,
31,
18,
08,
31,
fc,
23,
df,
24,
16,
fa,
ff,
e7,
cb,
06,
03,
66,
16,
fa,
18,
cf,
25,
2c,
30,
e9,
db,
34,
f4,
0d,
11,
19,
36,
13,
c2,
fa,
2d,
cc,
f7,
d6,
e9,
1a,
35,
f9,
e4,
2d,
bf,
24,
f2,
d1,
e7,
17,
d1,
31,
a0,
78,
16,
57,
07,
b8,
e2,
ee,
01,
da,
31,
11,
d8,
02,
e6,
0a,
f1,
d5,
dd,
f6,
3a,
fc,
c6,
17,
d9,
fe,
23,
16,
11,
e3,
50,
0b,
fd,
25,
b8,
cb,
f6,
0e,
20,
93,
e1,
09,
eb,
3d,
eb,
0d,
e3,
e5,
23,
b2,
bd,
f5,
1b,
26,
d8,
c8,
40,
df,
00,
0d,
ac,
ff,
25,
1e,
e3,
26,
ea,
1f,
24,
16,
2c,
d6,
10,
16,
38,
f0,
fe,
14,
c8,
04,
f3,
f8,
50,
34,
0a,
de,
e7,
dd,
c9,
9f,
6d,
fb,
11,
d3,
cd,
b0,
1f,
22,
e6,
bd,
d0,
15,
20,
15,
cc,
00,
30,
ed,
4e,
eb,
fc,
11,
16,
3f,
fe,
fd,
f2,
ef,
26,
ff,
ce,
ea,
11,
c9,
42,
f6,
18,
26,
1a,
f7,
11,
15,
00,
f3,
f4,
d9,
c6,
09,
32,
17,
df,
2a,
e9,
0e,
40,
f9,
cd,
b3,
24,
f0,
27,
c2,
eb,
d4,
f2,
08,
a5,
eb,
00,
f6,
da,
fd,
27,
f5,
07,
fe,
ae,
e0,
c3,
44,
27,
d3,
c9,
16,
1e,
53,
e6,
0b,
11,
0e,
33,
18,
e5,
d4,
0c,
29,
f9,
fa,
ed,
0f,
17,
e6,
ef,
f0,
d7,
1f,
f2,
10,
f7,
01,
16,
04,
1a,
1c,
04,
03,
fd,
ea,
f4,
09,
f8,
f9,
0f,
e6,
c8,
d2,
12,
22,
49,
15,
d0,
28,
19,
f1,
de,
1a,
4b,
01,
2a,
c0,
fc,
f4,
00,
e6,
18,
ee,
fb,
06,
37,
d2,
b0,
00,
14,
0e,
4a,
f7,
47,
0a,
a4,
02,
e9,
05,
2d,
05,
19,
51,
27,
ac,
10,
ac,
08,
09,
0b,
22,
c0,
c2,
c2,
22,
d9,
c0,
08,
fd,
de,
11,
3a,
71,
34,
26,
eb,
f9,
34,
04,
f7,
ce,
f8,
14,
5e,
08,
32,
09,
fc,
0c,
06,
f1,
14,
c5,
f9,
f2,
2d,
24,
1b,
3b,
03,
db,
12,
30,
14,
dd,
f6,
0e,
07,
10,
db,
f9,
df,
0c,
fc,
26,
26,
2c,
1e,
d4,
df,
1f,
e2,
dc,
0c,
f1,
e6,
23,
4b,
e3,
d1,
cc,
cf,
09,
d4,
e8,
fd,
af,
54,
21,
54,
fc,
a9,
14,
d9,
e3,
36,
e1,
ed,
c4,
c3,
d9,
ca,
e9,
b0,
df,
65,
03,
00,
06,
cf,
3b,
40,
df,
c3,
0d,
d6,
68,
23,
fc,
00,
2f,
14,
d9,
5b,
bd,
b2,
34,
0b,
0b,
2d,
1b,
13,
11,
db,
d2,
0e,
0d,
27,
f0,
37,
be,
0b,
e8,
2a,
f5,
f0,
e1,
52,
ca,
38,
30,
d8,
19,
19,
f0,
b0,
3a,
2e,
ba,
20,
1a,
ee,
e3,
e6,
dc,
1e,
13,
f5,
ca,
12,
0d,
ff,
f4,
0f,
45,
11,
b1,
13,
b5,
34,
54,
08,
3f,
ed,
14,
e4,
af,
d7,
e0,
e2,
e2,
0e,
0b,
06,
2b,
0d,
10,
f6,
f3,
ba,
f6,
e1,
0c,
e5,
14,
26,
02,
01,
36,
20,
0a,
19,
36,
d1,
df,
ce,
d9,
26,
1b,
ca,
fd,
d4,
bf,
0c,
0f,
14,
2a,
4a,
d2,
fb,
a4,
e5,
cf,
1a,
15,
fa,
cd,
f3,
bc,
12,
1c,
d2,
ed,
f1,
b6,
e3,
06,
16,
b6,
ee,
37,
0a,
ef,
33,
d3,
be,
26,
04,
32,
bb,
ed,
0b,
fa,
0b,
b6,
dd,
6c,
22,
fb,
bf,
1c,
40,
ea,
ec,
05,
c4,
f2,
d8,
da,
36,
10,
23,
f0,
2f,
0c,
00,
43,
d8,
fd,
c5,
a4,
4a,
0f,
2b,
16,
e3,
22,
2d,
0a,
dc,
07,
d4,
e4,
e9,
f6,
5d,
20,
fd,
62,
d8,
ca,
34,
e2,
cb,
e5,
9f,
ec,
3c,
c8,
39,
32,
47,
de,
d9,
12,
0e,
fe,
f8,
1c,
34,
39,
be,
0d,
87,
d6,
eb,
40,
d1,
01,
42,
59,
02,
0f,
2c,
ea,
c0,
e3,
f3,
2c,
ef,
5a,
f1,
f3,
e1,
a1,
09,
bb,
f4,
d1,
2d,
0d,
3b,
dc,
e7,
15,
d5,
03,
d2,
fc,
06,
07,
28,
0d,
17,
0b,
d3,
ec,
e9,
e8,
16,
f5,
ff,
e4,
02,
02,
02,
ce,
ea,
ea,
c1,
03,
27,
e7,
df,
04,
db,
2a,
1d,
c6,
ee,
05,
b7,
0f,
1f,
0a,
4e,
3c,
fe,
31,
fe,
1c,
15,
e2,
3d,
36,
3c,
f2,
0d,
d8,
d1,
1b,
2c,
f7,
04,
02,
c2,
09,
cd,
da,
ca,
6e,
ff,
48,
07,
e4,
ea,
0d,
e5,
fd,
f8,
2a,
66,
41,
ef,
fe,
de,
ac,
26,
e9,
dc,
38,
e5,
b2,
0c,
21,
a4,
26,
20,
e1,
d6,
df,
23,
ee,
00,
55,
19,
3e,
15,
d7,
b9,
1b,
dc,
cb,
ab,
ef,
e5,
24,
f3,
43,
2f,
1e,
fb,
a6,
d3,
c3,
e4,
21,
24,
e5,
d6,
d6,
ec,
ff,
27,
f2,
de,
eb,
08,
9b,
59,
40,
de,
ee,
10,
00,
11,
fc,
2e,
db,
e4,
2e,
17,
0c,
b5,
13,
c2,
1f,
c7,
bb,
f3,
d7,
dd,
ca,
74,
64,
71,
ef,
29,
00,
1e,
0a,
cc,
e2,
06,
de,
fa,
ff,
fe,
14,
59,
17,
12,
56,
10,
cb,
44,
f7,
ff,
07,
b6,
2d,
2c,
e5,
e6,
ca,
fe,
15,
18,
e1,
2e,
3c,
25,
dc,
f8,
f9,
57,
37,
8c,
ee,
31,
f3,
5b,
d4,
31,
ff,
c0,
07,
03,
f3,
f5,
00,
b5,
3b,
22,
09,
e8,
0f,
0c,
e5,
cb,
14,
57,
17,
46,
c1,
2e,
ef,
58,
e1,
f2,
a5,
cc,
e5,
32,
f1,
03,
f6,
1e,
de,
20,
e3,
28,
b8,
04,
e1,
1a,
fe,
fc,
39,
f2,
f4,
02,
52,
0a,
d6,
fb,
01,
f0,
99,
c0,
42,
f2,
0f,
0d,
08,
b0,
2e,
db,
cb,
ba,
9d,
06,
e0,
dd,
7f,
02,
09,
fc,
f2,
38,
ee,
00,
fc,
9b,
26,
e3,
fc,
db,
38,
00,
f2,
d4,
1b,
01,
25,
24,
cf,
df,
a7,
e7,
df,
1e,
30,
11,
c9,
0f,
f3,
02,
ff,
1e,
2a,
24,
f8,
17,
d3,
d7,
4c,
0c,
51,
36,
fa,
ce,
f7,
fb,
0c,
f3,
16,
4d,
cb,
08,
18,
fc,
e5,
d9,
09,
db,
33,
19,
e9,
31,
c8,
e0,
0a,
18,
fc,
0c,
25,
b5,
00,
1d,
fe,
5b,
0f,
f3,
ef,
4f,
1c,
1f,
04,
c7,
e4,
18,
c4,
ec,
07,
07,
c9,
e6,
f3,
01,
15,
05,
fe,
1f,
f8,
ca,
39,
14,
08,
dd,
18,
e7,
f4,
ea,
fb,
04,
eb,
37,
15,
a3,
13,
ca,
02,
e4,
57,
04,
14,
f3,
1a,
0a,
bf,
1d,
c7,
08,
f8,
0a,
f6,
e7,
49,
fa,
d8,
04,
27,
e5,
14,
a5,
1f,
02,
42,
21,
2d,
1b,
c4,
13,
14,
3c,
21,
31,
03,
06,
dc,
06,
e9,
15,
f9,
fd,
33,
48,
cc,
2a,
03,
c4,
46,
33,
1b,
da,
3c,
00,
c5,
31,
30,
4f,
3e,
28,
cb,
4d,
d2,
23,
f4,
d9,
1c,
ff,
ea,
f6,
1f,
00,
e0,
01,
d4,
bc,
18,
e8,
25,
f4,
ba,
13,
20,
ff,
ac,
e7,
0c,
30,
00,
1d,
f9,
0e,
40,
dd,
da,
07,
f9,
2c,
bd,
e5,
eb,
16,
0b,
0f,
24,
18,
11,
d7,
15,
07,
e9,
15,
02,
f6,
b1,
e4,
e6,
fc,
ee,
04,
fb,
de,
e6,
22,
d1,
fb,
43,
15,
2a,
d7,
fe,
f1,
37,
2e,
d2,
0e,
e9,
1d,
42,
fe,
f1,
dd,
e8,
70,
08,
dd,
0b,
26,
e7,
e2,
f8,
fd,
22,
c5,
ff,
14,
ca,
c1,
c9,
37,
e6,
2f,
19,
09,
df,
20,
e6,
e5,
e9,
fc,
c3,
e4,
02,
ec,
0b,
de,
17,
fb,
f6,
28,
19,
00,
f1,
24,
00,
ec,
f1,
10,
f0,
11,
fb,
de,
f0,
f7,
42,
00,
2f,
ea,
07,
0d,
db,
2f,
1e,
fa,
29,
e1,
11,
fe,
da,
2b,
0f,
06,
09,
2d,
fd,
f5,
e2,
e3,
18,
0d,
f6,
ee,
53,
f7,
f8,
d3,
d5,
fd,
35,
fc,
ff,
25,
d1,
02,
f8,
df,
30,
ee,
0a,
0f,
11,
ce,
25,
f0,
df,
f9,
f0,
fb,
e1,
f8,
e8,
f2,
1e,
eb,
f5,
bf,
ed,
2c,
22,
0a,
ed,
dd,
d3,
de,
e5,
22,
f4,
3b,
18,
cb,
f2,
41,
13,
d2,
c5,
d9,
f7,
fc,
df,
4a,
d1,
d6,
d5,
19,
fd,
d5,
10,
fc,
02,
d5,
f4,
0e,
fc,
f1,
06,
ba,
1a,
00,
17,
d6,
17,
15,
ee,
43,
ec,
1d,
28,
32,
3b,
fb,
27,
1f,
08,
20,
c9,
ef,
e5,
02,
25,
d4,
11,
37,
e9,
00,
14,
ac,
ae,
05,
1b,
00,
eb,
28,
01,
d2,
20,
1d,
e9,
eb,
f6,
1f,
be,
01,
ec,
06,
12,
e4,
fe,
db,
d1,
2e,
2b,
07,
10,
eb,
f6,
08,
1e,
e2,
fb,
d3,
fb,
11,
3a,
fe,
fe,
11,
d8,
37,
fe,
13,
ea,
e4,
eb,
d6,
27,
01,
04,
df,
41,
bb,
28,
f9,
10,
50,
f0,
bb,
e8,
26,
df,
08,
d7,
22,
04,
f8,
da,
03,
08,
e4,
fe,
02,
e6,
ff,
0f,
10,
0f,
e6,
fb,
13,
1a,
ed,
10,
eb,
04,
f8,
13,
1a,
0f,
fb,
ed,
15,
fd,
ea,
ce,
33,
fb,
fb,
0a,
d9,
df,
a4,
1f,
c0,
40,
01,
2f,
eb,
07,
fa,
0d,
15,
00,
d9,
ca,
0e,
ba,
e0,
35,
f9,
db,
2e,
e4,
26,
f1,
54,
d6,
e9,
d8,
02,
0e,
10,
2d,
eb,
1b,
dc,
21,
9b,
f9,
33,
07,
9b,
f9,
26,
c9,
e6,
1c,
f0,
5c,
08,
ff,
f1,
2a,
44,
1b,
00,
eb,
14,
1e,
1e,
13,
37,
ea,
fa,
f4,
e3,
ee,
e6,
fd,
48,
bd,
11,
2b,
f5,
0c,
24,
1f,
04,
f7,
e7,
21,
35,
de,
b8,
03,
cd,
d9,
f8,
41,
bf,
f6,
00,
9b,
30,
17,
16,
2d,
d7,
07,
1a,
2a,
ef,
07,
e4,
ed,
fa,
0a,
f0,
f0,
df,
fb,
e7,
fa,
e5,
e1,
25,
23,
db,
0a,
ee,
fb,
06,
ca,
16,
fa,
e7,
ff,
fb,
d6,
1b,
1d,
14,
0a,
ea,
db,
fa,
db,
f8,
0f,
26,
cb,
1e,
fa,
54,
e6,
e8,
18,
f9,
c5,
c6,
09,
ee,
10,
16,
0c,
0d,
f2,
1e,
0f,
d8,
20,
b4,
f2,
20,
15,
09,
21,
e8,
e2,
08,
f2,
11,
e0,
24,
28,
ec,
a9,
32,
16,
11,
f2,
2a,
e5,
d0,
0d,
08,
37,
ce,
19,
d5,
e8,
d1,
fa,
1d,
00,
22,
da,
25,
fc,
09,
11,
dc,
1d,
36,
48,
1d,
ff,
2b,
0c,
49,
14,
fc,
fa,
34,
cd,
ea,
ea,
e6,
e3,
22,
e8,
ff,
c2,
08,
0d,
36,
0c,
0a,
2b,
cd,
10,
29,
c7,
01,
2b,
e3,
e3,
db,
b6,
28,
01,
12,
ef,
42,
1f,
f8,
f6,
e3,
2e,
1e,
3a,
d6,
bc,
32,
f1,
a2,
dd,
16,
31,
39,
f5,
cd,
0d,
f2,
3d,
d9,
be,
0c,
fc,
f7,
ef,
26,
09,
ee,
eb,
10,
f1,
ee,
f0,
f1,
04,
26,
d7,
fa,
16,
ff,
0a,
1f,
fb,
10,
f0,
ff,
02,
21,
1d,
e4,
e4,
38,
d9,
0f,
f1,
ea,
42,
dc,
f4,
21,
3e,
e8,
18,
10,
b9,
1c,
ec,
28,
28,
38,
f5,
e0,
cd,
f3,
c6,
13,
c2,
f9,
cf,
21,
00,
ce,
db,
fe,
f8,
18,
0c,
ff,
d5,
c1,
11,
ca,
ca,
2e,
08,
06,
04,
f4,
fa,
ee,
0e,
00,
0c,
07,
d5,
16,
d4,
16,
1c,
09,
f7,
fc,
0d,
05,
09,
08,
02,
ec,
05,
df,
e6,
c4,
eb,
17,
c5,
cc,
0d,
ef,
07,
df,
06,
07,
06,
1b,
20,
18,
28,
d8,
fc,
d6,
c6,
f6,
d5,
d7,
f2,
12,
17,
fc,
da,
d9,
34,
02,
c6,
c6,
f1,
29,
f4,
34,
07,
3b,
f2,
23,
17,
c3,
dc,
fd,
d2,
0d,
f2,
f7,
16,
fa,
0b,
ef,
13,
d7,
cc,
d6,
01,
f5,
d3,
0c,
01,
f0,
80,
01,
17,
fd,
06,
02,
34,
13,
df,
11,
31,
2e,
05,
19,
05,
30,
c2,
bc,
04,
db,
e3,
09,
5e,
e7,
e7,
2d,
1d,
f6,
04,
0d,
0a,
da,
e6,
ea,
f5,
02,
fa,
09,
04,
d9,
1f,
db,
1d,
01,
29,
08,
cf,
db,
e5,
f4,
d8,
43,
2c,
f4,
2e,
14,
f6,
24,
12,
34,
16,
d1,
fc,
f5,
dd,
06,
14,
17,
31,
0f,
f6,
f6,
28,
16,
09,
52,
02,
00,
16,
ba,
08,
c8,
05,
9a,
07,
2c,
fa,
19,
0b,
fe,
13,
fe,
d2,
11,
36,
02,
17,
0b,
22,
e8,
d6,
0c,
1f,
f9,
22,
03,
f8,
e6,
1f,
fb,
24,
2b,
21,
de,
f8,
1f,
0b,
03,
00,
01,
ee,
f4,
06,
06,
13,
da,
ff,
1d,
fe,
fe,
f5,
db,
15,
d9,
ca,
f5,
33,
e6,
2c,
e4,
fd,
21,
10,
15,
25,
11,
e8,
fe,
18,
eb,
32,
f0,
e9,
d7,
1a,
c7,
fd,
c9,
02,
da,
e3,
dd,
ff,
f9,
23,
16,
08,
23,
2c,
c9,
03,
e8,
1d,
f9,
21,
d5,
05,
e9,
30,
01,
fb,
d6,
17,
d3,
12,
1a,
21,
ea,
22,
f8,
04,
13,
da,
18,
11,
c7,
13,
42,
03,
dd,
fa,
2b,
e5,
ff,
0e,
f7,
23,
3a,
ec,
ca,
ae,
35,
fb,
ed,
21,
dd,
0f,
00,
1b,
f2,
07,
e0,
ee,
1a,
f2,
ed,
ee,
09,
19,
f8,
f8,
06,
fc,
ef,
12,
c8,
27,
da,
13,
24,
e0,
e3,
ef,
27,
22,
18,
07,
18,
3e,
e9,
e7,
2d,
e3,
e4,
0d,
eb,
0b,
01,
33,
3f,
e4,
cd,
e2,
4c,
db,
02,
e2,
4e,
21,
39,
f3,
f4,
c4,
f8,
28,
d8,
1b,
f9,
ea,
e6,
0e,
fb,
ed,
f7,
26,
e2,
ef,
e6,
f6,
06,
3c,
f9,
0b,
ef,
07,
f0,
07,
f9,
e8,
aa,
12,
eb,
fe,
f5,
ce,
09,
9a,
02,
1c,
38,
f9,
2c,
13,
ee,
14,
ec,
03,
de,
16,
ce,
d6,
fd,
1d,
d2,
f1,
36,
30,
2d,
08,
23,
1b,
18,
0d,
dd,
c9,
f8,
2d,
f5,
e9,
16,
f0,
e5,
e9,
08,
f4,
07,
01,
ee,
ec,
05,
f8,
07,
02,
2d,
dd,
0c,
10,
f9,
06,
df,
2b,
0e,
04,
00,
fe,
cf,
07,
f3,
15,
d7,
52,
3a,
08,
0d,
f4,
08,
f6,
f3,
d6,
0e,
ee,
24,
36,
3a,
cb,
f0,
1f,
c3,
e2,
f2,
e6,
f8,
01,
b6,
d6,
bf,
05,
b5,
0c,
50,
d8,
00,
f3,
d4,
bc,
ee,
fe,
da,
dc,
2b,
f5,
ba,
db,
f7,
fa,
17,
b9,
e9,
36,
13,
ec,
07,
e3,
17,
13,
2b,
f5,
e5,
2d,
b5,
2a,
1a,
ea,
25,
0d,
05,
2e,
d9,
04,
11,
ed,
f3,
11,
32,
1e,
f7,
15,
e0,
05,
df,
0f,
ea,
cc,
01,
0f,
d0,
24,
0f,
14,
18,
fa,
d0,
f1,
12,
f8,
1b,
ef,
ea,
ed,
d1,
27,
fb,
18,
15,
ef,
18,
17,
04,
ce,
13,
f2,
16,
d2,
1a,
f2,
f8,
f8,
f0,
de,
cb,
e9,
d8,
f3,
f5,
50,
fa,
13,
16,
e9,
e6,
ed,
f6,
1c,
1e,
2f,
dd,
0f,
17,
cd,
e3,
ec,
fa,
f2,
f1,
0c,
2b,
05,
f0,
1b,
ee,
18,
bd,
f3,
e0,
15,
f3,
04,
e3,
09,
e9,
09,
d7,
cf,
23,
46,
c5,
1c,
19,
e6,
dd,
ec,
df,
f5,
ed,
f1,
d3,
12,
f3,
74,
f4,
26,
e4,
25,
2d,
0d,
aa,
e0,
e9,
e9,
e8,
e6,
fd,
08,
0b,
0c,
ff,
f6,
d1,
08,
c5,
05,
3e,
c1,
f2,
1c,
f7,
04,
2a,
22,
3e,
fe,
31,
03,
34,
80,
1c,
e4,
2e,
33,
db,
ee,
0c,
09,
02,
e9,
17,
f7,
10,
de,
d6,
fb,
d3,
f9,
fd,
24,
27,
f8,
02,
e9,
19,
0f,
03,
ce,
ef,
1e,
ec,
07,
11,
26,
3c,
0d,
18,
de,
e1,
10,
09,
0e,
16,
10,
12,
05,
07,
e3,
df,
23,
1e,
3f,
07,
f8,
22,
01,
f4,
14,
22,
fb,
11,
2d,
ec,
18,
e7,
e0,
d5,
01,
e5,
0f,
2e,
0a,
df,
e5,
04,
e5,
d4,
ec,
12,
d7,
32,
f4,
e4,
07,
23,
f3,
e5,
09,
f3,
00,
11,
ef,
f6,
1e,
02,
4e,
30,
0d,
1c,
03,
fb,
ef,
1d,
e2,
07,
c1,
21,
0b,
40,
ec,
2b,
db,
eb,
02,
01,
da,
e4,
f2,
f6,
bf,
e2,
db,
0b,
c8,
d3,
f7,
f0,
12,
04,
1c,
01,
ff,
f8,
f0,
04,
07,
f6,
05,
f9,
e4,
19,
03,
0b,
06,
00,
0c,
e6,
f4,
05,
fd,
ee,
15,
f4,
1b,
01,
0f,
0f,
f2,
fb,
11,
e6,
f1,
19,
d7,
ee,
0a,
11,
d5,
d5,
23,
f2,
10,
06,
ee,
16,
34,
f1,
0a,
27,
cf,
f8,
f2,
2a,
3f,
e7,
c3,
f4,
1d,
e3,
1a,
dc,
03,
2b,
cf,
f8,
fc,
06,
0b,
f6,
d0,
2a,
24,
f9,
fb,
fa,
f4,
f8,
1c,
28,
01,
5c,
02,
e5,
e5,
f8,
42,
07,
e0,
f6,
fa,
d4,
de,
2e,
13,
29,
15,
00,
fa,
b8,
d5,
f4,
1b,
35,
fa,
fc,
0b,
f0,
10,
e4,
1a,
e5,
27,
ec,
ec,
b5,
04,
15,
29,
d8,
f6,
0a,
07,
b3,
e3,
fd,
46,
dd,
0e,
15,
d0,
bb,
d5,
20,
f1,
39,
ed,
c6,
11,
f8,
fe,
3c,
eb,
d6,
f3,
df,
ba,
12,
03,
df,
c9,
e9,
9d,
f2,
dd,
0e,
59,
06,
10,
18,
01,
ba,
f7,
29,
1e,
16,
f5,
fe,
19,
e8,
0a,
01,
dc,
df,
e1,
ab,
04,
af,
f5,
1d,
e7,
09,
ef,
df,
c3,
25,
1c,
00,
18,
23,
e5,
fa,
10,
33,
fc,
08,
1e,
26,
23,
23,
05,
e2,
e5,
02,
e5,
0b,
01,
ed,
d3,
de,
e5,
e4,
02,
0b,
e8,
ef,
0d,
f7,
41,
1e,
f6,
29,
ec,
fe,
22,
15,
e4,
f5,
17,
1c,
df,
0e,
da,
31,
0f,
29,
25,
c3,
43,
01,
0b,
f3,
ee,
fb,
e6,
40,
e1,
d7,
d8,
ed,
c0,
33,
ef,
03,
2c,
e3,
34,
0e,
de,
fe,
e7,
c4,
14,
f3,
08,
48,
43,
0c,
f8,
fb,
20,
a4,
16,
37,
df,
e6,
e4,
34,
ca,
01,
0f,
12,
12,
0e,
e4,
e8,
49,
24,
09,
e9,
cb,
d8,
c7,
0d,
d7,
b5,
f2,
0d,
14,
21,
e5,
ed,
e7,
cc,
c4,
fa,
d3,
ee,
18,
4c,
8c,
04,
fa,
13,
eb,
f4,
b3,
02,
1f,
2a,
08,
da,
f7,
c9,
22,
1c,
1f,
f8,
fa,
4d,
20,
52,
7f,
e9,
3c,
e1,
ed,
d9,
1a,
0b,
26,
34,
07,
ef,
fa,
ef,
f4,
f1,
dc,
ea,
06,
c5,
37,
ed,
1d,
17,
c9,
4a,
48,
0d,
fe,
e8,
d5,
cb,
f9,
d4,
ee,
0a,
e8,
49,
02,
ab,
e9,
2e,
c8,
f7,
f6,
da,
54,
1e,
18,
00,
a2,
11,
e7,
24,
df,
e2,
10,
1e,
1b,
bd,
14,
c8,
18,
f7,
d6,
ea,
06,
ec,
1f,
0b,
ea,
02,
18,
d1,
16,
f9,
c0,
ac,
17,
54,
f4,
01,
ec,
8e,
34,
3a,
e4,
26,
d4,
03,
de,
00,
15,
06,
f0,
07,
1b,
e4,
fd,
0f,
ee,
e7,
0d,
09,
fc,
ef,
09,
01,
ed,
f7,
19,
fa,
ef,
0c,
0a,
f4,
2d,
fe,
d6,
03,
f5,
f8,
37,
d1,
4b,
fa,
e2,
3f,
fc,
13,
ec,
08,
05,
47,
ca,
07,
35,
e0,
12,
22,
30,
a7,
0c,
f7,
17,
f6,
36,
24,
bc,
b2,
f1,
01,
dc,
3f,
e9,
be,
0b,
fd,
cd,
4a,
dd,
ec,
c0,
47,
e5,
d5,
05,
03,
3d,
fc,
d0,
1b,
40,
ee,
12,
f2,
23,
de,
f2,
22,
fc,
10,
3e,
35,
fc,
0c,
2a,
3c,
c3,
f5,
25,
1c,
d8,
ed,
34,
05,
e8,
28,
1f,
52,
42,
db,
07,
22,
d2,
57,
20,
14,
c9,
d8,
12,
b1,
f0,
e3,
14,
d5,
1b,
0b,
ee,
f3,
f9,
07,
fb,
1a,
1f,
f9,
0e,
0d,
21,
00,
f9,
c8,
25,
2c,
d8,
b3,
dd,
d6,
15,
0a,
f8,
0e,
cd,
ea,
16,
f5,
1f,
22,
44,
3e,
e5,
30,
17,
0a,
21,
d4,
ff,
d3,
cf,
ec,
d9,
ff,
c2,
f5,
ea,
0b,
f8,
38,
fc,
fd,
ee,
1f,
ef,
34,
cf,
10,
e5,
ff,
db,
10,
f9,
da,
2b,
08,
2b,
e9,
f7,
ec,
f9,
ff,
fd,
03,
37,
0d,
e6,
05,
2a,
ff,
f6,
e5,
06,
ed,
4a,
0b,
e6,
ec,
38,
f7,
ee,
dd,
2a,
fd,
da,
1b,
ff,
12,
04,
42,
b8,
e2,
1c,
01,
01,
2d,
1d,
10,
d4,
4d,
d5,
f7,
c0,
f7,
3e,
fd,
36,
4b,
ec,
e9,
e0,
f4,
0e,
dc,
cc,
da,
0c,
f9,
1d,
0b,
bf,
e1,
20,
2c,
2b,
f5,
c9,
18,
fd,
1b,
c4,
59,
d5,
e9,
f1,
c8,
49,
15,
de,
e5,
23,
e7,
f8,
e2,
54,
f3,
f1,
07,
55,
e3,
0b,
05,
4f,
31,
2b,
33,
11,
e7,
c7,
f0,
06,
16,
34,
da,
de,
f5,
07,
f9,
fd,
df,
d1,
f1,
02,
ce,
05,
df,
08,
de,
e1,
c7,
fb,
f3,
06,
ed,
21,
10,
ee,
0e,
f9,
33,
06,
0e,
02,
f0,
cd,
57,
0d,
f9,
04,
23,
02,
d0,
fc,
ed,
09,
ca,
12,
20,
e1,
33,
1e,
3b,
2a,
0c,
f9,
dc,
bc,
dc,
d2,
18,
c9,
10,
c9,
1c,
19,
b9,
3b,
f1,
fc,
28,
f1,
d2,
ef,
19,
d5,
28,
01,
db,
f0,
e1,
fc,
fc,
00,
07,
d2,
0c,
ff,
18,
01,
28,
e8,
04,
d0,
02,
20,
f1,
f3,
06,
ee,
e1,
ff,
cf,
21,
e9,
2d,
0a,
ee,
09,
04,
f7,
01,
fc,
0e,
e3,
ef,
f3,
eb,
18,
15,
d1,
04,
e0,
5f,
e1,
f9,
e7,
db,
f4,
d8,
27,
e6,
f4,
35,
f5,
cc,
0f,
f2,
23,
fc,
16,
19,
12,
1f,
0b,
ed,
ff,
fe,
21,
09,
01,
fe,
0f,
e7,
d2,
bb,
16,
37,
30,
da,
d9,
e1,
07,
0c,
bd,
d8,
54,
12,
e8,
10,
1c,
1d,
fd,
ac,
f8,
ea,
02,
e0,
e9,
f7,
12,
dc,
11,
e0,
e9,
bc,
00,
25,
24,
1d,
f5,
a9,
05,
cf,
e8,
00,
1b,
29,
10,
1a,
ce,
ff,
fe,
c6,
1b,
05,
cd,
04,
ee,
f8,
0b,
e6,
3a,
00,
0a,
cf,
ec,
13,
17,
10,
fe,
ec,
25,
fe,
ed,
de,
0b,
13,
20,
09,
c6,
d8,
08,
16,
08,
b8,
e8,
09,
0f,
ec,
17,
0a,
3f,
0f,
ea,
33,
0d,
2a,
e8,
ec,
c9,
18,
29,
16,
28,
42,
f6,
e6,
0e,
e3,
12,
1d,
0d,
09,
18,
e5,
df,
32,
e8,
d9,
c2,
ee,
f1,
02,
d0,
28,
da,
dd,
02,
3c,
24,
fa,
05,
fc,
08,
22,
ec,
da,
2b,
ef,
1c,
db,
c6,
f5,
fb,
db,
f2,
cf,
11,
e2,
31,
dd,
fc,
02,
0d,
ef,
e4,
03,
1f,
ee,
17,
04,
14,
09,
df,
1f,
f2,
db,
dc,
2c,
da,
17,
25,
08,
01,
ea,
ef,
fe,
d8,
d3,
26,
f6,
f4,
d5,
d9,
f2,
17,
e3,
38,
d2,
1f,
fb,
d7,
ec,
f4,
c5,
17,
d5,
13,
1f,
26,
20,
05,
c0,
02,
e5,
c4,
e4,
11,
f4,
08,
0f,
29,
ff,
06,
db,
ab,
c2,
e9,
41,
32,
f2,
27,
10,
eb,
f7,
bd,
f3,
28,
14,
1c,
18,
1f,
23,
31,
23,
32,
e9,
bd,
00,
dd,
03,
a2,
fd,
04,
1b,
c1,
09,
e9,
20,
d8,
19,
e8,
08,
fe,
c7,
0d,
0c,
e9,
0e,
24,
fb,
2e,
1b,
32,
2d,
1c,
01,
5c,
b3,
02,
34,
08,
19,
ce,
e2,
03,
4b,
c7,
12,
fe,
4e,
e3,
ce,
29,
f0,
1e,
d9,
f9,
db,
dc,
dd,
3c,
15,
12,
18,
f1,
9c,
f0,
09,
db,
ee,
e7,
0f,
a0,
f3,
02,
f5,
e1,
e3,
14,
3a,
18,
29,
1e,
c6,
be,
f9,
fc,
0b,
f0,
eb,
35,
1e,
09,
fa,
f0,
a5,
ee,
ee,
bf,
ed,
17,
12,
ef,
e9,
df,
2e,
21,
2a,
e7,
05,
31,
f6,
13,
10,
16,
15,
ff,
12,
66,
28,
ed,
e5,
05,
16,
e6,
11,
01,
01,
f8,
2f,
f9,
fe,
d0,
0c,
f8,
08,
fd,
14,
f8,
09,
fe,
1e,
14,
24,
ed,
f0,
e6,
cf,
47,
f4,
b2,
12,
f3,
bf,
f8,
d0,
ed,
ef,
12,
06,
eb,
f9,
12,
d7,
e3,
01,
e7,
0e,
58,
fd,
e5,
27,
e0,
02,
17,
19,
f5,
00,
04,
0c,
15,
cc,
f4,
ed,
09,
0c,
07,
ec,
ef,
1b,
3e,
e6,
04,
f0,
b6,
31,
e7,
0c,
3e,
08,
d3,
fb,
fd,
c1,
08,
4c,
fc,
f4,
15,
0f,
19,
fd,
14,
56,
1a,
16,
e6,
f5,
34,
35,
f8,
14,
06,
29,
e4,
f3,
1f,
d1,
eb,
0f,
c9,
08,
e1,
18,
43,
bf,
da,
19,
29,
04,
16,
00,
fa,
00,
e6,
d7,
f7,
f6,
e1,
ef,
11,
df,
e3,
dc,
04,
09,
32,
07,
1b,
de,
fc,
c1,
12,
fe,
ce,
38,
1a,
fc,
f1,
ed,
2e,
2b,
ee,
15,
0c,
18,
d8,
0e,
f3,
5a,
80,
1a,
e0,
24,
e1,
f7,
aa,
38,
01,
ca,
b1,
15,
0b,
d3,
e4,
f5,
f2,
fc,
5d,
0d,
01,
ca,
d4,
f2,
f1,
27,
25,
07,
bd,
08,
35,
f2,
d1,
05,
f0,
da,
f8,
07,
3b,
fc,
bb,
d2,
f8,
38,
27,
f8,
1d,
2c,
aa,
f5,
e9,
fd,
e2,
fd,
f7,
0d,
2a,
f9,
d8,
33,
00,
30,
28,
f2,
ce,
24,
4b,
ff,
ff,
08,
0b,
32,
4e,
08,
e0,
17,
67,
d0,
d8,
17,
02,
e3,
17,
f0,
0d,
2d,
0a,
fd,
f6,
f5,
f6,
f6,
02,
e1,
c7,
cb,
f8,
0c,
da,
ea,
ec,
dd,
f8,
05,
23,
f6,
e2,
04,
10,
0a,
17,
ec,
f4,
41,
0c,
ec,
0b,
f9,
33,
24,
2f,
d3,
e9,
ec,
1a,
1c,
18,
1f,
e4,
f8,
19,
07,
15,
f6,
d6,
0d,
1b,
fa,
19,
1a,
a2,
f3,
f8,
f1,
ff,
dd,
25,
1d,
df,
ec,
24,
00,
df,
fe,
f5,
ec,
ff,
1c,
d0,
d3,
d8,
f7,
0c,
de,
23,
0e,
0d,
37,
e7,
dc,
e3,
f1,
48,
1d,
da,
f7,
02,
f2,
f1,
2d,
c5,
16,
20,
58,
c3,
24,
1c,
f5,
4c,
04,
f2,
2e,
08,
26,
d6,
de,
0b,
1f,
22,
d2,
c5,
f0,
26,
4c,
04,
d7,
ca,
06,
2f,
b6,
1b,
2a,
01,
e8,
e3,
ff,
e9,
f4,
16,
ee,
f7,
05,
06,
e8,
1c,
ef,
fd,
fd,
fb,
02,
02,
f0,
03,
2a,
fe,
f7,
0b,
fe,
e0,
0b,
d0,
0c,
0e,
d6,
f5,
0a,
11,
b0,
08,
32,
e7,
12,
1a,
e6,
10,
f3,
ea,
3f,
f5,
10,
d0,
34,
d2,
da,
02,
cb,
d3,
06,
f1,
17,
ea,
e8,
01,
04,
b5,
e8,
e3,
e4,
27,
29,
de,
ef,
37,
ee,
30,
1f,
01,
cb,
e8,
a7,
29,
02,
08,
cd,
11,
04,
dc,
dd,
f7,
ff,
48,
04,
28,
ed,
d3,
e1,
d7,
d9,
0b,
4e,
13,
e6,
f7,
31,
f5,
35,
c6,
39,
cf,
30,
2d,
fc,
10,
b4,
d1,
e8,
d4,
12,
22,
21,
65,
e2,
fa,
01,
c3,
35,
e6,
c2,
0d,
08,
dd,
05,
e7,
00,
05,
f2,
e0,
f6,
23,
e7,
15,
d2,
e6,
bd,
05,
0d,
cf,
04,
0d,
ed,
1b,
ea,
23,
e2,
20,
fd,
1d,
ec,
0f,
e3,
13,
d6,
d6,
1e,
e7,
f3,
f4,
2a,
f8,
e4,
4a,
b9,
e3,
ec,
07,
15,
ec,
1b,
e5,
07,
c2,
f5,
18,
1b,
03,
1b,
ea,
f1,
d7,
e0,
08,
e0,
df,
ff,
10,
04,
02,
e5,
f6,
ec,
f9,
15,
fe,
fa,
ff,
2a,
b7,
00,
0c,
dd,
f1,
f0,
f7,
18,
1c,
fb,
15,
e8,
20,
f8,
34,
df,
02,
3a,
d9,
0c,
ed,
dd,
e1,
c8,
12,
00,
2e,
eb,
18,
d8,
2d,
1a,
04,
0f,
1a,
1a,
01,
36,
c4,
ee,
05,
23,
de,
25,
07,
22,
25,
0d,
29,
fc,
e4,
1e,
09,
e0,
17,
22,
04,
25,
11,
fc,
ef,
fa,
48,
e4,
0e,
0a,
f8,
22,
b6,
e0,
16,
f0,
cf,
3d,
00,
13,
da,
07,
1e,
f6,
17,
fd,
06,
33,
cd,
f7,
4d,
d7,
13,
e2,
fe,
2a,
f8,
f9,
fc,
00,
29,
f7,
2a,
f1,
21,
e5,
f6,
02,
1d,
28,
e7,
fd,
f5,
d7,
17,
e9,
08,
0d,
1b,
d3,
f3,
2b,
09,
26,
09,
32,
f8,
02,
d9,
e4,
fc,
24,
f2,
0b,
0f,
0a,
c3,
f9,
fb,
1b,
15,
0b,
01,
fa,
ee,
02,
de,
ee,
5e,
35,
04,
12,
e2,
ee,
07,
27,
d2,
1d,
07,
1c,
df,
e4,
2b,
ba,
f8,
fe,
0d,
e4,
e5,
25,
17,
f3,
ca,
2c,
20,
f0,
2b,
f8,
13,
1c,
21,
48,
e9,
2c,
ed,
f4,
fc,
d6,
1c,
12,
52,
c7,
50,
ec,
d1,
23,
28,
d9,
d7,
ec,
27,
f8,
17,
e8,
f4,
21,
20,
00,
00,
1c,
07,
c7,
f3,
fb,
e8,
08,
17,
ea,
16,
03,
33,
11,
24,
97,
0b,
2c,
04,
04,
23,
f2,
e8,
04,
21,
f8,
11,
f7,
f4,
ee,
05,
eb,
0f,
06,
de,
0e,
ff,
fc,
f0,
26,
fb,
10,
ed,
0a,
f8,
20,
f3,
f6,
e4,
e2,
41,
dc,
ff,
1a,
f3,
fb,
0d,
14,
e6,
22,
d9,
e5,
e0,
25,
10,
e3,
d7,
ea,
ff,
f1,
2f,
f4,
01,
da,
e7,
24,
f6,
4e,
20,
13,
c7,
2d,
e2,
07,
1a,
07,
17,
e9,
0f,
02,
28,
f7,
0b,
27,
11,
fe,
e9,
de,
f7,
32,
ec,
1b,
f5,
da,
0b,
e2,
13,
ed,
e5,
e3,
23,
03,
e2,
b2,
26,
fe,
e8,
ce,
d0,
19,
f4,
2a,
03,
0c,
2c,
f0,
0d,
42,
e4,
24,
0d,
04,
f2,
fe,
f4,
f0,
f2,
dc,
f5,
13,
f8,
24,
f1,
30,
0f,
f9,
3f,
f4,
1c,
ec,
23,
01,
16,
10,
10,
e3,
31,
f0,
fb,
f7,
e2,
fa,
2b,
ec,
03,
f3,
e8,
27,
f7,
ef,
d6,
d9,
1c,
57,
f5,
f2,
14,
d4,
0d,
cf,
07,
e8,
36,
f4,
38,
bb,
59,
3b,
24,
c1,
f3,
d6,
ff,
c0,
eb,
16,
4d,
1b,
1d,
1a,
29,
f3,
da,
b3,
0a,
07,
e4,
de,
e7,
d0,
e0,
fb,
fd,
eb,
e8,
2e,
3b,
1b,
e2,
01,
cf,
1c,
e6,
d1,
ec,
ca,
05,
17,
2d,
fe,
fb,
ef,
dd,
fe,
4c,
d3,
34,
1d,
ea,
dc,
e0,
1d,
1a,
2f,
f7,
06,
19,
cf,
f3,
1c,
dd,
e0,
e6,
fa,
e4,
12,
d2,
d7,
ed,
c8,
26,
06,
de,
09,
e8,
01,
d1,
25,
25,
17,
fc,
44,
39,
20,
f8,
0f,
dc,
18,
7f,
fb,
0f,
10,
07,
d0,
36,
c4,
ca,
31,
21,
ea,
08,
12,
db,
17,
cf,
f2,
da,
ea,
03,
f6,
0c,
1e,
f1,
2a,
de,
0b,
2f,
d0,
fc,
19,
fb,
ed,
f7,
06,
ce,
0c,
01,
f3,
2d,
fb,
01,
fc,
ec,
f7,
e6,
30,
f9,
36,
20,
1a,
37,
ef,
eb,
f2,
03,
10,
d9,
38,
f7,
fa,
f4,
17,
2d,
2c,
0b,
15,
f3,
06,
ee,
0d,
e9,
f2,
0f,
f7,
e7,
1c,
fe,
11,
d9,
ce,
18,
03,
20,
f7,
1f,
45,
e5,
fe,
fb,
12,
15,
19,
0e,
ee,
01,
f2,
f8,
23,
c8,
23,
1c,
0a,
f0,
3c,
54,
e3,
bf,
db,
33,
13,
dd,
13,
00,
3c,
ca,
32,
ee,
06,
06,
f0,
08,
05,
07,
fc,
07,
f5,
f2,
13,
ff,
15,
e4,
e2,
fa,
01,
fe,
10,
01,
ef,
06,
fa,
0b,
19,
21,
13,
03,
e0,
07,
f3,
f6,
cd,
32,
f0,
1d,
fa,
0c,
df,
15,
0c,
0e,
07,
e3,
13,
13,
d7,
13,
03,
13,
05,
12,
2c,
e2,
e9,
1c,
16,
08,
f6,
18,
ee,
39,
24,
44,
e2,
eb,
2b,
14,
26,
fa,
cc,
24,
f4,
e3,
32,
eb,
e6,
01,
18,
0f,
e9,
f1,
de,
14,
17,
e1,
b3,
c9,
d1,
ef,
3a,
c1,
e6,
11,
c9,
44,
eb,
f3,
37,
c0,
39,
f7,
f5,
2c,
e8,
f1,
ed,
d2,
fd,
ed,
fe,
39,
d6,
f3,
0e,
09,
17,
fd,
2e,
d0,
ee,
df,
f7,
20,
d6,
42,
f7,
f6,
f3,
1a,
b4,
fd,
2f,
17,
4c,
f7,
0f,
d5,
d7,
06,
26,
f2,
11,
f2,
26,
ea,
ec,
cf,
be,
f0,
21,
ee,
da,
05,
17,
2b,
0f,
3e,
ca,
17,
d2,
22,
f9,
92,
f0,
fb,
ea,
d9,
d4,
22,
23,
e8,
f2,
3b,
17,
f6,
13,
f3,
1b,
18,
ff,
20,
f5,
1c,
d1,
d7,
14,
0b,
25,
f6,
0c,
12,
fa,
0f,
3b,
da,
f8,
31,
d5,
c7,
f9,
0f,
f2,
00,
d4,
43,
ef,
f3,
d3,
fa,
dd,
05,
3a,
ff,
e9,
d7,
0f,
df,
1f,
dc,
04,
3c,
ff,
23,
ec,
3e,
eb,
25,
0a,
de,
2e,
f6,
21,
fc,
f5,
b6,
23,
d9,
e2,
01,
20,
07,
27,
0a,
f7,
43,
cc,
1b,
09,
09,
e3,
15,
e5,
62,
d4,
00,
f7,
4b,
e1,
ee,
0d,
0b,
e7,
c3,
1b,
fa,
18,
ee,
0b,
fb,
1e,
2b,
03,
f9,
c0,
10,
d9,
99,
ec,
40,
f4,
05,
10,
42,
de,
22,
c9,
28,
28,
23,
1a,
de,
18,
cc,
3c,
17,
06,
1d,
1d,
22,
0d,
0b,
f9,
1d,
f8,
24,
f2,
e1,
2f,
1a,
f8,
16,
f0,
05,
2a,
13,
21,
03,
f6,
0c,
04,
ff,
20,
00,
01,
ec,
fb,
01,
ff,
00,
ff,
14,
e5,
1c,
0a,
00,
19,
fd,
e2,
14,
3d,
1d,
fb,
e1,
3b,
07,
e4,
f2,
16,
23,
3e,
2e,
16,
eb,
e6,
00,
d2,
cc,
2c,
c3,
c5,
4a,
fd,
2f,
30,
01,
e6,
b3,
fc,
13,
db,
25,
ff,
19,
cf,
f5,
e0,
f5,
0b,
06,
45,
0b,
1e,
f0,
ff,
e5,
40,
12,
e2,
e6,
21,
dc,
2d,
d0,
20,
25,
ed,
c3,
ea,
13,
d0,
fb,
6a,
2b,
d8,
39,
11,
cd,
19,
1c,
fc,
fa,
c3,
9f,
0a,
db,
ed,
04,
07,
11,
14,
07,
26,
fb,
e6,
ed,
fd,
0b,
19,
de,
e7,
01,
0a,
fd,
0b,
f8,
04,
fd,
f1,
e2,
f8,
f5,
00,
f8,
f9,
01,
ef,
ef,
02,
03,
ef,
0d,
f9,
04,
fa,
ec,
f3,
f3,
db,
17,
03,
15,
04,
03,
ec,
24,
f8,
0c,
fe,
38,
ec,
e9,
1d,
fb,
2c,
e6,
e4,
0f,
18,
02,
27,
dc,
d9,
14,
04,
02,
02,
e4,
f1,
dd,
02,
1a,
e5,
fc,
fa,
07,
ff,
f0,
d6,
f6,
f8,
f4,
e0,
ea,
f7,
07,
0a,
e3,
3f,
1d,
02,
07,
c9,
19,
1f,
09,
e5,
e3,
3e,
1f,
d6,
e3,
00,
1a,
36,
08,
fd,
df,
d8,
1d,
ef,
f3,
01,
1c,
fd,
30,
e6,
7f,
0f,
e6,
ed,
0b,
04,
12,
fb,
e4,
1b,
b3,
58,
f8,
09,
e6,
ec,
11,
ca,
02,
3b,
fd,
b7,
e6,
18,
2b,
0c,
11,
d4,
23,
36,
f9,
01,
11,
0d,
d9,
18,
e1,
e9,
f5,
07,
18,
08,
b9,
e1,
e5,
10,
e2,
1b,
1c,
32,
0b,
2f,
e1,
1d,
f0,
fc,
e0,
f5,
13,
ea,
09,
8d,
ee,
f2,
fe,
04,
f6,
13,
06,
2f,
d2,
47,
e5,
fa,
e3,
12,
11,
29,
0e,
a9,
20,
fb,
df,
1a,
f8,
0d,
11,
ba,
f7,
3a,
39,
e0,
e4,
06,
e3,
45,
e0,
08,
e3,
f2,
f4,
22,
e4,
f6,
03,
fd,
3a,
0d,
f8,
fa,
03,
06,
e1,
0a,
e7,
d3,
01,
f7,
0b,
28,
05,
32,
15,
9b,
e6,
1b,
f0,
13,
16,
15,
f4,
3c,
c5,
19,
c6,
3d,
09,
e1,
fa,
20,
fd,
0c,
e5,
08,
eb,
ed,
2d,
ed,
2b,
da,
f8,
e5,
c9,
ec,
20,
2f,
0c,
e9,
04,
fc,
df,
df,
05,
d2,
29,
11,
18,
f6,
01,
ed,
14,
21,
ef,
07,
11,
fc,
c7,
31,
bf,
02,
c3,
02,
28,
18,
16,
e6,
ff,
e0,
0e,
e8,
08,
e5,
2b,
02,
d2,
1b,
06,
f4,
0e,
be,
14,
c8,
e8,
e6,
c0,
08,
0c,
0c,
0e,
f7,
fe,
24,
e3,
d6,
13,
cd,
0b,
dd,
06,
0c,
1d,
0b,
eb,
0f,
41,
ce,
67,
b2,
dc,
fc,
f0,
03,
c7,
fd,
0c,
ea,
fa,
11,
f8,
f8,
e7,
9e,
15,
49,
22,
c7,
2c,
bb,
f6,
05,
be,
06,
ed,
e4,
39,
1f,
32,
c1,
0a,
2a,
f0,
17,
06,
f2,
13,
07,
0c,
08,
10,
15,
fb,
f3,
26,
f0,
04,
f2,
f1,
e5,
db,
01,
00,
eb,
0a,
0a,
fa,
0a,
eb,
0c,
f4,
e3,
f3,
e3,
e6,
1c,
d7,
d3,
14,
37,
08,
e6,
3c,
db,
1a,
e6,
15,
d5,
13,
f4,
fe,
0b,
02,
3a,
10,
1d,
f1,
dd,
ed,
10,
1c,
2a,
4e,
04,
e3,
df,
f5,
c0,
1b,
e8,
ee,
d7,
ed,
28,
e8,
2a,
d5,
0f,
da,
24,
f1,
f6,
22,
0e,
41,
f8,
17,
14,
0f,
e5,
e2,
cc,
dd,
cb,
16,
06,
cf,
d7,
13,
0c,
0f,
d4,
32,
0f,
dc,
10,
e3,
1b,
2d,
f9,
1c,
bc,
36,
0a,
28,
44,
14,
f3,
0c,
e0,
01,
1b,
27,
e2,
ca,
f9,
fa,
f7,
f6,
da,
19,
34,
0e,
ce,
13,
db,
3b,
08,
d4,
f6,
1c,
26,
05,
dc,
e5,
03,
c5,
e5,
49,
16,
f1,
b5,
56,
fb,
e4,
f8,
f6,
ff,
30,
b3,
bb,
f2,
f4,
f9,
ce,
ea,
3c,
a7,
ee,
f8,
50,
1a,
05,
e8,
f8,
af,
f8,
17,
0c,
50,
05,
d6,
15,
49,
13,
40,
14,
3a,
ba,
17,
19,
30,
f4,
15,
09,
b8,
3c,
f3,
e5,
c8,
e6,
f5,
d3,
2e,
e9,
03,
21,
ed,
00,
28,
cf,
01,
00,
27,
b0,
f5,
a8,
d2,
0d,
30,
fc,
3e,
d7,
14,
e3,
30,
c9,
03,
08,
fc,
f3,
41,
31,
03,
fb,
0d,
12,
b3,
2b,
47,
0b,
f7,
3d,
fe,
17,
18,
1f,
f3,
3b,
fb,
37,
19,
d0,
fd,
d8,
cc,
e7,
10,
f3,
42,
d1,
74,
00,
df,
2b,
1a,
1f,
eb,
09,
f7,
d3,
e1,
d8,
f7,
e7,
e7,
7f,
05,
db,
17,
e0,
12,
ea,
2d,
29,
f5,
01,
38,
20,
e8,
e3,
e6,
03,
d8,
f3,
06,
1a,
0b,
53,
1e,
17,
f7,
eb,
ef,
e1,
da,
ef,
26,
e0,
f8,
df,
f5,
a0,
03,
01,
e1,
9a,
f7,
29,
1b,
27,
34,
05,
ed,
b5,
f8,
00,
b9,
28,
0c,
b2,
fb,
13,
ea,
9b,
43,
f7,
2b,
00,
f7,
f1,
00,
06,
fc,
02,
fb,
03,
19,
13,
cb,
42,
35,
f3,
ce,
2d,
0e,
ea,
17,
fa,
09,
31,
fe,
92,
e2,
d7,
2e,
d7,
14,
00,
26,
dd,
d4,
bc,
17,
c7,
cc,
42,
0b,
fa,
e4,
15,
04,
e8,
a6,
fe,
27,
51,
27,
14,
29,
10,
1c,
24,
f8,
11,
db,
14,
f0,
08,
18,
bc,
25,
eb,
b4,
fb,
10,
27,
9b,
ed,
ce,
13,
d3,
be,
b6,
f4,
ef,
25,
d6,
15,
00,
be,
fa,
bc,
2c,
31,
03,
25,
e3,
0a,
0e,
fe,
10,
0a,
e3,
f8,
e9,
1c,
1a,
d6,
01,
05,
f2,
ff,
07,
f8,
f4,
e8,
05,
f9,
fa,
33,
f4,
fa,
0a,
f2,
32,
f5,
e7,
a5,
c6,
10,
df,
26,
2b,
f9,
65,
63,
ce,
21,
ff,
f1,
13,
ec,
2b,
de,
f4,
09,
cf,
26,
25,
f7,
a6,
e7,
09,
12,
f2,
30,
0b,
04,
f4,
e7,
3e,
e9,
19,
08,
eb,
40,
20,
ed,
04,
0c,
d5,
cd,
47,
13,
02,
15,
04,
51,
ea,
fe,
13,
2a,
fe,
1f,
1d,
1f,
b0,
1a,
29,
1b,
3c,
38,
e1,
e2,
fe,
f4,
17,
3d,
ec,
36,
19,
ba,
ff,
db,
e4,
d7,
05,
f4,
f4,
10,
d7,
ec,
e9,
0a,
bd,
25,
d9,
f2,
45,
d0,
1f,
4b,
ff,
b8,
0c,
41,
0d,
13,
e2,
f6,
ee,
1b,
f3,
f4,
db,
df,
0f,
db,
e4,
14,
0d,
08,
55,
2d,
c0,
10,
4f,
2c,
07,
10,
f2,
c0,
45,
ee,
be,
37,
2d,
09,
f4,
f4,
d0,
dc,
25,
90,
11,
df,
46,
30,
e5,
0b,
f9,
e8,
dc,
2e,
0c,
fc,
42,
f0,
27,
f1,
08,
fe,
fe,
c5,
d8,
2a,
1e,
0d,
e8,
41,
06,
28,
cd,
d4,
37,
ce,
e7,
cc,
58,
e1,
1a,
08,
01,
17,
06,
da,
1e,
ff,
fc,
04,
5b,
79,
d2,
d3,
ac,
14,
01,
fd,
0a,
de,
03,
ba,
12,
0b,
f5,
26,
0c,
f3,
e0,
65,
b2,
1b,
03,
77,
14,
28,
fd,
33,
47,
16,
c2,
ca,
e9,
f2,
0d,
17,
fc,
e2,
d7,
4f,
fa,
03,
16,
31,
e7,
fe,
e2,
f3,
0b,
dd,
c7,
29,
d0,
71,
15,
fb,
fa,
48,
ec,
f9,
30,
f1,
e0,
58,
e9,
1a,
f6,
25,
19,
fa,
00,
0a,
10,
15,
2e,
e1,
cd,
f1,
ed,
c5,
0c,
28,
45,
8f,
f6,
2f,
d5,
f5,
07,
fe,
0d,
f2,
e5,
2d,
c2,
1c,
ef,
23,
cd,
d5,
f8,
f2,
0a,
50,
1f,
ec,
04,
0c,
db,
38,
0c,
ee,
fb,
1f,
f1,
df,
25,
f7,
e7,
ff,
4e,
17,
e2,
d9,
0a,
08,
c6,
3f,
fb,
e3,
3d,
f3,
e3,
08,
18,
d6,
bd,
f2,
37,
d7,
f3,
d3,
17,
fb,
cb,
fa,
0a,
1b,
f0,
fb,
0b,
ce,
dd,
44,
fb,
ec,
f6,
29,
2a,
fa,
03,
d1,
26,
f2,
ee,
05,
00,
fa,
ff,
01,
f0,
0c,
fb,
f2,
e7,
d9,
f3,
48,
0f,
ed,
e7,
06,
05,
dd,
f1,
1b,
0c,
e2,
f5,
f6,
16,
cd,
c9,
e3,
db,
a7,
2d,
22,
1e,
ec,
10,
1b,
b4,
d9,
c0,
21,
fe,
02,
19,
ec,
25,
03,
01,
0e,
50,
dd,
ee,
18,
06,
ff,
b0,
e0,
47,
ea,
ce,
cf,
dd,
0d,
03,
26,
f1,
00,
1c,
fb,
19,
31,
b7,
dd,
fb,
0f,
e7,
f4,
fb,
df,
2a,
27,
0c,
12,
e6,
ec,
e3,
fb,
28,
e1,
ed,
b2,
08,
ec,
df,
1d,
d9,
56,
0e,
10,
0f,
dc,
f1,
4b,
dc,
0a,
ed,
da,
22,
f5,
c3,
e5,
04,
00,
d4,
34,
18,
b1,
c7,
58,
f5,
11,
0a,
1a,
f2,
b4,
ec,
f7,
2c,
f2,
16,
1d,
ff,
19,
03,
f0,
20,
14,
22,
14,
10,
e5,
ed,
bb,
fd,
c0,
ab,
1b,
fc,
fa,
1e,
ea,
c6,
31,
ed,
24,
da,
32,
ed,
d9,
e9,
f2,
f4,
4a,
f4,
12,
f2,
0a,
07,
1d,
04,
f6,
eb,
dc,
0a,
f8,
f1,
18,
b3,
c8,
ca,
fc,
3f,
18,
f2,
4c,
ff,
d1,
09,
fc,
ec,
d5,
0f,
1b,
20,
ef,
f5,
de,
0e,
cf,
05,
fc,
df,
ca,
d7,
04,
11,
0c,
22,
12,
e3,
fd,
fb,
0a,
fc,
21,
1f,
f0,
ef,
06,
25,
ec,
b8,
34,
24,
f8,
f5,
d8,
e3,
1c,
30,
08,
e7,
24,
1f,
dc,
41,
d5,
10,
02,
e6,
30,
f1,
eb,
d2,
c2,
0b,
ca,
48,
f1,
19,
11,
26,
2a,
e8,
dd,
ea,
36,
f5,
04,
df,
fe,
f4,
d3,
0e,
46,
fa,
03,
0e,
08,
ea,
ca,
f7,
ca,
12,
37,
12,
09,
0a,
f7,
ec,
2f,
be,
1f,
1e,
1c,
1a,
48,
1d,
00,
ea,
08,
0f,
d2,
09,
15,
f6,
35,
f1,
ff,
1e,
e7,
df,
09,
2c,
01,
fa,
35,
e6,
ee,
00,
e6,
c6,
f9,
f9,
b4,
2c,
c2,
1c,
d9,
1b,
e6,
0e,
02,
05,
fd,
1b,
df,
7f,
d9,
33,
f9,
0c,
e5,
fd,
d4,
cd,
60,
02,
ed,
b7,
13,
ff,
26,
1b,
f1,
21,
1d,
09,
12,
10,
06,
e7,
05,
d6,
b2,
2c,
f0,
18,
44,
36,
f0,
d0,
11,
fb,
df,
07,
1f,
54,
f5,
fc,
f8,
c9,
de,
dd,
f3,
f4,
fe,
11,
96,
f4,
40,
12,
21,
0f,
0b,
3d,
c8,
04,
00,
0a,
0c,
00,
15,
19,
20,
0c,
0d,
0b,
fb,
e3,
dd,
f0,
0b,
2c,
f7,
0f,
c6,
15,
f7,
ef,
bc,
15,
e3,
12,
7b,
32,
29,
19,
de,
20,
04,
f0,
d6,
02,
0b,
f7,
14,
ec,
04,
e4,
10,
04,
15,
15,
09,
13,
fa,
0b,
ef,
05,
f4,
40,
ec,
06,
de,
02,
04,
14,
03,
0a,
43,
f5,
d6,
0b,
0e,
27,
0d,
e0,
cc,
f3,
27,
10,
17,
19,
e0,
e5,
00,
e1,
04,
fc,
04,
0f,
e8,
0d,
e2,
d0,
0b,
fc,
01,
d9,
fd,
0a,
4b,
14,
f9,
f3,
de,
1d,
d9,
4a,
e2,
01,
d3,
f8,
da,
04,
f1,
ff,
f7,
09,
11,
ce,
02,
11,
fc,
01,
d4,
4d,
fe,
dd,
f2,
a3,
1a,
1c,
e6,
1f,
41,
0b,
19,
db,
00,
30,
f9,
f4,
13,
f4,
02,
1c,
fd,
e6,
0e,
08,
1c,
1c,
ec,
5e,
23,
10,
52,
ce,
09,
fc,
c8,
ec,
18,
10,
d7,
e8,
f6,
fa,
dd,
e4,
18,
d0,
0c,
fb,
34,
2f,
d4,
ef,
16,
e5,
41,
a3,
c6,
ff,
f4,
19,
d0,
f1,
e4,
16,
f0,
ef,
e7,
5d,
17,
ab,
14,
e1,
eb,
14,
2f,
1e,
4e,
d4,
b8,
27,
c2,
1d,
01,
06,
33,
d3,
d7,
ec,
bd,
3b,
cc,
b9,
0a,
3e,
27,
f2,
d7,
00,
09,
0d,
29,
fa,
15,
ab,
e0,
e1,
e9,
fe,
f4,
13,
2d,
10,
d2,
09,
d8,
ee,
00,
df,
0d,
d6,
02,
fe,
2a,
b6,
f2,
0e,
e3,
f7,
ec,
e8,
01,
de,
f3,
1d,
06,
2e,
c9,
0b,
13,
18,
f4,
17,
d9,
14,
30,
3b,
a7,
14,
28,
c8,
03,
31,
14,
2f,
b6,
23,
0b,
10,
fb,
2b,
d5,
3d,
68,
10,
09,
e3,
14,
d5,
fd,
f9,
f7,
f3,
33,
03,
19,
40,
f8,
35,
07,
a0,
15,
4b,
26,
cf,
53,
2d,
f9,
f6,
ee,
11,
f8,
da,
e8,
f4,
ef,
0b,
24,
14,
0e,
cf,
d2,
07,
ec,
e8,
fd,
25,
f5,
2f,
f9,
18,
d4,
e4,
f4,
f0,
dd,
e0,
01,
f7,
f2,
2b,
fe,
12,
37,
19,
ff,
f3,
e3,
e9,
c8,
0d,
f0,
2e,
fe,
10,
12,
ea,
0a,
ee,
0d,
21,
ec,
ec,
2e,
d1,
23,
16,
f2,
2a,
16,
bf,
fc,
21,
e9,
0e,
c6,
18,
da,
2c,
e0,
36,
f2,
00,
f5,
0d,
52,
f2,
1e,
ef,
fc,
d7,
17,
10,
28,
fa,
21,
cb,
a2,
1e,
22,
f3,
1d,
e8,
cd,
c6,
36,
ef,
11,
28,
ef,
c3,
cc,
fa,
fc,
01,
0f,
e0,
f6,
20,
11,
fb,
ec,
02,
0b,
18,
da,
18,
fd,
27,
0b,
16,
f5,
ed,
fa,
e9,
01,
06,
22,
02,
27,
50,
e8,
0a,
8e,
09,
bd,
ec,
a1,
38,
0a,
0e,
26,
f9,
fe,
b8,
24,
0a,
1c,
20,
e2,
c6,
db,
3c,
e2,
0e,
05,
28,
fc,
19,
e5,
f3,
01,
16,
06,
fb,
ea,
e6,
e1,
47,
fb,
13,
19,
18,
fe,
f8,
2c,
da,
46,
ca,
40,
0f,
cf,
ed,
c4,
19,
c4,
f9,
37,
ff,
f5,
eb,
1e,
12,
db,
09,
eb,
ef,
2a,
34,
0c,
f8,
fb,
03,
eb,
09,
ed,
be,
2e,
19,
f9,
27,
27,
27,
f9,
c5,
fd,
ca,
12,
ea,
17,
0b,
df,
16,
fb,
0c,
01,
ed,
2c,
4b,
11,
f5,
ef,
32,
f4,
1b,
18,
d0,
45,
0d,
e5,
ff,
19,
23,
19,
bf,
dc,
59,
d6,
ef,
d3,
f5,
06,
2e,
06,
e5,
eb,
17,
0e,
0b,
c5,
33,
c2,
d0,
24,
f2,
1d,
e1,
de,
e2,
39,
d6,
cb,
27,
2f,
fc,
04,
e3,
ed,
7f,
f3,
0e,
e2,
ec,
17,
1c,
9a,
ea,
0e,
b8,
f2,
67,
1f,
ef,
16,
15,
27,
bf,
f4,
03,
0a,
d5,
1e,
02,
37,
29,
06,
d1,
92,
46,
e2,
50,
e3,
b8,
bd,
b9,
bd,
32,
de,
17,
46,
15,
12,
e3,
32,
0f,
e4,
fd,
ea,
07,
3e,
ae,
f5,
10,
3b,
ed,
1c,
03,
0a,
de,
d6,
ef,
11,
19,
f6,
02,
16,
ee,
e7,
ef,
13,
58,
2b,
21,
e8,
cc,
22,
02,
f5,
02,
06,
24,
fb,
23,
0f,
34,
19,
e7,
27,
ce,
e0,
34,
ef,
5f,
cd,
0c,
b1,
da,
f5,
c5,
d4,
23,
30,
f4,
be,
17,
ed,
1c,
21,
d4,
10,
7a,
e5,
0f,
3e,
ce,
eb,
b1,
af,
ff,
c5,
ea,
1a,
fc,
ef,
fe,
17,
14,
95,
2c,
dc,
ff,
d5,
0c,
2e,
ff,
61,
03,
d9,
d8,
ee,
11,
0a,
fb,
e9,
0c,
0b,
20,
19,
ea,
ec,
4c,
19,
25,
23,
0b,
fc,
cd,
56,
09,
f7,
de,
30,
c7,
33,
ae,
ef,
e9,
0c,
bd,
1c,
e4,
e8,
10,
de,
cd,
25,
04,
17,
cc,
b0,
32,
e9,
fe,
76,
22,
bf,
e5,
d1,
f4,
e6,
1f,
12,
cd,
44,
e3,
fa,
ff,
ef,
e5,
ec,
ea,
07,
1f,
ef,
f6,
ee,
51,
2e,
f5,
af,
33,
a0,
00,
57,
da,
23,
b1,
06,
ca,
2b,
cb,
0e,
31,
c9,
f7,
97,
01,
f9,
02,
f2,
cd,
c5,
d4,
e6,
45,
e1,
f9,
d3,
1d,
35,
0d,
a8,
03,
3c,
f9,
0c,
cf,
1a,
f8,
00,
11,
f9,
e2,
e8,
04,
ef,
e7,
26,
01,
0f,
fe,
0a,
10,
da,
00,
f7,
1b,
fa,
12,
f8,
1b,
f0,
df,
1b,
0d,
f9,
05,
1d,
ba,
c9,
4c,
0c,
ea,
f3,
e2,
c0,
1f,
0f,
bd,
f2,
14,
fd,
da,
2b,
04,
0d,
21,
f3,
d4,
fa,
29,
c0,
f8,
38,
26,
ce,
27,
35,
29,
d1,
c2,
03,
c4,
00,
e3,
df,
30,
15,
03,
d7,
4b,
12,
ed,
2b,
36,
03,
d5,
09,
cd,
07,
3b,
e8,
0d,
e6,
41,
de,
d8,
15,
c0,
17,
fd,
ca,
da,
24,
11,
09,
1a,
e3,
29,
1f,
f0,
c2,
23,
af,
f9,
f1,
18,
30,
df,
19,
06,
01,
d4,
0b,
fb,
fb,
bd,
09,
13,
1e,
f4,
17,
0c,
c5,
25,
3e,
24,
ea,
d2,
1b,
f0,
d2,
23,
fa,
06,
00,
f1,
39,
1e,
2b,
c6,
de,
1b,
f2,
00,
c1,
32,
b9,
ed,
ba,
e6,
0a,
06,
a5,
14,
22,
0f,
dc,
ee,
46,
35,
e4,
d3,
57,
1d,
3c,
50,
0e,
18,
b8,
ec,
92,
df,
06,
00,
1f,
f7,
04,
1a,
00,
1b,
c9,
2a,
f8,
ed,
43,
bb,
d9,
0c,
fd,
1b,
28,
c7,
f7,
fa,
00,
98,
17,
d8,
58,
e2,
3a,
48,
ca,
e8,
c9,
0c,
38,
29,
f5,
dd,
b0,
e7,
f0,
fc,
f3,
24,
10,
da,
29,
2e,
0e,
fa,
2f,
d8,
f8,
30,
1b,
e5,
04,
d4,
c5,
b1,
3c,
5e,
37,
0c,
f3,
04,
dc,
05,
3a,
c8,
3b,
ea,
f0,
4a,
bc,
27,
02,
fc,
e1,
c2,
34,
db,
7a,
e3,
e7,
fe,
d3,
ff,
15,
fe,
12,
0f,
08,
b2,
20,
e2,
ee,
e6,
10,
45,
03,
2b,
ef,
1c,
36,
f6,
32,
c4,
e3,
53,
f8,
24,
e5,
e8,
cf,
1c,
32,
36,
d5,
03,
ff,
fa,
2c,
10,
1b,
de,
f4,
15,
16,
b2,
f2,
e5,
32,
d3,
d7,
0a,
f7,
e8,
25,
f0,
fb,
d4,
28,
12,
c3,
33,
de,
28,
f3,
ac,
f9,
09,
de,
03,
25,
23,
15,
14,
ce,
ca,
f6,
d5,
0d,
bd,
f8,
b4,
20,
fa,
2b,
10,
19,
ec,
06,
10,
0e,
3b,
e9,
9b,
5a,
ea,
2a,
f7,
15,
d7,
d8,
e4,
c7,
af,
dd,
28,
de,
5d,
e2,
c4,
e4,
4b,
d8,
4c,
01,
eb,
f6,
2b,
f1,
07,
28,
21,
0c,
f4,
ff,
0a,
14,
19,
05,
d5,
fb,
fe,
ec,
e5,
cb,
06,
15,
de,
fa,
07,
d0,
df,
33,
cc,
e2,
f6,
28,
02,
bd,
07,
e2,
d9,
36,
f9,
33,
28,
c2,
fb,
18,
c8,
f2,
e1,
cc,
fb,
dd,
f5,
de,
da,
c9,
0d,
03,
17,
dc,
f2,
0f,
29,
12,
fe,
1d,
07,
e8,
e7,
0f,
ed,
f8,
2d,
d8,
43,
be,
0a,
1a,
38,
0b,
f2,
eb,
14,
2e,
00,
02,
37,
1f,
e7,
ed,
2b,
fd,
f2,
46,
f1,
42,
bc,
c0,
e7,
d8,
34,
ab,
39,
20,
48,
1f,
3b,
ab,
e6,
35,
1b,
d0,
80,
78,
9d,
12,
fe,
04,
31,
f1,
f6,
e6,
2b,
21,
c1,
16,
b2,
23,
d7,
fd,
13,
e7,
0f,
f3,
1a,
f3,
06,
b2,
28,
de,
02,
3b,
de,
28,
00,
ee,
29,
2d,
f2,
b4,
e3,
21,
13,
df,
ff,
0a,
07,
0a,
d0,
03,
12,
48,
ce,
1a,
e3,
da,
0e,
27,
40,
ce,
0a,
16,
eb,
0e,
20,
dc,
cc,
f1,
cc,
df,
12,
20,
fe,
1c,
d5,
2d,
ea,
38,
eb,
1c,
25,
f3,
07,
23,
ea,
e1,
f3,
15,
29,
a9,
f4,
1d,
d9,
0e,
e8,
f2,
22,
29,
02,
f9,
07,
eb,
de,
c4,
0c,
11,
e6,
12,
f5,
10,
f6,
ce,
43,
d9,
16,
d6,
f0,
10,
22,
f7,
0a,
17,
11,
13,
38,
0d,
d7,
b3,
0a,
00,
10,
3d,
13,
23,
1b,
16,
35,
d9,
e8,
ec,
1f,
02,
06,
14,
54,
f0,
dc,
e1,
e0,
dd,
46,
fd,
c5,
ad,
eb,
39,
2f,
cc,
fb,
04,
dc,
2a,
04,
35,
e3,
f5,
09,
2b,
b1,
db,
e7,
17,
ec,
0c,
d5,
ea,
0c,
e0,
ca,
b0,
30,
e5,
20,
3a,
f9,
18,
33,
00,
0a,
b2,
05,
2b,
1b,
1b,
d7,
0b,
fa,
c9,
e5,
d7,
18,
0e,
40,
d3,
c1,
f5,
ed,
e1,
0c,
c8,
d5,
07,
e1,
15,
f7,
e9,
0e,
04,
2e,
12,
ba,
02,
d4,
f8,
f2,
13,
ef,
62,
22,
cf,
04,
e2,
d8,
2d,
f6,
d1,
21,
fa,
dc,
07,
ca,
df,
e5,
14,
f8,
2f,
1b,
14,
e3,
34,
11,
f4,
f3,
20,
47,
e1,
1e,
0b,
2e,
11,
df,
ce,
12,
08,
1f,
ef,
15,
1f,
cb,
2f,
01,
2a,
df,
d1,
0e,
f5,
19,
04,
d1,
e4,
14,
58,
32,
f6,
08,
f0,
46,
ae,
39,
01,
04,
19,
0c,
1b,
c1,
f6,
0a,
f0,
f3,
10,
43,
2b,
c3,
3e,
c6,
ca,
23,
f8,
fa,
ed,
1e,
e5,
17,
38,
cb,
00,
1a,
f3,
d2,
1e,
f3,
17,
00,
e9,
15,
f7,
f9,
11,
e3,
11,
13,
1f,
f5,
f2,
ce,
f9,
df,
f6,
ed,
05,
e3,
ed,
45,
e0,
12,
0e,
2a,
e1,
02,
f3,
b6,
27,
10,
22,
e3,
00,
ed,
c7,
e9,
d3,
08,
08,
65,
3b,
db,
df,
c9,
f6,
f0,
d3,
d6,
d0,
2d,
1b,
4e,
d5,
01,
de,
ea,
e2,
dd,
15,
0c,
03,
1c,
0f,
e2,
03,
f7,
34,
18,
eb,
fb,
08,
ec,
1f,
ef,
c3,
25,
05,
0a,
fe,
13,
5e,
fc,
0d,
f8,
e9,
e1,
d6,
11,
e7,
06,
3e,
ed,
e9,
e4,
dc,
f3,
fd,
ed,
e2,
f5,
14,
fa,
03,
e1,
d0,
e2,
f2,
d4,
e3,
e0,
17,
ec,
ea,
fc,
bd,
0f,
fe,
19,
f4,
13,
f5,
ef,
1e,
3b,
ed,
e4,
bf,
3c,
5c,
1b,
05,
04,
05,
18,
ed,
0f,
fe,
2b,
e5,
f0,
42,
04,
e0,
01,
03,
28,
03,
36,
14,
e3,
21,
39,
2e,
cf,
c5,
d7,
45,
1a,
c8,
f4,
7f,
be,
df,
1b,
1c,
1b,
0c,
44,
13,
10,
47,
f5,
d1,
00,
05,
b2,
36,
33,
c4,
f8,
17,
e6,
41,
26,
f8,
33,
0b,
c6,
0e,
fd,
d1,
34,
1c,
15,
01,
08,
ed,
12,
0f,
14,
21,
d0,
f1,
07,
b0,
26,
b6,
18,
f0,
ce,
3c,
f7,
00,
cf,
07,
4d,
dd,
e2,
e6,
4b,
ec,
f6,
f5,
f1,
c7,
e5,
03,
43,
01,
1e,
05,
fb,
d1,
10,
49,
14,
02,
1f,
15,
33,
cc,
2b,
df,
f0,
00,
08,
d2,
25,
e9,
0f,
fd,
28,
3a,
e3,
c0,
2f,
eb,
fa,
13,
09,
d2,
08,
db,
db,
f2,
2d,
ce,
04,
21,
ec,
36,
0c,
c6,
b6,
af,
6d,
f7,
4e,
fa,
eb,
cf,
12,
e9,
07,
de,
41,
eb,
d5,
04,
14,
15,
db,
c3,
23,
33,
11,
06,
d5,
34,
e0,
0d,
04,
b9,
39,
25,
e5,
f7,
06,
19,
28,
f9,
08,
29,
08,
ec,
44,
11,
21,
36,
ed,
0c,
0d,
d8,
0d,
c4,
13,
ce,
f5,
1a,
15,
10,
e8,
ca,
0e,
19,
16,
07,
e6,
d6,
20,
15,
e6,
e5,
d5,
03,
20,
d3,
22,
eb,
e3,
25,
d6,
e1,
1d,
ce,
ee,
04,
10,
25,
a3,
48,
ff,
0b,
e2,
f6,
ec,
de,
16,
f4,
1a,
f8,
f3,
e8,
f5,
fc,
12,
ee,
f9,
05,
05,
0c,
15,
fa,
07,
0c,
fb,
11,
23,
10,
f3,
27,
04,
fc,
04,
da,
37,
eb,
1c,
f5,
f9,
ed,
18,
fd,
cf,
10,
20,
d7,
cb,
fb,
f0,
cf,
15,
e3,
06,
ed,
fd,
cc,
10,
1c,
bf,
38,
f9,
22,
33,
07,
ec,
dc,
d9,
fd,
cd,
d3,
22,
b9,
dd,
12,
ed,
02,
1d,
db,
13,
ec,
f6,
e6,
f9,
37,
d5,
fc,
eb,
d9,
ea,
b8,
f5,
c3,
29,
26,
d7,
30,
d6,
f9,
0a,
de,
05,
e4,
34,
1d,
39,
d0,
11,
1b,
0a,
cc,
09,
02,
19,
0d,
d0,
f4,
1b,
2e,
0d,
1c,
0b,
e6,
01,
1f,
40,
2d,
e7,
ff,
e5,
0b,
22,
1c,
06,
24,
fe,
fd,
cc,
01,
d8,
33,
fb,
d2,
c1,
04,
12,
fa,
0e,
38,
1c,
0f,
f8,
29,
24,
00,
d3,
15,
e5,
14,
eb,
73,
65,
e3,
19,
05,
0c,
56,
f1,
17,
02,
bb,
56,
44,
04,
1e,
ff,
be,
2c,
08,
f9,
3f,
e2,
07,
ce,
f3,
d1,
15,
f0,
03,
d7,
fc,
0d,
f1,
e6,
f8,
00,
ef,
f6,
ff,
3a,
16,
f5,
ed,
de,
3d,
dd,
f4,
18,
14,
fa,
15,
e2,
eb,
f2,
1e,
dc,
14,
10,
fb,
fe,
ee,
1d,
eb,
05,
fe,
0e,
ea,
1f,
c3,
1f,
01,
df,
de,
0a,
1c,
10,
cd,
e9,
28,
c8,
0b,
ca,
f5,
2b,
12,
11,
17,
20,
42,
0e,
2e,
c4,
16,
05,
db,
0c,
f7,
da,
fb,
29,
0b,
f1,
db,
e8,
19,
12,
10,
ec,
23,
33,
f9,
37,
2f,
3b,
fc,
cb,
24,
0c,
1c,
ec,
0d,
d2,
f8,
1a,
02,
3e,
1c,
f1,
04,
09,
c6,
fa,
0e,
04,
dd,
fd,
08,
e7,
f5,
09,
ea,
64,
31,
02,
01,
2c,
e8,
e4,
04,
b1,
ff,
e9,
10,
00,
f5,
1a,
ed,
0a,
e9,
f1,
ec,
0c,
07,
db,
dc,
41,
18,
de,
e4,
bc,
19,
11,
29,
de,
3f,
3a,
e0,
fb,
b2,
0e,
e6,
cd,
80,
db,
ec,
fe,
13,
10,
c8,
e7,
ee,
67,
ca,
ed,
cd,
fd,
e3,
35,
fb,
e6,
f4,
ce,
fd,
e6,
32,
e4,
dd,
c3,
09,
0a,
3f,
f0,
1f,
df,
17,
e9,
02,
de,
1e,
e9,
13,
3a,
0a,
38,
fd,
e4,
c6,
08,
1f,
d6,
22,
23,
3a,
13,
f2,
d6,
f4,
20,
2a,
30,
24,
c1,
1f,
f5,
10,
50,
d8,
1b,
0f,
46,
29,
3e,
dc,
ea,
c5,
11,
0e,
ee,
0d,
ec,
c0,
16,
fe,
ef,
fd,
d4,
0d,
14,
0f,
38,
0c,
df,
d0,
22,
f8,
f1,
01,
04,
f7,
09,
fd,
0f,
fb,
0a,
fe,
28,
fd,
fd,
f4,
e7,
ed,
eb,
0c,
fe,
36,
fe,
04,
ff,
ea,
1d,
11,
f5,
f8,
ec,
36,
20,
10,
ca,
35,
e9,
1a,
e5,
dc,
d6,
28,
11,
bf,
cb,
03,
fe,
f0,
18,
30,
d7,
27,
bc,
f2,
e6,
2f,
04,
be,
ef,
02,
07,
0e,
05,
da,
f2,
08,
f5,
e2,
1e,
e7,
f3,
0c,
27,
2b,
19,
16,
48,
d3,
fa,
da,
c9,
22,
38,
c0,
b6,
0b,
de,
09,
c2,
e3,
e6,
14,
3b,
21,
fd,
02,
d3,
1c,
e8,
de,
0d,
e5,
ec,
03,
00,
0b,
16,
eb,
d5,
e4,
ee,
ea,
f9,
30,
36,
f0,
d0,
c0,
f3,
49,
42,
05,
19,
52,
e3,
af,
c4,
2c,
34,
00,
18,
01,
08,
68,
d3,
08,
19,
09,
fd,
eb,
fe,
10,
22,
e5,
07,
23,
fa,
34,
e3,
02,
f0,
19,
ed,
be,
1f,
01,
e4,
d3,
1b,
eb,
28,
f3,
db,
38,
c2,
0b,
cf,
f9,
00,
05,
fd,
1a,
fe,
15,
f1,
ea,
29,
eb,
e9,
f0,
f2,
d7,
f4,
f9,
e2,
f8,
cc,
df,
43,
0b,
de,
e6,
3e,
44,
10,
fe,
e5,
e6,
e6,
09,
1c,
e6,
b9,
1d,
16,
08,
33,
ee,
e2,
fd,
dc,
16,
f0,
02,
08,
ed,
2e,
31,
2c,
04,
0c,
00,
e4,
bc,
0d,
18,
2a,
50,
f0,
05,
c4,
0d,
ab,
a6,
cd,
fd,
18,
2c,
44,
0d,
be,
3b,
ec,
1b,
0f,
04,
30,
1e,
af,
d9,
a6,
c5,
f0,
e2,
fa,
1b,
f5,
02,
f2,
ff,
eb,
f4,
3e,
07,
2a,
ed,
e0,
e4,
f8,
29,
27,
e1,
d6,
05,
43,
08,
3f,
cc,
c6,
c6,
c9,
bb,
40,
a6,
0a,
fe,
1c,
0f,
e1,
d2,
1a,
25,
15,
04,
cc,
21,
f2,
bc,
b7,
01,
32,
d8,
2a,
12,
16,
f4,
e9,
00,
1e,
31,
31,
e7,
f8,
2b,
f2,
fb,
07,
ee,
f7,
26,
1b,
cd,
40,
13,
02,
f5,
e1,
43,
de,
06,
00,
46,
03,
da,
e8,
14,
da,
1a,
cd,
f2,
e8,
f8,
fd,
0b,
12,
38,
f5,
ec,
01,
10,
cf,
cd,
ec,
ee,
17,
1f,
0a,
06,
04,
43,
3e,
0d,
ec,
db,
09,
29,
b0,
08,
f5,
12,
f9,
00,
45,
11,
f6,
2a,
18,
f0,
f7,
09,
e6,
d6,
0b,
e8,
18,
e8,
1a,
fa,
01,
f0,
ff,
ff,
0d,
19,
00,
ec,
19,
ea,
13,
03,
0d,
1a,
0b,
2d,
ec,
e2,
f1,
23,
02,
cb,
d5,
fb,
06,
d2,
f0,
15,
d6,
ec,
eb,
00,
1c,
d9,
50,
e8,
fe,
d2,
47,
c0,
18,
fa,
09,
19,
dd,
ff,
2f,
fd,
37,
de,
01,
3a,
2f,
fc,
17,
0d,
f9,
f4,
e6,
eb,
bc,
03,
f5,
33,
ea,
f7,
ef,
e3,
21,
3b,
33,
df,
f5,
e6,
c1,
06,
f9,
1d,
fc,
ef,
ea,
19,
58,
0b,
11,
00,
dc,
0d,
c3,
18,
1c,
f3,
14,
33,
10,
2e,
e7,
d5,
dc,
a9,
1c,
02,
49,
1a,
c8,
df,
e5,
0a,
fd,
ed,
23,
eb,
f9,
28,
c2,
fc,
b4,
ba,
04,
fd,
fa,
15,
ec,
0a,
e4,
09,
62,
51,
37,
c3,
17,
f4,
08,
e4,
2a,
e3,
f3,
bc,
f1,
c2,
d3,
1c,
b5,
d1,
3c,
03,
15,
d6,
d3,
f9,
00,
e4,
1c,
fd,
1f,
16,
e4,
16,
f5,
03,
29,
4b,
ee,
03,
f0,
ea,
df,
28,
a4,
d8,
e9,
28,
bc,
1c,
28,
fe,
c3,
25,
db,
10,
ca,
06,
18,
19,
e0,
ed,
2c,
0d,
1d,
07,
ed,
0e,
ee,
33,
f2,
c8,
fc,
12,
10,
e0,
be,
ec,
1e,
df,
14,
11,
14,
18,
f2,
e0,
24,
dd,
dc,
42,
0e,
21,
fd,
06,
e0,
db,
ed,
e3,
31,
b3,
4b,
12,
f1,
ea,
ed,
dc,
ef,
10,
1a,
fe,
b2,
fe,
c7,
2c,
3a,
f7,
1d,
f8,
06,
ce,
0d,
e8,
36,
1e,
35,
eb,
c4,
e6,
ef,
e8,
14,
06,
01,
04,
27,
f6,
cf,
e1,
11,
13,
fc,
f8,
02,
30,
1a,
3e,
00,
d4,
63,
da,
a3,
6c,
ed,
27,
d6,
cb,
c5,
fd,
c9,
00,
d6,
09,
08,
fa,
ac,
19,
15,
ad,
d0,
da,
0e,
10,
ff,
ef,
eb,
01,
b6,
33,
d3,
f1,
d1,
31,
11,
15,
17,
00,
01,
ee,
21,
da,
62,
0c,
d2,
31,
ee,
a6,
5c,
f6,
cf,
1f,
20,
64,
15,
e4,
2a,
f2,
ee,
18,
0a,
ce,
da,
15,
f3,
98,
e4,
e6,
2c,
20,
ce,
e8,
03,
e2,
27,
eb,
42,
cb,
d5,
c8,
0c,
04,
e3,
f0,
13,
fa,
44,
24,
85,
29,
f1,
05,
31,
fb,
d2,
b9,
b0,
04,
02,
15,
41,
c0,
1e,
af,
15,
23,
88,
23,
22,
f8,
13,
cc,
bb,
d9,
03,
3c,
ed,
2b,
31,
13,
21,
08,
f7,
ed,
02,
d0,
0f,
4b,
19,
d7,
1d,
0d,
12,
30,
b9,
eb,
e1,
bf,
dd,
45,
1a,
fe,
11,
fd,
f3,
12,
ca,
d8,
05,
0b,
04,
f0,
e5,
fa,
dc,
08,
01,
f8,
06,
09,
06,
f5,
f2,
18,
11,
f4,
38,
e4,
cc,
39,
e4,
e2,
c2,
3b,
27,
00,
09,
ef,
a1,
00,
54,
1b,
e8,
92,
03,
1d,
be,
f3,
0f,
25,
ce,
3a,
24,
1a,
0e,
df,
d5,
42,
02,
17,
15,
2e,
e3,
e5,
a6,
24,
01,
24,
fd,
2a,
f8,
e9,
1d,
d0,
0f,
cf,
10,
e7,
0d,
cd,
26,
2c,
23,
2e,
17,
df,
fd,
0c,
f1,
11,
28,
0e,
3f,
31,
d6,
f3,
27,
2d,
3f,
14,
fe,
b2,
e0,
2e,
18,
0f,
37,
69,
05,
b7,
35,
34,
e5,
ff,
a9,
f9,
3d,
9b,
fb,
de,
bd,
bd,
0b,
0b,
e6,
05,
de,
f3,
ff,
48,
00,
ff,
e8,
17,
28,
e4,
fa,
c1,
07,
1e,
71,
de,
12,
04,
df,
2a,
cb,
d7,
45,
1b,
01,
06,
c1,
fe,
cc,
b7,
69,
0c,
a6,
18,
02,
ab,
0f,
be,
58,
08,
c7,
b9,
f2,
f8,
f3,
e8,
ea,
e4,
bd,
b4,
0e,
00,
05,
13,
14,
f0,
b0,
ee,
ac,
fd,
f1,
ef,
32,
13,
99,
28,
37,
c2,
ee,
eb,
0c,
23,
fe,
20,
01,
f2,
ef,
f0,
dc,
58,
fc,
0d,
0b,
b5,
20,
02,
04,
49,
0d,
1a,
20,
c8,
ff,
e9,
03,
fa,
d5,
1c,
e2,
cc,
b8,
2b,
ed,
22,
2a,
df,
c7,
38,
e0,
f5,
34,
29,
e9,
36,
0b,
1a,
01,
21,
f2,
df,
e4,
18,
ff,
45,
51,
bc,
f2,
16,
2e,
ff,
08,
37,
fe,
e5,
de,
b8,
2b,
b7,
d2,
f3,
14,
1f,
2e,
2c,
02,
cc,
04,
ae,
fd,
ea,
f8,
f1,
37,
f8,
d8,
d7,
38,
12,
2e,
ca,
0c,
fc,
4c,
c7,
04,
12,
19,
2f,
3b,
eb,
fd,
36,
4d,
f3,
f2,
38,
0f,
da,
23,
e2,
fd,
e1,
de,
62,
eb,
cc,
f4,
fe,
f3,
6d,
e6,
ae,
da,
02,
d4,
b2,
ce,
28,
07,
e8,
37,
ed,
a2,
1b,
4f,
18,
02,
02,
1c,
e5,
4a,
1b,
10,
f5,
16,
03,
0d,
04,
c7,
33,
d0,
04,
04,
15,
01,
cf,
d2,
c8,
13,
e6,
3a,
19,
94,
36,
db,
d7,
b9,
fa,
ee,
4d,
12,
37,
fc,
19,
b0,
b7,
9a,
fa,
f0,
cf,
11,
11,
f6,
e9,
f4,
2d,
07,
e5,
e1,
f6,
f7,
f9,
07,
da,
18,
04,
02,
0e,
0b,
05,
11,
d9,
16,
02,
e6,
b0,
d5,
41,
f7,
00,
f7,
1c,
2b,
dd,
e7,
23,
c3,
17,
c0,
20,
49,
0e,
1f,
be,
3f,
22,
44,
0b,
d0,
fe,
e9,
fd,
fe,
f6,
f4,
2a,
7c,
fd,
03,
03,
d1,
26,
c5,
e8,
ee,
f3,
cb,
26,
b3,
1e,
dd,
d7,
f9,
1c,
e3,
23,
7f,
02,
ec,
28,
e3,
07,
22,
38,
c1,
37,
ee,
f4,
50,
13,
3c,
17,
22,
0a,
19,
dd,
36,
e3,
57,
18,
01,
e1,
f3,
00,
df,
f8,
f6,
fa,
0f,
d7,
c5,
07,
b5,
30,
01,
1c,
06,
4b,
ff,
cc,
e7,
fa,
19,
ed,
0f,
d8,
cb,
fb,
f5,
f7,
63,
0f,
fb,
15,
0c,
eb,
16,
cd,
01,
22,
16,
fd,
07,
ec,
d8,
2b,
24,
e5,
be,
f9,
d8,
f9,
e3,
f2,
09,
e1,
f1,
0c,
e3,
e4,
4d,
06,
30,
bf,
c2,
5c,
00,
21,
0e,
b5,
4b,
ea,
37,
f8,
23,
00,
c3,
13,
ce,
e1,
12,
d0,
0d,
23,
f5,
d5,
c3,
3f,
18,
ee,
43,
00,
da,
06,
1f,
30,
2e,
11,
e9,
f4,
0d,
23,
0b,
ee,
d3,
f5,
1a,
f9,
16,
b4,
f4,
f0,
eb,
21,
12,
16,
28,
b9,
f0,
0d,
16,
4c,
43,
21,
17,
ff,
26,
2b,
06,
d1,
0e,
cb,
0c,
b5,
01,
2c,
29,
05,
00,
01,
0a,
f0,
13,
d2,
29,
dd,
28,
f3,
ea,
e2,
f9,
d4,
6c,
17,
02,
1a,
1d,
c5,
a4,
3a,
e1,
3f,
01,
be,
e4,
03,
24,
24,
28,
38,
eb,
0f,
d3,
a5,
f1,
dd,
04,
2a,
37,
11,
fc,
f7,
bf,
ab,
0e,
bf,
00,
0f,
e1,
26,
ed,
e5,
21,
ea,
d3,
d1,
20,
dd,
6d,
f1,
de,
e0,
d8,
f8,
df,
f8,
06,
e8,
db,
16,
f4,
3d,
f0,
04,
d5,
e4,
51,
40,
21,
3c,
05,
08,
23,
0d,
0a,
07,
f3,
d9,
cd,
22,
3e,
ea,
de,
02,
01,
d1,
22,
30,
05,
47,
a1,
f9,
e6,
e2,
d0,
30,
0e,
ab,
0e,
15,
13,
d7,
c7,
07,
f1,
17,
1f,
20,
02,
20,
dc,
18,
b6,
d6,
1e,
ee,
43,
6a,
0a,
09,
17,
22,
03,
4c,
ee,
eb,
fb,
23,
27,
22,
0f,
25,
e8,
d2,
0e,
e9,
64,
0b,
ef,
eb,
7a,
d4,
0d,
26,
2e,
cb,
ee,
36,
e5,
0c,
06,
fa,
4d,
e6,
01,
02,
30,
c7,
09,
15,
2e,
c5,
fd,
af,
30,
32,
2b,
e0,
7e,
10,
00,
a1,
d1,
73,
48,
0d,
fa,
e7,
ef,
25,
ed,
0d,
fd,
e4,
1e,
07,
30,
d6,
fb,
e2,
01,
f7,
10,
16,
11,
0c,
17,
f5,
27,
e9,
23,
01,
17,
06,
0e,
e9,
16,
35,
f5,
1c,
0c,
d8,
b4,
d7,
ac,
3a,
dc,
1f,
ad,
3f,
2f,
28,
0c,
65,
fa,
14,
14,
b9,
df,
23,
d1,
f1,
fe,
20,
17,
4d,
d1,
eb,
fa,
2e,
03,
06,
e2,
33,
03,
07,
3e,
98,
0b,
00,
10,
e3,
ce,
dc,
14,
c0,
dc,
0b,
36,
1b,
d1,
c5,
ea,
f2,
fe,
f6,
aa,
c4,
e3,
24,
ef,
21,
db,
e5,
de,
06,
04,
7f,
f0,
e8,
0e,
e0,
0b,
4c,
1c,
df,
2e,
dd,
f9,
0d,
18,
f9,
21,
d9,
e0,
d0,
09,
f7,
e7,
f1,
05,
f9,
fc,
eb,
01,
e3,
fd,
b5,
ef,
f9,
f5,
df,
54,
05,
19,
3f,
21,
b1,
1a,
0d,
24,
3d,
08,
05,
d1,
1b,
1b,
1d,
da,
ed,
f5,
3a,
01,
fb,
cf,
de,
4c,
13,
09,
f2,
d5,
2c,
5c,
cc,
bb,
e5,
e9,
13,
0e,
b9,
32,
cc,
0c,
dd,
36,
40,
07,
06,
de,
d3,
db,
f3,
f5,
a4,
43,
a2,
19,
d2,
10,
d7,
ed,
18,
0e,
fe,
f9,
ee,
d1,
d7,
eb,
0b,
ee,
04,
37,
e5,
fb,
33,
ef,
23,
22,
e5,
2e,
c3,
40,
d4,
28,
fc,
fe,
fd,
1b,
03,
d9,
fb,
da,
ea,
e1,
f6,
05,
e1,
ea,
10,
e6,
e7,
9c,
0e,
00,
13,
e8,
f6,
1c,
01,
c3,
37,
bc,
2c,
32,
01,
d9,
08,
20,
17,
53,
dd,
1b,
11,
d0,
04,
16,
54,
e0,
42,
44,
b5,
29,
d6,
de,
18,
fa,
cd,
ee,
ff,
13,
e0,
e7,
33,
fa,
29,
05,
19,
0e,
18,
00,
d2,
27,
e6,
05,
c1,
1e,
37,
dd,
1e,
fd,
c6,
a3,
28,
f3,
03,
fd,
ff,
2d,
f1,
0b,
1d,
f6,
d4,
10,
da,
0a,
0f,
e4,
b0,
15,
dd,
29,
09,
3e,
53,
da,
fe,
06,
e2,
18,
f1,
f0,
e4,
e4,
45,
0e,
f0,
30,
11,
3c,
c8,
f7,
da,
1c,
29,
01,
d7,
20,
34,
ef,
54,
d1,
d2,
fe,
30,
23,
2b,
eb,
31,
02,
f9,
0c,
01,
01,
0f,
05,
c4,
14,
ac,
32,
18,
cc,
05,
0c,
25,
fa,
bf,
da,
05,
fb,
03,
04,
fd,
ec,
fa,
eb,
dd,
04,
f8,
f8,
02,
09,
d6,
04,
fd,
fb,
1e,
14,
07,
f6,
e5,
02,
11,
14,
05,
fc,
08,
f7,
ed,
f6,
06,
2c,
05,
31,
1c,
0c,
e4,
e3,
e7,
15,
da,
34,
1e,
57,
f8,
07,
18,
f8,
0a,
fd,
f7,
f3,
f0,
22,
49,
cf,
47,
0b,
1e,
fe,
2d,
f0,
fc,
c6,
f3,
f6,
2f,
f5,
f6,
ab,
10,
e6,
fd,
25,
c1,
cd,
ba,
59,
b5,
ff,
e5,
fa,
64,
34,
39,
18,
0e,
fd,
37,
f2,
e7,
d6,
47,
02,
12,
0b,
dc,
0f,
e5,
f6,
0a,
27,
e9,
45,
3c,
01,
16,
eb,
df,
41,
b3,
2a,
23,
25,
04,
3d,
fc,
c6,
17,
2a,
c6,
fb,
4d,
de,
c7,
17,
13,
c7,
41,
09,
03,
c5,
ed,
fc,
08,
bd,
b0,
2a,
02,
c7,
0d,
f5,
28,
d8,
e0,
ba,
d6,
da,
c5,
db,
d6,
c5,
36,
e1,
19,
22,
2e,
2a,
dd,
ba,
12,
da,
dd,
aa,
0f,
5a,
dd,
18,
e2,
1f,
fa,
22,
47,
f7,
bc,
52,
30,
30,
27,
f8,
ec,
d7,
de,
2a,
c5,
db,
1f,
18,
ea,
ba,
e9,
2a,
b9,
00,
0c,
16,
f6,
ac,
e8,
d0,
32,
ba,
09,
c5,
29,
4d,
48,
f6,
bb,
c9,
27,
ce,
24,
fa,
33,
4d,
b2,
3b,
be,
4a,
b4,
27,
e8,
26,
ee,
3f,
b9,
f4,
d1,
12,
2b,
ce,
d0,
11,
ad,
56,
16,
15,
bf,
d7,
c4,
fb,
c4,
b8,
95,
de,
e8,
b6,
e0,
ef,
3e,
1a,
bc,
4b,
aa,
e7,
d5,
fb,
3f,
da,
d1,
1a,
01,
19,
cc,
4f,
bc,
f3,
bd,
c0,
fe,
10,
3e,
e5,
eb,
d3,
42,
4a,
bf,
cd,
1a,
2e,
e6,
c4,
c8,
fd,
a4,
ba,
17,
fc,
3a,
0f,
ee,
05,
41,
1b,
2d,
05,
2c,
b8,
c2,
2a,
30,
12,
bd,
e3,
14,
42,
b7,
2c,
3e,
11,
de,
d8,
4c,
21,
e7,
40,
46,
22,
29,
34,
ba,
42,
44,
fd,
ae,
13,
0a,
1b,
08,
aa,
da,
bd,
11,
fc,
4d,
e9,
ef,
65,
57,
9d,
d2,
02,
45,
dc,
02,
27,
3c,
51,
08,
b0,
d3,
b1,
01,
04,
fc,
1f,
28,
c9,
e3,
e5,
4d,
e0,
1e,
30,
e4,
b2,
0f,
3f,
4f,
10,
ec,
b1,
0e,
ad,
af,
2b,
ea,
29,
04,
20,
48,
eb,
ec,
55,
ca,
eb,
c4,
16,
b2,
d1,
fe,
2c,
aa,
8e,
44,
b9,
0c,
fd,
b4,
e3,
fe,
26,
f4,
db,
31,
4c,
4e,
da,
3b,
2f,
d3,
15,
23,
ec,
f7,
f2,
4e,
7f,
05,
f2,
b4,
c3,
ea,
e4,
e9,
13,
2a,
f5,
ce,
2c,
25,
1a,
15,
e7,
d2,
07,
da,
19,
f6,
2d,
30,
35,
f0,
1f,
1f,
46,
09,
3a,
bd,
d1,
08,
23,
09,
d0,
49,
d9,
29,
02,
3c,
21,
df,
23,
6d,
0b,
d2,
39,
e0,
fc,
d2,
14,
3a,
c7,
3b,
bf,
16,
d0,
25,
ab,
39,
e2,
b4,
e4,
c0,
3f,
c5,
ad,
20,
d9,
9f,
11,
04,
0a,
1c,
18,
cd,
d9,
c2,
c3,
08,
d5,
e0,
18,
e1,
c0,
00,
29,
d1,
c0,
30,
ee,
be,
c0,
f1,
ee,
bd,
f6,
f6,
e3,
49,
07,
0d,
2a,
00,
ec,
39,
c1,
28,
a8,
59,
3e,
f0,
b7,
32,
13,
18,
42,
49,
01,
03,
4f,
c1,
b0,
e8,
dc,
ae,
c2,
22,
d2,
fb,
46,
fc,
e7,
b9,
be,
cd,
45,
f3,
f4,
a8,
fe,
ec,
3c,
c4,
15,
db,
31,
2e,
eb,
e1,
27,
f9,
18,
12,
12,
02,
f2,
b7,
ea,
c2,
1f,
e2,
45,
16,
4e,
ec,
06,
e0,
b7,
3f,
de,
b9,
ef,
64,
c6,
2e,
e4,
17,
e0,
c0,
c0,
f5,
b6,
41,
1b,
01,
4c,
f4,
00,
ed,
f6,
fc,
c6,
d5,
f8,
10,
b5,
09,
1b,
df,
f3,
f3,
ef,
13,
0c,
16,
cf,
f7,
4a,
e2,
1b,
c3,
bc,
c7,
ce,
1a,
e4,
b4,
e8,
d5,
3d,
0e,
b3,
b0,
d4,
b6,
d6,
d5,
4c,
34,
ae,
44,
11,
3d,
0e,
24,
f8,
fe,
bf,
bc,
ef,
4d,
3c,
d3,
ec,
eb,
e4,
f6,
c8,
38,
e6,
30,
29,
fe,
eb,
14,
ea,
2b,
d2,
55,
9f,
eb,
43,
3a,
ce,
de,
13,
03,
56,
31,
00,
e5,
f5,
5c,
d7,
60,
c8,
38,
fe,
3d,
ca,
04,
b5,
ac,
ff,
1d,
06,
fe,
40,
03,
39,
0c,
fb,
d7,
33,
aa,
d6,
fb,
5f,
ce,
25,
d4,
10,
0d,
d2,
4f,
36,
b5,
24,
3d,
23,
d2,
e0,
e4,
11,
b6,
27,
db,
f9,
a1,
eb,
db,
1d,
c7,
32,
2f,
da,
b2,
c2,
18,
22,
31,
45,
58,
11,
56,
02,
db,
5b,
e8,
c2,
20,
d1,
f1,
56,
e2,
bc,
dc,
1b,
2c,
c7,
01,
ba,
fe,
2d,
dd,
c6,
c2,
e3,
ff,
18,
2f,
22,
36,
df,
ca,
46,
29,
e7,
b6,
f5,
39,
b6,
12,
1b,
c4,
4e,
d0,
f1,
e5,
b4,
d7,
ed,
37,
3c,
ff,
f8,
48,
1c,
b0,
40,
47,
0a,
41,
4e,
c3,
e5,
d9,
10,
ee,
c1,
3c,
0b,
cf,
21,
d8,
0f,
e2,
a0,
e1,
35,
e6,
c0,
dd,
c5,
0b,
0e,
b9,
bf,
0d,
0c,
bf,
dd,
2b,
e4,
41,
23,
f9,
d7,
0a,
41,
c6,
e8,
25,
34,
c5,
2b,
0a,
aa,
3b,
e8,
dc,
f0,
13,
b5,
42,
4c,
0e,
30,
dd,
f5,
41,
3a,
e2,
f1,
0f,
22,
28,
51,
d4,
e4,
0d,
51,
0e,
f2,
ed,
1f,
f9,
02,
b4,
a1,
ec,
b3,
22,
db,
07,
b9,
b3,
35,
1f,
b8,
36,
03,
0f,
40,
3d,
37,
2a,
f1,
e8,
e0,
e3,
d9,
b4,
22,
ef,
b8,
ea,
00,
6b,
c9,
d8,
23,
f7,
04,
c0,
05,
fe,
23,
08,
fd,
1d,
23,
1b,
e2,
ee,
ce,
d3,
1c,
29,
e2,
1f,
e7,
0a,
c2,
07,
f2,
13,
1c,
0e,
f5,
bd,
1b,
2e,
0f,
26,
01,
06,
ee,
c7,
17,
2d,
28,
5e,
44,
ed,
0a,
1b,
1d,
cd,
18,
0f,
c0,
f4,
f6,
02,
d0,
1b,
f7,
19,
18,
ed,
e1,
00,
f7,
0d,
f5,
14,
f8,
05,
e6,
1a,
f3,
ee,
11,
34,
04,
08,
26,
fb,
01,
1d,
e9,
d1,
16,
ea,
dc,
19,
02,
ec,
f6,
06,
e5,
05,
12,
e4,
15,
ed,
01,
0b,
11,
20,
e9,
11,
05,
e3,
0e,
0b,
f3,
ec,
f7,
f0,
04,
00,
ee,
10,
e7,
17,
e9,
2b,
00,
0b,
03,
20,
ff,
10,
f1,
4b,
eb,
04,
e8,
f9,
02,
fb,
e2,
1a,
fd,
1d,
12,
f3,
e3,
05,
31,
f4,
f6,
04,
1b,
33,
f3,
20,
50,
fc,
f2,
14,
1b,
29,
25,
14,
f1,
d6,
1d,
18,
ca,
e0,
0f,
fc,
29,
0f,
ff,
10,
ea,
03,
25,
fb,
12,
12,
f6,
f0,
ee,
04,
0b,
0e,
f1,
2f,
0c,
c4,
0f,
1b,
e2,
03,
1d,
fb,
0b,
fa,
e7,
29,
d6,
0b,
f3,
d4,
fe,
19,
20,
eb,
d6,
ec,
11,
25,
e0,
10,
c7,
e7,
12,
fa,
e0,
81,
04,
ff,
05,
1f,
d0,
02,
1b,
16,
e1,
ca,
df,
10,
eb,
29,
fa,
fe,
e9,
19,
1d,
20,
f2,
c0,
05,
0f,
f0,
b1,
1e,
ff,
f7,
d6,
f0,
e9,
f7,
09,
19,
e3,
f6,
fc,
3e,
01,
05,
16,
2d,
12,
12,
25,
30,
28,
10,
f0,
e0,
04,
4d,
1c,
fe,
19,
31,
04,
23,
fa,
e0,
ee,
ff,
f5,
e1,
22,
05,
cf,
05,
e5,
03,
12,
f8,
12,
19,
04,
d1,
fe,
26,
32,
17,
21,
10,
fb,
0e,
fe,
11,
1b,
03,
06,
f2,
f5,
f5,
0c,
f4,
05,
0d,
ff,
f6,
ec,
fb,
fa,
0b,
ff,
fe,
f5,
17,
fc,
ef,
f7,
fc,
fe,
e6,
d7,
16,
e3,
eb,
d1,
31,
ee,
05,
e8,
dd,
0a,
f4,
11,
fc,
0e,
ed,
fd,
24,
d2,
f5,
f0,
ff,
1d,
16,
14,
00,
54,
0c,
e7,
1f,
ed,
d4,
05,
0d,
2b,
31,
d5,
d6,
f1,
24,
e2,
1b,
06,
09,
18,
1e,
d1,
0c,
30,
f8,
0f,
e2,
f1,
0b,
2a,
02,
e0,
d6,
16,
07,
da,
d1,
d4,
43,
04,
dc,
e9,
09,
ee,
ff,
f5,
e8,
f8,
0a,
fa,
f7,
4d,
fe,
f8,
12,
c0,
0b,
14,
11,
0d,
ff,
f7,
b6,
03,
e0,
07,
17,
02,
2b,
d5,
e9,
fb,
e2,
24,
16,
d4,
0a,
f1,
14,
05,
2e,
f1,
2a,
f4,
3f,
dc,
0b,
0d,
3f,
03,
30,
d4,
11,
fd,
ed,
fd,
0a,
ee,
f5,
ea,
ed,
1f,
2a,
ea,
03,
f4,
22,
fc,
22,
e5,
0d,
d8,
de,
ff,
f8,
5b,
f3,
22,
e0,
d9,
00,
0c,
ee,
2d,
cd,
f5,
fb,
fe,
f3,
19,
18,
eb,
d5,
db,
de,
08,
f1,
ee,
ee,
f1,
03,
e9,
d7,
e1,
41,
f4,
c8,
06,
d7,
21,
f0,
1b,
fd,
09,
f3,
c9,
0f,
f9,
18,
fc,
1f,
ca,
e5,
1a,
00,
ec,
14,
f8,
05,
ea,
17,
e3,
fd,
e4,
ff,
f0,
27,
ca,
10,
de,
21,
d8,
09,
f5,
11,
cb,
cf,
c4,
0e,
11,
11,
f9,
e6,
2b,
f7,
e5,
b5,
03,
12,
d0,
e5,
f5,
29,
fa,
1f,
da,
e3,
44,
fa,
f7,
2b,
12,
c2,
f5,
06,
cc,
3b,
19,
f7,
43,
d6,
0e,
0d,
f6,
07,
dd,
ff,
ff,
1b,
f3,
09,
1d,
e9,
43,
e1,
f9,
d5,
e3,
1a,
09,
fc,
1a,
10,
07,
d9,
02,
09,
19,
f7,
00,
ec,
06,
10,
0c,
34,
0e,
01,
2c,
db,
3d,
ef,
15,
df,
e0,
0f,
02,
fa,
15,
fc,
24,
14,
f5,
0b,
f6,
14,
15,
fe,
ee,
2b,
e2,
01,
e6,
fe,
f7,
46,
c1,
eb,
20,
f0,
02,
19,
26,
fb,
24,
f2,
00,
e2,
28,
0a,
2f,
ee,
e8,
1d,
19,
23,
e6,
09,
18,
e2,
fb,
c7,
fc,
3f,
fb,
4b,
0b,
12,
fb,
f2,
34,
3d,
24,
c9,
1d,
f9,
f9,
fc,
f9,
0a,
f0,
f8,
ff,
0f,
ef,
10,
0a,
08,
04,
ff,
14,
ed,
fd,
f5,
e7,
fc,
0d,
11,
0e,
fc,
1c,
db,
15,
04,
0d,
03,
fa,
e1,
0b,
2e,
34,
de,
45,
e7,
fd,
b4,
e0,
14,
e9,
1b,
ee,
dc,
3a,
02,
ef,
1d,
25,
06,
e4,
ed,
15,
e5,
df,
06,
fc,
fa,
06,
11,
3c,
01,
2e,
f0,
35,
c4,
f9,
32,
e5,
f2,
00,
ef,
1d,
e4,
d2,
2e,
fa,
3d,
1d,
fb,
f1,
2e,
45,
03,
08,
44,
01,
05,
f5,
18,
ee,
0c,
e3,
3c,
fe,
ee,
f6,
3a,
2c,
c1,
0f,
eb,
11,
f8,
f0,
e8,
18,
be,
d6,
e5,
10,
fa,
17,
18,
ea,
12,
0e,
18,
d8,
05,
1f,
33,
04,
f7,
17,
2f,
15,
26,
05,
07,
f1,
20,
cd,
f9,
f9,
ea,
10,
21,
10,
cf,
07,
2a,
13,
06,
24,
f2,
ce,
46,
04,
37,
59,
3b,
ff,
5a,
fe,
fb,
05,
0d,
9d,
3a,
0e,
c5,
cb,
5d,
ad,
2b,
e6,
0a,
b1,
12,
2b,
fb,
fd,
f7,
b6,
d8,
06,
1b,
2b,
ca,
2a,
e7,
0a,
e8,
3e,
cd,
ef,
1d,
b4,
4d,
cb,
45,
e8,
36,
cf,
07,
fc,
e8,
0f,
37,
f6,
eb,
29,
19,
05,
0d,
ea,
01,
d8,
40,
1b,
e5,
d7,
0c,
c8,
f9,
27,
32,
13,
19,
e8,
1e,
18,
e4,
35,
f8,
0a,
d1,
4d,
d1,
1e,
07,
03,
e5,
dc,
2e,
20,
ec,
21,
08,
23,
13,
12,
26,
1e,
e2,
11,
23,
f0,
cb,
e6,
04,
f5,
2d,
e1,
fe,
ea,
ed,
06,
f9,
f8,
12,
f9,
ff,
13,
3f,
fc,
09,
30,
0e,
cc,
f7,
02,
f6,
2f,
0a,
26,
1f,
ef,
3c,
17,
08,
c5,
1b,
2c,
f7,
17,
fd,
29,
21,
16,
d7,
3c,
f0,
0c,
e7,
09,
08,
02,
de,
eb,
1c,
21,
3a,
1d,
07,
e7,
ec,
12,
e5,
13,
17,
09,
0c,
1a,
a5,
00,
ea,
c7,
ec,
43,
e0,
e8,
ce,
fe,
ef,
20,
cb,
08,
05,
2c,
c7,
30,
e9,
b4,
ee,
f7,
48,
df,
a0,
10,
d7,
2e,
dd,
b4,
61,
ee,
e1,
df,
0d,
36,
1a,
fe,
1d,
fb,
f8,
fc,
15,
c7,
dd,
31,
12,
b1,
5d,
24,
e6,
0c,
44,
ee,
3d,
31,
f4,
f3,
07,
eb,
22,
15,
01,
1e,
f3,
2c,
18,
e9,
16,
2d,
1e,
fa,
e9,
02,
ef,
55,
e4,
09,
dc,
4e,
24,
ce,
04,
df,
2e,
f6,
24,
f1,
0d,
e4,
10,
27,
92,
fd,
05,
be,
0a,
19,
e6,
75,
d4,
0a,
00,
31,
ee,
e5,
fd,
04,
04,
29,
11,
fb,
e2,
0a,
ff,
f4,
f1,
ed,
18,
fd,
0c,
f7,
25,
f4,
04,
0a,
32,
15,
fd,
13,
f6,
f6,
f3,
1d,
e1,
f4,
0c,
fc,
0d,
4d,
0a,
07,
20,
38,
d9,
7f,
26,
f1,
93,
0a,
1a,
fd,
f2,
f3,
e9,
21,
23,
f4,
11,
4e,
da,
22,
ea,
fe,
e1,
8b,
c7,
d0,
c2,
f0,
d9,
7f,
29,
33,
f4,
da,
1d,
04,
51,
f4,
e2,
e7,
ed,
24,
e2,
38,
df,
b1,
03,
00,
1d,
01,
ea,
33,
04,
35,
06,
0b,
d4,
d5,
ef,
ed,
15,
ca,
e3,
c4,
05,
2a,
27,
30,
fa,
2c,
ec,
06,
ef,
33,
e7,
e5,
1e,
11,
fa,
d7,
04,
0d,
aa,
f7,
0d,
38,
d2,
d3,
2e,
f3,
e2,
14,
18,
2e,
da,
1a,
31,
0f,
f5,
de,
e5,
e8,
44,
f3,
09,
eb,
35,
15,
20,
24,
dc,
24,
0a,
dc,
35,
00,
c4,
29,
c6,
02,
40,
e5,
b2,
2a,
0c,
01,
2c,
0a,
26,
e5,
50,
ea,
e2,
f3,
11,
ed,
1e,
16,
d4,
f5,
fa,
b5,
e2,
fb,
17,
c3,
2f,
fb,
1d,
c1,
1d,
aa,
f5,
9b,
0d,
ee,
29,
ef,
f4,
1d,
31,
16,
dd,
26,
00,
ea,
ef,
28,
18,
0f,
d6,
ec,
fc,
e6,
d6,
e6,
1b,
4b,
10,
fe,
0e,
0d,
b3,
07,
0c,
fe,
14,
b5,
d2,
05,
0f,
00,
52,
e5,
22,
ef,
e8,
fc,
d8,
ee,
d4,
f0,
a8,
ff,
31,
14,
f9,
5c,
fd,
20,
1a,
d7,
94,
dd,
b2,
27,
2c,
fa,
0a,
00,
e1,
fd,
21,
2f,
d0,
e3,
e7,
e1,
31,
de,
01,
21,
24,
11,
d3,
cc,
fc,
f4,
e9,
29,
fa,
03,
d8,
bb,
d5,
e6,
30,
cc,
ca,
12,
de,
1c,
de,
c4,
48,
10,
14,
1e,
17,
18,
08,
fd,
67,
c9,
0a,
0e,
09,
ff,
01,
1b,
16,
00,
e2,
3d,
2d,
43,
46,
08,
35,
01,
e8,
f1,
41,
e1,
40,
10,
fa,
ed,
e5,
ef,
f0,
0c,
1d,
4e,
d3,
c8,
dc,
aa,
f2,
34,
f2,
18,
fd,
35,
f0,
01,
e7,
17,
1b,
3c,
c7,
ca,
2b,
c2,
d2,
24,
10,
c7,
34,
ee,
41,
12,
01,
47,
fd,
17,
2a,
f8,
00,
c8,
b8,
0b,
1a,
fe,
04,
11,
e8,
0e,
02,
ff,
f6,
f1,
e6,
17,
02,
ff,
1b,
eb,
08,
19,
fb,
f7,
15,
f7,
05,
f9,
03,
ee,
fd,
e0,
06,
13,
06,
d2,
e2,
e5,
ec,
f4,
ee,
2c,
08,
04,
1f,
c4,
b0,
f9,
04,
e4,
17,
15,
39,
e1,
4f,
0f,
1b,
15,
c2,
2c,
22,
fd,
17,
f7,
37,
14,
14,
f0,
15,
f1,
f5,
ea,
f7,
1a,
00,
34,
07,
fd,
f3,
1c,
ed,
10,
36,
df,
86,
15,
4d,
df,
f5,
be,
d9,
2d,
21,
d4,
06,
f5,
e9,
40,
d4,
ed,
ba,
13,
fc,
38,
37,
20,
0e,
eb,
12,
1d,
13,
2c,
ec,
f2,
31,
ce,
e6,
2e,
29,
38,
c7,
07,
19,
e9,
28,
d7,
9d,
b1,
1f,
4c,
0b,
d4,
0c,
14,
f1,
13,
dd,
e9,
2d,
a8,
d8,
07,
2d,
f7,
fa,
df,
f5,
e2,
28,
48,
bc,
e1,
d5,
33,
07,
07,
27,
ee,
df,
dc,
e2,
16,
09,
f8,
25,
f1,
bf,
de,
10,
27,
26,
c0,
ca,
f9,
da,
0c,
f6,
cb,
06,
b2,
e0,
2c,
1d,
1e,
47,
e5,
19,
29,
0f,
e0,
20,
e5,
e0,
40,
eb,
9b,
25,
18,
26,
f0,
0a,
dc,
eb,
f0,
f5,
2e,
f9,
48,
e5,
f8,
08,
03,
13,
05,
e6,
f1,
16,
d3,
0a,
c8,
21,
e0,
15,
11,
cb,
46,
f6,
db,
dc,
e7,
f8,
ed,
25,
19,
f8,
2c,
67,
fe,
e7,
02,
10,
f2,
dc,
1b,
f3,
f3,
04,
fd,
df,
eb,
e4,
e5,
ed,
ec,
3a,
b0,
df,
d6,
d4,
e6,
16,
c8,
23,
f4,
f3,
11,
ee,
42,
02,
05,
a1,
05,
0e,
ab,
47,
20,
f5,
35,
de,
1a,
f4,
2a,
05,
11,
d3,
a5,
e0,
13,
f1,
0d,
c4,
2d,
e9,
07,
3c,
5b,
23,
ef,
27,
06,
f2,
f1,
b2,
08,
2e,
c2,
06,
eb,
09,
0b,
1b,
1e,
3e,
22,
e6,
10,
04,
11,
f2,
f3,
ee,
0e,
ba,
09,
d1,
f3,
d5,
c6,
e6,
ab,
b8,
2b,
02,
07,
32,
35,
f2,
f3,
c5,
ea,
06,
0e,
3b,
17,
ea,
1a,
0f,
3c,
48,
d5,
26,
19,
2b,
db,
33,
2b,
1d,
c2,
1c,
e5,
f5,
b8,
40,
e6,
e7,
05,
f6,
dd,
01,
fb,
df,
18,
e3,
2c,
ed,
07,
d2,
e5,
05,
cb,
13,
10,
97,
fe,
cf,
dc,
ff,
1f,
1a,
0e,
e4,
e8,
03,
ec,
2d,
a9,
01,
f9,
0c,
08,
0d,
c7,
f6,
35,
03,
cb,
e6,
01,
38,
d9,
0e,
db,
34,
18,
0f,
3b,
51,
35,
1f,
0c,
fd,
cd,
f0,
ba,
0b,
31,
03,
22,
ff,
e4,
14,
0e,
f9,
d7,
09,
fb,
12,
1a,
00,
08,
ef,
f6,
10,
18,
ee,
ff,
f7,
05,
f7,
ff,
fd,
f7,
ed,
ff,
18,
f5,
13,
03,
e2,
03,
22,
f0,
04,
45,
13,
22,
30,
04,
d0,
eb,
ee,
30,
09,
22,
07,
19,
ed,
df,
4a,
0f,
d3,
04,
15,
0c,
10,
e5,
04,
06,
34,
ae,
f6,
18,
e5,
c5,
cb,
a8,
30,
25,
f3,
d8,
10,
07,
ec,
cb,
1b,
ab,
3a,
f2,
1f,
fd,
27,
e1,
c8,
e7,
eb,
01,
26,
06,
12,
dd,
ff,
38,
40,
2c,
55,
27,
ea,
f4,
7f,
e8,
11,
d7,
10,
06,
f9,
f8,
38,
35,
14,
13,
1c,
1b,
05,
01,
c6,
54,
d2,
2c,
c0,
f6,
0e,
27,
d0,
45,
be,
17,
dc,
41,
f4,
ea,
ec,
0e,
f7,
2d,
26,
0a,
d1,
07,
1d,
e7,
46,
00,
ea,
a7,
e9,
1c,
2d,
f9,
d3,
e8,
e6,
ea,
0f,
05,
1b,
01,
3e,
0f,
26,
25,
f0,
3a,
0f,
03,
3c,
e4,
3c,
0e,
f1,
e9,
a9,
dc,
cd,
21,
e8,
20,
1b,
06,
d5,
e4,
d8,
13,
e1,
34,
12,
f1,
02,
11,
f7,
eb,
de,
13,
c3,
ff,
05,
d8,
d0,
e5,
e8,
09,
e3,
e9,
f9,
34,
b6,
fa,
30,
29,
0a,
f1,
e6,
04,
c8,
0f,
e1,
d4,
a6,
f0,
0e,
f9,
0e,
aa,
f9,
f2,
2e,
f8,
e4,
f3,
f1,
0f,
ec,
03,
16,
12,
e0,
12,
f4,
f9,
de,
aa,
fe,
ec,
e0,
35,
f4,
04,
15,
07,
2b,
2a,
e8,
1d,
0a,
17,
f3,
13,
06,
dc,
1d,
98,
0a,
fe,
ed,
f8,
36,
28,
f3,
16,
e7,
8d,
10,
1f,
29,
f5,
07,
f1,
00,
d0,
f8,
fa,
1d,
d7,
03,
e6,
cd,
1d,
92,
19,
e8,
e2,
52,
e4,
c7,
ff,
23,
c6,
40,
fa,
2a,
d5,
dd,
f7,
d0,
d5,
0f,
16,
1e,
f2,
fb,
15,
c2,
21,
26,
d0,
e7,
1c,
07,
d8,
4c,
ef,
e2,
20,
0f,
f8,
08,
e3,
2c,
f2,
f4,
bb,
b4,
ee,
02,
0c,
f6,
05,
27,
3e,
c5,
0d,
2e,
f5,
19,
23,
93,
4a,
fa,
d7,
f4,
fd,
41,
c9,
17,
09,
2b,
0e,
22,
f5,
d0,
12,
d7,
29,
50,
d5,
13,
0b,
19,
d8,
c0,
fa,
ea,
e7,
cd,
e0,
04,
0c,
bc,
c7,
f2,
d3,
3b,
ea,
f3,
01,
18,
fd,
fe,
fe,
fa,
15,
04,
14,
16,
11,
d5,
27,
03,
fb,
16,
e5,
0d,
06,
f9,
10,
f2,
ea,
0a,
c0,
27,
f6,
15,
e0,
fc,
ae,
f2,
08,
07,
0e,
4b,
1c,
f1,
4f,
29,
15,
06,
36,
da,
23,
2b,
0f,
fe,
13,
0f,
ec,
f7,
10,
e1,
16,
41,
c1,
3a,
11,
fd,
10,
ef,
df,
ee,
24,
f1,
b5,
c3,
d0,
35,
13,
f3,
1c,
cd,
2c,
43,
c7,
e6,
09,
2d,
31,
ec,
0b,
3b,
09,
22,
33,
2a,
04,
ca,
48,
34,
3b,
1d,
17,
38,
1c,
25,
f0,
e4,
d2,
dd,
fe,
14,
30,
d7,
1e,
fa,
23,
0e,
ff,
16,
37,
24,
20,
e7,
e0,
1b,
e7,
02,
af,
0c,
f7,
e5,
e5,
39,
2c,
18,
f0,
27,
dc,
df,
0d,
f0,
eb,
49,
20,
00,
22,
13,
e8,
cc,
d7,
95,
d5,
1d,
04,
e7,
20,
e9,
03,
a7,
0a,
ea,
e6,
fb,
cd,
3b,
23,
ff,
59,
de,
2d,
e4,
ac,
10,
0e,
f4,
11,
ae,
cb,
f0,
cb,
18,
50,
40,
e5,
46,
1d,
2a,
a5,
2f,
25,
0b,
db,
26,
fc,
e8,
07,
5b,
2e,
31,
b8,
44,
0b,
f3,
0a,
f7,
dc,
30,
f5,
3e,
fa,
e4,
e0,
1f,
be,
05,
dc,
1c,
e6,
c8,
15,
e7,
df,
4d,
13,
e2,
2c,
f2,
06,
f0,
ee,
f4,
cb,
03,
dd,
fa,
eb,
04,
80,
ee,
04,
ff,
d0,
4b,
f0,
28,
fa,
e9,
3a,
fb,
55,
50,
e4,
18,
dd,
06,
fa,
c4,
0b,
c2,
9e,
09,
00,
45,
38,
07,
f2,
e8,
b5,
ff,
14,
09,
b4,
58,
3f,
dd,
d7,
16,
e2,
13,
e4,
f5,
f4,
12,
b0,
df,
fd,
29,
04,
26,
24,
df,
ed,
cf,
9f,
fe,
13,
4a,
37,
35,
f3,
0f,
3e,
c7,
ec,
e7,
e9,
1b,
31,
14,
ef,
00,
f9,
27,
0a,
eb,
2c,
dd,
cd,
d0,
f4,
02,
27,
d2,
d9,
09,
0f,
20,
f1,
b1,
13,
1d,
28,
ff,
f3,
4a,
e6,
d5,
02,
e4,
4f,
e2,
21,
0c,
14,
e9,
17,
07,
a5,
16,
08,
cc,
10,
e0,
3a,
03,
2c,
fb,
23,
04,
01,
f5,
ee,
24,
00,
01,
21,
fe,
06,
12,
d9,
10,
5a,
a3,
4c,
f2,
11,
01,
6d,
ff,
e9,
26,
e5,
d4,
2f,
d7,
f0,
cd,
dd,
e5,
3d,
f3,
08,
0c,
bc,
e3,
0c,
15,
fb,
31,
32,
fb,
dd,
fb,
d8,
13,
1a,
37,
ac,
13,
f6,
e5,
03,
06,
d9,
4d,
db,
b3,
de,
3b,
fa,
16,
35,
1a,
fb,
16,
e2,
0b,
0b,
f5,
fa,
e8,
f8,
23,
d5,
e1,
ec,
e1,
f2,
f6,
fc,
f5,
eb,
14,
ff,
01,
eb,
e5,
1c,
2d,
f0,
05,
14,
0a,
ee,
e5,
1f,
d3,
f4,
ea,
53,
31,
3b,
0d,
1a,
e9,
14,
09,
26,
3c,
f6,
06,
f0,
d4,
0b,
f7,
f2,
b3,
ed,
df,
ee,
e3,
1b,
f7,
e1,
e4,
f5,
fe,
c3,
5f,
fc,
83,
1d,
cb,
ff,
dd,
f8,
30,
9f,
30,
49,
f2,
d7,
2c,
c3,
dc,
12,
2a,
b9,
0b,
56,
01,
0b,
18,
47,
bc,
d8,
b4,
57,
e8,
00,
14,
d5,
13,
13,
df,
56,
d0,
19,
fc,
c5,
0d,
0b,
51,
13,
ea,
9d,
2e,
e0,
04,
b2,
db,
02,
08,
12,
01,
f7,
d2,
0f,
42,
ad,
0b,
e5,
2c,
e6,
20,
38,
2c,
0e,
cc,
1d,
19,
f9,
fd,
e0,
10,
30,
1e,
51,
ba,
f9,
ea,
0a,
15,
0c,
20,
fb,
d5,
4d,
1a,
df,
38,
36,
ff,
23,
b8,
1b,
cb,
d3,
f1,
09,
d4,
12,
0b,
e5,
4a,
e1,
4c,
12,
f8,
26,
08,
d2,
1f,
0b,
c4,
ff,
12,
34,
37,
f2,
1a,
b8,
f0,
15,
f5,
cc,
22,
00,
c5,
f3,
de,
f7,
f3,
0c,
eb,
f0,
39,
c9,
26,
e1,
1f,
1e,
f9,
ea,
fe,
1f,
12,
e7,
53,
0b,
ed,
0e,
f5,
01,
02,
0a,
0b,
cd,
0e,
d5,
34,
d3,
33,
11,
01,
ec,
d5,
0b,
17,
2a,
3f,
da,
f0,
fd,
11,
fc,
19,
c4,
f1,
37,
dc,
19,
49,
44,
b5,
29,
b7,
28,
f1,
e8,
dc,
df,
49,
23,
d5,
c0,
28,
32,
e5,
1a,
19,
0c,
fe,
f1,
d2,
bc,
0f,
3b,
f5,
0f,
38,
d8,
65,
cc,
41,
c0,
9b,
da,
d2,
e9,
0c,
53,
d0,
e4,
f3,
f9,
8b,
23,
13,
c0,
e5,
18,
2c,
f5,
1c,
2f,
25,
ed,
0f,
0f,
ec,
ce,
33,
0d,
dd,
fa,
06,
d8,
f8,
23,
0b,
f4,
30,
0c,
fb,
fc,
1b,
2a,
18,
22,
2c,
e5,
ea,
18,
c5,
0b,
fa,
19,
29,
e9,
0d,
c3,
f7,
31,
1b,
fa,
22,
f4,
ff,
19,
0e,
fa,
0b,
20,
cb,
46,
02,
d4,
f8,
cf,
11,
fb,
c8,
1d,
a9,
d7,
c1,
14,
46,
eb,
ff,
22,
47,
23,
e8,
2b,
13,
06,
e8,
22,
08,
e3,
c4,
6c,
bc,
09,
18,
05,
f7,
f8,
23,
12,
d7,
12,
07,
ec,
08,
df,
1b,
18,
03,
f5,
e7,
ed,
e1,
ea,
15,
f0,
07,
3a,
ff,
2d,
01,
17,
44,
c9,
11,
cc,
de,
05,
0e,
01,
1e,
0f,
49,
35,
1e,
fb,
f9,
b6,
f6,
e4,
cc,
bd,
0f,
11,
e2,
e6,
fb,
d9,
16,
da,
32,
e4,
e1,
25,
13,
e1,
16,
c6,
00,
f4,
ed,
e0,
ea,
13,
04,
fd,
0a,
f9,
2a,
0e,
d2,
b8,
de,
17,
fd,
04,
17,
fa,
f2,
1b,
97,
40,
12,
f0,
4b,
30,
2e,
05,
fc,
1a,
0c,
c7,
fd,
1b,
19,
c9,
d1,
25,
cd,
1d,
1f,
e5,
15,
1d,
f4,
09,
05,
e0,
58,
2b,
da,
32,
e2,
01,
5b,
17,
cf,
f5,
3e,
60,
1a,
0d,
2d,
1f,
33,
04,
1a,
e8,
03,
41,
37,
09,
f7,
07,
21,
4a,
08,
e0,
d3,
57,
fa,
b6,
e1,
1c,
3e,
b0,
0a,
e2,
e6,
48,
5d,
f8,
e5,
ed,
52,
32,
1d,
0e,
24,
1b,
c0,
0d,
07,
15,
1c,
06,
ea,
fa,
4e,
27,
b9,
f7,
ec,
0f,
19,
20,
cc,
f6,
d6,
1f,
c2,
c1,
cd,
df,
c9,
ca,
f0,
34,
d7,
bd,
03,
e9,
e5,
1a,
fb,
12,
d5,
24,
d5,
2c,
23,
30,
2e,
fe,
0b,
f7,
2b,
03,
24,
e8,
06,
f0,
e1,
3a,
f6,
da,
13,
10,
09,
0b,
13,
cc,
38,
f3,
f8,
19,
d1,
f0,
1f,
18,
0e,
36,
d1,
d8,
18,
4b,
05,
0c,
09,
33,
ee,
32,
0c,
c9,
ce,
0c,
e9,
0d,
e3,
01,
e9,
bb,
04,
34,
c9,
d5,
1e,
23,
d8,
24,
f3,
1a,
d5,
12,
ef,
c4,
e2,
c0,
0c,
04,
4f,
c7,
c6,
c6,
15,
de,
c2,
ea,
2f,
eb,
16,
f4,
19,
0b,
14,
0e,
00,
eb,
cf,
ff,
40,
54,
47,
bf,
5e,
e5,
12,
d5,
39,
e8,
e1,
f6,
