MEMORY_INITIALIZATION_RADIX = 16;
MEMORY_INITIALIZATION_VECTOR = 
fd,
10,
d6,
05,
d0,
de,
c4,
cf,
02,
de,
ea,
bf,
e8,
11,
c6,
af,
bc,
eb,
bc,
2d,
41,
fe,
ce,
3a,
dd,
39,
32,
3d,
2f,
2d,
2e,
c3,
18,
d7,
f2,
3b,
01,
df,
19,
c0,
af,
d8,
e1,
1a,
30,
46,
9f,
c4,
0e,
f5,
2a,
d3,
31,
d8,
d6,
ba,
d7,
03,
3e,
11,
52,
13,
ee,
10,
c5,
e0,
3c,
e8,
03,
e9,
01,
15,
2a,
cd,
ba,
e0,
36,
e8,
c1,
ed,
f8,
fd,
c1,
bd,
29,
e3,
11,
bf,
fa,
f0,
1c,
f9,
c8,
ba,
3c,
38,
f3,
e3,
25,
27,
00,
f4,
1d,
00,
f1,
ef,
fd,
e9,
38,
cf,
ea,
b3,
ae,
fd,
ee,
1b,
f7,
df,
e0,
1b,
d2,
e0,
15,
0c,
c8,
17,
41,
c8,
22,
35,
c1,
06,
dc,
ba,
0a,
ba,
eb,
01,
21,
fe,
58,
36,
17,
db,
01,
c2,
fd,
62,
cb,
d5,
fa,
f2,
3b,
0b,
be,
da,
f9,
e4,
f8,
43,
22,
e4,
bb,
10,
d0,
45,
43,
fc,
db,
d7,
f7,
b5,
17,
bd,
d7,
14,
3c,
47,
d0,
0f,
b4,
bd,
0c,
23,
33,
f3,
22,
18,
d6,
2f,
2b,
f6,
e2,
fc,
10,
0f,
d7,
df,
d0,
d9,
d2,
e3,
e7,
ff,
ef,
af,
1c,
ce,
04,
ef,
3a,
d7,
f0,
28,
fa,
d7,
2c,
df,
28,
27,
c1,
15,
0c,
b6,
c0,
c3,
0b,
f1,
46,
0a,
3a,
d9,
26,
47,
0c,
db,
d9,
ff,
c3,
25,
70,
b6,
0d,
17,
2e,
25,
a2,
59,
ce,
f9,
f5,
b9,
01,
ee,
d9,
e5,
ca,
ed,
fd,
d0,
30,
e4,
c5,
be,
1e,
05,
30,
32,
c4,
27,
35,
de,
20,
28,
2b,
20,
bd,
db,
d4,
c9,
fe,
26,
20,
e1,
d8,
cf,
3e,
2d,
bd,
16,
3c,
01,
1b,
30,
e9,
fd,
c3,
d9,
19,
1c,
0e,
e2,
cc,
03,
3b,
ce,
cc,
f3,
06,
0c,
15,
c0,
36,
2b,
45,
cc,
46,
f3,
1d,
05,
39,
ec,
fa,
b8,
e4,
02,
fa,
f1,
da,
2b,
e3,
f1,
bd,
f2,
ce,
40,
21,
03,
e5,
03,
1e,
f9,
cc,
25,
2d,
36,
74,
1d,
fd,
f9,
c1,
43,
1b,
c1,
b8,
ee,
cb,
2a,
da,
10,
26,
18,
f9,
06,
18,
04,
3c,
f3,
c6,
e5,
1e,
c0,
30,
bf,
c3,
11,
06,
bb,
0a,
42,
3b,
cd,
2d,
c0,
ba,
40,
b9,
2e,
ec,
03,
1f,
f8,
cc,
33,
26,
1d,
e9,
42,
d2,
1a,
f0,
2a,
f9,
be,
11,
ec,
fd,
b5,
30,
d0,
05,
2e,
f3,
b8,
c1,
f7,
e3,
26,
c6,
ef,
f2,
0f,
25,
1b,
07,
0e,
2c,
b3,
43,
24,
f6,
19,
c2,
43,
26,
bf,
0b,
32,
d1,
fe,
01,
50,
e7,
29,
c0,
da,
93,
2b,
be,
bf,
32,
39,
bf,
37,
f6,
40,
c6,
fe,
d6,
df,
b7,
12,
03,
cc,
25,
24,
b0,
e2,
ee,
21,
05,
a2,
f9,
ce,
34,
ed,
28,
f5,
e4,
e9,
02,
3b,
25,
41,
2d,
eb,
db,
11,
d3,
45,
b7,
f4,
b7,
32,
f0,
7f,
1c,
5b,
37,
3b,
0e,
df,
24,
da,
02,
14,
00,
10,
ee,
00,
33,
f6,
08,
1a,
c0,
ff,
1e,
f4,
17,
e8,
52,
03,
f9,
18,
13,
1e,
05,
dc,
de,
cb,
d3,
c4,
bc,
e6,
f9,
cf,
ef,
2f,
2d,
e5,
d3,
08,
10,
28,
3c,
3a,
74,
07,
cf,
da,
44,
11,
e8,
e2,
f5,
fe,
35,
25,
33,
f8,
2c,
02,
e9,
12,
2c,
11,
12,
26,
2a,
14,
e2,
d6,
e4,
e8,
0a,
0e,
18,
cd,
19,
14,
c5,
d0,
cf,
41,
03,
34,
1b,
22,
c9,
d9,
a1,
2b,
eb,
09,
ba,
41,
01,
07,
c1,
c6,
41,
3c,
fa,
e3,
02,
ce,
c2,
1b,
1b,
11,
2a,
d5,
fa,
ce,
f1,
28,
f8,
22,
3c,
f0,
15,
d8,
18,
01,
16,
0f,
28,
d2,
e3,
fe,
c3,
f9,
f3,
3f,
fe,
d1,
f5,
24,
08,
46,
09,
ec,
33,
d8,
dc,
e8,
3f,
3d,
d2,
ca,
2c,
06,
cb,
be,
1b,
27,
f9,
1b,
f5,
f1,
2c,
23,
2f,
11,
c9,
31,
bb,
16,
1d,
28,
04,
07,
f0,
1e,
14,
d7,
e8,
43,
0d,
0e,
41,
cd,
3c,
d1,
22,
d9,
4c,
57,
ca,
34,
99,
ae,
6e,
e1,
01,
ce,
b6,
eb,
2f,
d4,
f1,
41,
f0,
43,
09,
1a,
c9,
f9,
cc,
fa,
fb,
1b,
0a,
be,
35,
fe,
f0,
e7,
fc,
21,
d8,
2f,
0c,
f5,
cf,
d4,
fc,
e5,
2f,
bd,
bd,
27,
01,
2f,
c0,
c7,
0b,
df,
f3,
f5,
58,
ab,
c5,
36,
35,
c2,
0a,
f2,
17,
ef,
c9,
0e,
ea,
b9,
1f,
36,
ef,
ca,
d3,
e8,
02,
e4,
08,
ba,
42,
0e,
9a,
b6,
dd,
01,
28,
e1,
33,
2e,
d1,
24,
fa,
ef,
f0,
22,
ef,
14,
45,
bb,
f4,
d6,
34,
4b,
2a,
c1,
f4,
3d,
ff,
2e,
10,
de,
24,
0b,
ef,
c3,
12,
11,
04,
e4,
18,
1a,
22,
23,
f7,
1a,
d7,
e3,
e4,
c7,
25,
0a,
bf,
eb,
13,
13,
0e,
e7,
1e,
11,
f8,
ce,
28,
0a,
0b,
1c,
fa,
ef,
dc,
2f,
1f,
f3,
0c,
3d,
23,
11,
f6,
e3,
e8,
ec,
3f,
d2,
35,
32,
0f,
0a,
e0,
1d,
0b,
0d,
d4,
fb,
13,
f7,
e5,
1f,
c1,
ff,
01,
2e,
f9,
30,
db,
0d,
03,
1c,
12,
a9,
11,
17,
1f,
c4,
f8,
f8,
0c,
18,
46,
e9,
1f,
fa,
e4,
af,
24,
d1,
c6,
f4,
8b,
df,
d6,
fd,
e2,
b9,
48,
f8,
d2,
fd,
cd,
bd,
ff,
02,
27,
d9,
a0,
07,
e7,
1b,
32,
85,
9b,
e4,
e4,
3e,
9e,
06,
08,
15,
25,
e0,
0f,
2e,
1f,
08,
e0,
02,
1b,
27,
46,
07,
53,
e2,
22,
cd,
ca,
12,
fd,
02,
b9,
41,
c0,
ee,
d3,
d1,
14,
14,
0d,
22,
d7,
05,
e1,
e4,
e3,
e7,
0b,
40,
ee,
00,
2c,
e4,
f5,
09,
fd,
8a,
63,
ec,
f0,
2b,
12,
06,
b8,
21,
09,
e0,
ed,
13,
fa,
ed,
22,
36,
ac,
ed,
13,
1f,
e5,
b9,
e5,
e0,
1b,
ef,
3e,
f3,
fa,
ee,
da,
d6,
32,
07,
ff,
3a,
f6,
f6,
fc,
1d,
23,
18,
df,
e0,
e6,
46,
e6,
1a,
fd,
ef,
f5,
1e,
ef,
ec,
f3,
0b,
db,
58,
f7,
e2,
ed,
0b,
ff,
2c,
fe,
3b,
fa,
e9,
e4,
01,
f9,
d8,
0b,
f1,
e1,
34,
b4,
0f,
f9,
20,
e9,
19,
5d,
1c,
e6,
02,
43,
ed,
1b,
ea,
ef,
15,
01,
18,
17,
e9,
28,
00,
e9,
c9,
03,
08,
1d,
32,
40,
ee,
cf,
e1,
09,
2a,
f2,
c0,
dc,
26,
4b,
35,
ee,
f8,
d7,
ee,
e2,
27,
e0,
f0,
de,
3c,
e2,
20,
ed,
fc,
1d,
03,
18,
e4,
1f,
e4,
e3,
e4,
1c,
c3,
d5,
3d,
eb,
12,
2b,
4f,
fc,
05,
0c,
d4,
f6,
fc,
ef,
e2,
f3,
4d,
9c,
19,
ff,
29,
04,
22,
ee,
e8,
0e,
da,
f6,
d0,
ff,
17,
ed,
d2,
f6,
14,
2c,
2e,
27,
19,
d2,
3c,
3e,
cb,
31,
ee,
06,
12,
15,
09,
d8,
2f,
ca,
06,
f2,
d3,
e9,
1c,
e8,
db,
da,
34,
f4,
07,
f6,
25,
0d,
d9,
2b,
d1,
eb,
e5,
03,
fe,
04,
d1,
dc,
e9,
b3,
1c,
25,
1a,
fe,
da,
cf,
f1,
3d,
e1,
01,
14,
f8,
1c,
28,
02,
63,
ee,
e1,
f1,
0a,
f1,
0d,
37,
c3,
22,
e8,
d1,
0c,
e5,
c3,
dd,
d0,
25,
b5,
39,
2c,
0c,
01,
0a,
1d,
f5,
24,
0d,
0e,
26,
10,
1d,
b5,
e7,
16,
fe,
24,
cf,
13,
26,
06,
41,
d0,
01,
0b,
03,
30,
c6,
ff,
ed,
3f,
cc,
d7,
2b,
ee,
03,
28,
19,
48,
e2,
1f,
2a,
23,
c5,
00,
1e,
16,
1b,
1c,
df,
0c,
03,
f7,
f9,
27,
1f,
01,
fa,
00,
28,
f2,
e0,
0f,
04,
f5,
12,
f7,
1a,
2d,
e0,
cf,
18,
cf,
f4,
2f,
ea,
02,
f9,
00,
1a,
1a,
e2,
10,
c7,
0b,
28,
29,
fa,
19,
0a,
05,
1b,
fd,
0a,
da,
f5,
cc,
06,
30,
07,
50,
27,
eb,
1b,
e2,
f3,
ee,
26,
24,
25,
e0,
f7,
3c,
09,
e7,
27,
14,
11,
f4,
02,
ca,
df,
e3,
de,
25,
c0,
27,
15,
0f,
0a,
01,
f0,
01,
26,
2e,
da,
06,
e0,
2f,
1c,
f1,
fa,
24,
04,
de,
28,
f4,
db,
21,
28,
ff,
c7,
f9,
e1,
03,
03,
fe,
d7,
03,
20,
ec,
e8,
29,
ca,
e5,
d6,
05,
1c,
37,
c0,
e8,
d3,
33,
0f,
2a,
00,
16,
0e,
14,
da,
1e,
ec,
1d,
10,
f2,
22,
0d,
3f,
f5,
e9,
ff,
1b,
e8,
cb,
a5,
e2,
1a,
cd,
ef,
43,
bf,
fa,
37,
d1,
f2,
54,
15,
0e,
32,
26,
18,
03,
dc,
0b,
f0,
dd,
e6,
fb,
f5,
fa,
03,
0a,
c1,
ef,
f6,
07,
0a,
1f,
fa,
26,
03,
fe,
11,
f1,
dd,
12,
db,
0f,
0f,
06,
ee,
20,
14,
15,
f8,
28,
0b,
07,
1c,
20,
f7,
21,
1a,
d8,
ee,
18,
22,
1b,
06,
f3,
0a,
01,
01,
f1,
28,
22,
1a,
23,
bf,
7f,
e2,
fb,
05,
e6,
23,
2d,
10,
f6,
02,
ec,
cf,
11,
08,
5b,
e9,
07,
18,
04,
38,
4b,
e7,
ea,
ee,
bb,
f9,
0f,
0c,
6d,
c8,
0d,
09,
d9,
32,
fc,
f3,
18,
27,
23,
e7,
db,
df,
f8,
d7,
19,
ff,
e5,
e4,
e7,
c8,
30,
19,
24,
e7,
15,
33,
e7,
0a,
c8,
09,
10,
f7,
1a,
0f,
c4,
00,
f9,
2a,
d0,
f6,
cf,
cf,
fa,
55,
d4,
fd,
d1,
e3,
fa,
1e,
01,
41,
ff,
10,
df,
f1,
32,
f7,
e5,
db,
d8,
f2,
f3,
23,
de,
15,
ec,
10,
12,
0c,
ee,
00,
e5,
11,
10,
e7,
df,
02,
12,
03,
14,
2c,
10,
01,
dc,
20,
fb,
ee,
15,
12,
08,
1b,
f1,
22,
e8,
e4,
ea,
fd,
e0,
e6,
48,
fe,
ef,
e5,
30,
ea,
ec,
0c,
f5,
03,
1c,
0d,
fd,
ea,
25,
01,
e5,
0b,
dc,
2d,
09,
da,
26,
df,
d6,
49,
16,
e2,
1e,
f5,
f7,
f0,
ec,
17,
f3,
e2,
19,
fb,
c6,
28,
2c,
be,
22,
d0,
2f,
e7,
e6,
21,
1f,
e5,
ff,
09,
fa,
ec,
db,
e5,
26,
d5,
f5,
ef,
19,
d7,
09,
fb,
ff,
12,
3e,
e7,
df,
be,
f5,
2e,
a8,
1f,
01,
0b,
e3,
f5,
02,
12,
02,
e8,
fc,
22,
e8,
ed,
f6,
d7,
0c,
4b,
b9,
35,
db,
05,
5e,
ba,
43,
e0,
f6,
e4,
d1,
46,
11,
f2,
f5,
f3,
15,
08,
f7,
1e,
f7,
ea,
f4,
ef,
43,
ed,
ed,
11,
12,
f7,
02,
05,
24,
f8,
1f,
a8,
5e,
fc,
ef,
27,
f4,
1a,
00,
f0,
fe,
09,
e8,
ef,
0f,
25,
f6,
ca,
1d,
fe,
23,
9e,
3c,
0f,
e1,
41,
da,
3f,
ea,
13,
16,
f9,
dc,
2b,
0f,
d5,
0f,
19,
de,
fc,
e0,
47,
2e,
05,
fc,
a8,
fb,
ec,
f9,
e1,
d8,
01,
e8,
2e,
f1,
0c,
e2,
1f,
15,
03,
ef,
0d,
08,
14,
f0,
21,
06,
c1,
0e,
18,
e8,
f5,
59,
df,
05,
16,
e8,
25,
cb,
01,
1f,
fa,
04,
f8,
f6,
f7,
dd,
06,
f6,
eb,
18,
e4,
f8,
f9,
e1,
24,
b7,
37,
f9,
0d,
5d,
d8,
08,
ef,
fb,
09,
da,
15,
ff,
02,
10,
26,
ff,
ef,
fa,
ec,
0e,
02,
13,
3d,
92,
6b,
d0,
0b,
da,
21,
fd,
e1,
2b,
06,
ec,
e9,
e8,
0f,
00,
c2,
33,
f4,
e8,
ec,
fb,
48,
d1,
f5,
08,
3d,
19,
1e,
f8,
05,
39,
00,
d5,
0f,
01,
00,
04,
e5,
09,
0d,
ff,
f7,
13,
02,
e3,
f9,
e0,
05,
1a,
09,
29,
c3,
2c,
29,
f3,
0f,
3c,
dd,
1f,
f7,
0b,
e3,
f3,
13,
17,
cc,
1f,
da,
0a,
13,
08,
27,
23,
0a,
01,
c9,
2f,
eb,
ed,
17,
80,
7c,
eb,
05,
06,
d2,
09,
e3,
ff,
f4,
0b,
ed,
fc,
ee,
e0,
fe,
42,
0b,
f7,
f5,
0c,
93,
3a,
01,
09,
f6,
d1,
1c,
f5,
fb,
0b,
06,
09,
07,
fd,
fd,
fc,
e5,
f3,
e9,
fd,
29,
f3,
47,
ef,
29,
f7,
0f,
1c,
16,
1c,
c1,
50,
fe,
f1,
d3,
29,
02,
cf,
0d,
ea,
fe,
f1,
0c,
f9,
10,
fc,
41,
de,
f4,
14,
c6,
34,
de,
ee,
f4,
0a,
00,
fa,
e7,
06,
ca,
f4,
03,
37,
bf,
e7,
da,
15,
ed,
dc,
2e,
c2,
e5,
d8,
32,
b5,
2c,
14,
01,
11,
cd,
42,
e7,
06,
0f,
d0,
0f,
ff,
fe,
07,
f8,
02,
16,
05,
05,
a8,
77,
f4,
dd,
59,
8a,
1b,
ed,
09,
28,
ba,
51,
d3,
ff,
16,
fc,
13,
db,
22,
12,
c2,
00,
fb,
08,
30,
ed,
f8,
e1,
12,
10,
a2,
44,
04,
dd,
45,
b4,
44,
04,
fa,
eb,
18,
07,
df,
00,
ee,
db,
15,
fc,
01,
f9,
e0,
52,
f1,
00,
19,
21,
fe,
04,
27,
3a,
e6,
d6,
fe,
fe,
d9,
02,
0f,
18,
f3,
00,
fe,
09,
05,
05,
f4,
22,
cd,
1a,
06,
02,
25,
ee,
0e,
ff,
f5,
d2,
41,
db,
0b,
13,
d1,
26,
e2,
00,
f5,
08,
f9,
16,
d9,
06,
2f,
d9,
1f,
0d,
f8,
4c,
c3,
05,
f5,
12,
0c,
ea,
f0,
0b,
fa,
01,
ec,
f1,
0f,
0e,
17,
e9,
fe,
02,
11,
10,
ee,
f1,
21,
11,
0e,
30,
e5,
fc,
fb,
03,
e3,
2d,
07,
10,
f3,
df,
00,
f6,
d7,
25,
15,
ff,
de,
c2,
24,
2e,
1d,
05,
05,
c0,
23,
f2,
d5,
06,
f3,
00,
13,
f0,
15,
fc,
f3,
03,
ff,
e3,
15,
f4,
07,
e5,
e8,
57,
a3,
13,
39,
b9,
25,
df,
2d,
1e,
01,
f4,
fe,
d8,
00,
f4,
09,
f5,
ea,
f8,
fa,
f4,
07,
0f,
11,
0d,
fa,
e8,
f1,
02,
fa,
12,
f7,
fd,
10,
fe,
08,
fc,
0e,
0a,
f8,
05,
07,
f8,
fb,
fd,
12,
ef,
ea,
d9,
43,
db,
0a,
eb,
fc,
21,
8c,
28,
e4,
0f,
f3,
0e,
2a,
d1,
25,
03,
2c,
eb,
f3,
f5,
10,
df,
0b,
ff,
f1,
4b,
ae,
14,
ed,
dc,
19,
e5,
4c,
c2,
fb,
45,
dd,
fe,
06,
01,
1f,
e8,
10,
ff,
0d,
06,
18,
0c,
e3,
e5,
2d,
d2,
28,
f1,
ff,
1b,
06,
1e,
e3,
06,
f9,
dc,
f5,
13,
fc,
f0,
04,
fa,
ea,
f0,
24,
00,
08,
f2,
d0,
56,
bc,
04,
fd,
d9,
14,
c0,
1e,
e1,
25,
00,
ea,
45,
0b,
f1,
0f,
2a,
e2,
fa,
f2,
f6,
fe,
08,
ee,
fc,
f5,
15,
08,
fb,
f6,
01,
fb,
17,
ee,
03,
00,
1d,
dc,
1d,
ff,
09,
f2,
fb,
f0,
eb,
f8,
f3,
0b,
02,
05,
08,
07,
f8,
fb,
f8,
23,
ec,
10,
0d,
f9,
20,
09,
df,
15,
ee,
fa,
ef,
15,
f1,
f0,
37,
d1,
f0,
eb,
f4,
14,
46,
cb,
02,
f7,
2d,
b8,
2d,
f2,
12,
e4,
24,
f1,
d9,
e3,
3d,
e3,
4d,
f3,
cf,
1a,
ca,
ff,
f7,
c9,
01,
7a,
dd,
21,
44,
2e,
bd,
2d,
c9,
13,
19,
f9,
d6,
ca,
e7,
01,
ed,
0e,
14,
01,
e8,
21,
d8,
04,
c4,
ff,
49,
26,
04,
ea,
2d,
d9,
2c,
e5,
f8,
25,
18,
c5,
1a,
f9,
ef,
d2,
1a,
c6,
ef,
e4,
f9,
da,
fb,
04,
3a,
39,
fb,
ec,
ef,
ff,
35,
cf,
17,
f5,
01,
09,
28,
0a,
c5,
f3,
ea,
1e,
e0,
26,
21,
05,
e8,
08,
07,
1c,
16,
f7,
fc,
0e,
d4,
c2,
05,
f9,
01,
fa,
5a,
0c,
f4,
fc,
f4,
f4,
ea,
08,
e8,
2c,
b6,
b2,
ff,
26,
f3,
12,
c6,
ff,
0e,
ca,
e4,
27,
08,
05,
ff,
e5,
e1,
08,
ed,
05,
09,
3b,
0e,
e3,
33,
00,
d1,
f9,
f0,
51,
27,
fe,
01,
b6,
39,
e8,
1a,
06,
f4,
fc,
20,
f1,
f5,
f9,
ee,
b9,
1b,
d3,
04,
12,
e3,
fe,
16,
ed,
05,
f3,
1b,
f7,
25,
ee,
bc,
3d,
f4,
01,
08,
2d,
e6,
0c,
fb,
e2,
fa,
09,
00,
01,
df,
ec,
f1,
12,
05,
fd,
61,
d6,
ff,
d1,
20,
09,
b5,
f1,
e6,
b6,
f9,
c2,
fb,
f8,
27,
29,
0b,
c1,
1d,
0d,
ff,
f9,
16,
f8,
24,
1f,
e2,
eb,
d5,
ef,
2f,
df,
3e,
d9,
72,
d8,
06,
b1,
21,
a2,
2b,
09,
11,
1e,
fd,
24,
05,
e5,
25,
06,
df,
dd,
00,
32,
b8,
a8,
11,
fc,
e2,
14,
4e,
06,
19,
00,
06,
da,
14,
f0,
09,
f1,
d1,
09,
05,
03,
d8,
ff,
da,
08,
f0,
21,
0d,
08,
10,
e8,
03,
39,
af,
12,
d6,
fe,
fd,
15,
e6,
ee,
ce,
22,
cd,
f8,
0a,
40,
f8,
ed,
f2,
a5,
fd,
1b,
0d,
d8,
08,
14,
c9,
40,
15,
0c,
1c,
0e,
0d,
dd,
db,
33,
bd,
f0,
fa,
d0,
fa,
2f,
1e,
18,
03,
df,
1c,
0e,
f0,
00,
08,
ec,
fc,
f3,
ea,
e8,
e7,
e5,
0e,
e6,
f9,
e2,
f7,
f4,
1e,
10,
2e,
ef,
db,
13,
15,
bf,
57,
fc,
fc,
c9,
3c,
dd,
d1,
11,
f2,
f2,
fc,
f8,
e8,
0f,
07,
e9,
08,
03,
2c,
14,
14,
f2,
c8,
33,
fb,
fa,
09,
0e,
f5,
e2,
18,
ea,
02,
39,
fd,
28,
ed,
d8,
ed,
02,
d6,
fa,
32,
43,
fc,
06,
08,
fa,
25,
db,
7f,
d6,
e1,
0b,
04,
de,
14,
02,
dc,
21,
da,
12,
0c,
0e,
17,
f2,
fe,
f7,
01,
e9,
29,
03,
02,
f6,
ea,
a8,
e6,
ee,
42,
11,
e5,
11,
0e,
ce,
1c,
20,
03,
de,
11,
1e,
ce,
12,
f7,
02,
34,
f5,
e7,
11,
ff,
cf,
ca,
e3,
00,
de,
50,
fb,
0e,
06,
f8,
06,
c0,
08,
2a,
24,
e2,
d8,
0c,
fb,
04,
ca,
0d,
18,
f6,
28,
fa,
19,
eb,
e7,
0b,
ee,
2f,
e1,
15,
f9,
ee,
ce,
1f,
f9,
01,
00,
cd,
fc,
34,
ea,
66,
e9,
20,
0e,
21,
be,
61,
17,
07,
ec,
00,
00,
db,
fd,
f5,
38,
f1,
38,
11,
04,
1b,
12,
ee,
e8,
03,
c5,
24,
19,
1a,
fa,
e8,
ee,
0a,
e4,
00,
1e,
04,
da,
fe,
4f,
c5,
1e,
f4,
f7,
ed,
f7,
e1,
fc,
01,
03,
05,
1d,
f5,
f0,
18,
06,
36,
14,
f2,
08,
03,
de,
f8,
f5,
01,
f2,
18,
fa,
f6,
ed,
2c,
e6,
08,
1d,
da,
de,
d7,
fb,
0e,
0f,
f3,
01,
df,
d9,
17,
43,
fc,
2e,
f1,
10,
f7,
fc,
f6,
2d,
08,
ed,
04,
ea,
d5,
07,
c3,
0c,
0d,
31,
ff,
ec,
f5,
f2,
e4,
27,
07,
14,
db,
17,
19,
10,
ff,
1e,
03,
fc,
05,
f2,
10,
0a,
f3,
f6,
f1,
fe,
fb,
0a,
f3,
0a,
f5,
12,
0f,
f1,
0f,
00,
08,
fb,
ff,
13,
04,
e8,
d3,
fe,
e0,
10,
e1,
19,
96,
26,
18,
1f,
f3,
f3,
c8,
19,
fc,
14,
39,
e5,
0d,
e7,
0b,
fe,
fb,
25,
18,
f4,
d1,
0b,
0a,
fa,
da,
f4,
c4,
24,
eb,
00,
ed,
e6,
0b,
01,
10,
3d,
23,
24,
13,
cc,
01,
f8,
e2,
2b,
f9,
fa,
f0,
f8,
db,
2e,
e3,
23,
03,
1b,
01,
27,
e6,
14,
ed,
c0,
ef,
e3,
c6,
ff,
07,
ec,
27,
e7,
32,
ed,
0b,
f2,
05,
21,
f7,
a0,
f8,
e8,
fb,
d2,
54,
d6,
06,
05,
b8,
3c,
fc,
08,
ed,
dd,
00,
02,
0e,
15,
f5,
f3,
f3,
fb,
e8,
06,
fe,
16,
f4,
eb,
ec,
20,
ed,
00,
f3,
14,
f6,
24,
1e,
f7,
0f,
0b,
05,
ef,
fa,
0d,
df,
11,
0f,
f5,
f3,
0a,
f0,
04,
0c,
1b,
cd,
0b,
05,
e9,
fe,
df,
02,
15,
ef,
fd,
0e,
f8,
f3,
33,
13,
2b,
f1,
f7,
22,
fd,
03,
09,
d0,
fd,
28,
d7,
0f,
03,
04,
03,
fa,
fb,
fd,
f6,
fe,
0f,
17,
0d,
cc,
ef,
b8,
21,
f3,
1a,
24,
eb,
47,
ed,
14,
02,
fd,
27,
e4,
f3,
f8,
17,
d2,
e8,
d9,
e8,
e0,
fa,
f7,
01,
0e,
04,
10,
03,
23,
8f,
34,
f6,
08,
eb,
31,
c7,
02,
0d,
e8,
2d,
de,
ed,
f1,
f4,
fb,
f3,
0f,
09,
f0,
77,
80,
ee,
01,
e7,
2c,
fc,
fa,
e8,
bf,
29,
e0,
18,
ff,
d6,
28,
10,
dd,
d0,
15,
0b,
e7,
fa,
f6,
0c,
cf,
1e,
ef,
12,
37,
db,
06,
17,
ff,
e5,
f7,
e7,
fc,
2e,
f7,
1a,
31,
06,
1d,
fb,
23,
f6,
fe,
06,
37,
d6,
04,
5b,
e8,
15,
b5,
20,
df,
0f,
e5,
08,
fe,
d8,
16,
fd,
19,
db,
02,
0c,
ee,
2d,
0a,
f5,
05,
0e,
05,
fe,
ea,
ed,
fe,
f8,
24,
20,
de,
e8,
3a,
d5,
0f,
dd,
02,
48,
f7,
e1,
e4,
f5,
03,
e2,
d5,
ee,
21,
ee,
e2,
61,
df,
e7,
fa,
29,
15,
12,
f1,
0c,
dd,
e3,
17,
f9,
f5,
21,
dc,
f5,
02,
15,
1a,
f5,
e7,
19,
c5,
19,
dd,
ff,
12,
0d,
f7,
d2,
1a,
0a,
47,
dc,
02,
07,
0d,
f2,
f9,
18,
ed,
ec,
17,
ce,
09,
f3,
45,
eb,
1f,
f5,
06,
d7,
2b,
f4,
32,
c5,
04,
f9,
b7,
1d,
f8,
01,
06,
05,
da,
09,
08,
0e,
f4,
eb,
ff,
22,
d0,
dc,
36,
d1,
c5,
23,
ec,
1d,
1a,
25,
1d,
f7,
ed,
2c,
e6,
0f,
05,
0c,
0e,
18,
09,
36,
0f,
ff,
08,
0c,
a9,
37,
e5,
de,
a6,
49,
c6,
53,
fb,
1f,
c8,
38,
03,
0d,
e6,
0e,
09,
0f,
03,
00,
dd,
eb,
fb,
ff,
00,
fd,
1d,
ef,
10,
fe,
1a,
df,
e1,
d7,
c9,
f3,
2b,
f7,
e6,
43,
12,
0c,
e6,
fc,
06,
fb,
f9,
f8,
e9,
44,
02,
26,
e4,
d5,
45,
b0,
24,
f6,
fe,
c5,
50,
15,
e8,
09,
f7,
ea,
11,
f3,
e9,
00,
09,
f8,
ff,
d5,
58,
ca,
07,
04,
03,
31,
fb,
07,
ee,
e7,
d0,
22,
1b,
e6,
0d,
0d,
35,
f8,
d1,
e7,
fd,
e6,
fd,
f7,
f1,
45,
cb,
1a,
e5,
02,
36,
0b,
d2,
fb,
d8,
12,
d8,
d5,
12,
ec,
ed,
f7,
01,
fa,
10,
16,
0a,
df,
ea,
e6,
ef,
fe,
2d,
fc,
13,
d7,
44,
01,
1a,
24,
15,
e9,
dc,
12,
ec,
e8,
c1,
15,
f8,
f6,
2d,
e9,
15,
0f,
cf,
ac,
22,
d7,
1b,
ed,
f3,
bb,
28,
fe,
1c,
0d,
1e,
30,
e4,
1e,
05,
e8,
d6,
02,
e3,
01,
08,
0c,
08,
eb,
0d,
ac,
19,
ee,
ef,
2f,
f0,
1c,
fd,
f8,
0c,
16,
2b,
fb,
dc,
00,
07,
fd,
d8,
f4,
1b,
fd,
01,
ed,
20,
ea,
12,
b7,
ee,
ff,
ec,
46,
e7,
17,
04,
f2,
12,
14,
f9,
f0,
28,
e6,
0c,
f8,
ff,
0b,
09,
e3,
17,
e1,
34,
ba,
37,
e9,
c8,
39,
f6,
4a,
da,
1b,
e6,
f9,
42,
0a,
0b,
0e,
fa,
18,
02,
07,
06,
f3,
df,
09,
f1,
fd,
15,
ea,
1b,
f9,
1c,
d7,
f2,
05,
0d,
fc,
28,
ee,
00,
f9,
ed,
f7,
fb,
fa,
1d,
f8,
f1,
ff,
0e,
e6,
2f,
ec,
06,
e8,
08,
dc,
d6,
f2,
fa,
e5,
35,
d1,
15,
f6,
20,
fc,
f9,
17,
fe,
07,
f7,
1e,
ed,
f3,
0d,
12,
0c,
10,
1b,
f0,
16,
1c,
9e,
f6,
f2,
f0,
e9,
0f,
1b,
10,
18,
0d,
e3,
d7,
ef,
fb,
fc,
d7,
ef,
21,
b4,
25,
f2,
f1,
0b,
d9,
ef,
31,
df,
00,
06,
c8,
14,
ea,
d6,
20,
e9,
0c,
19,
fa,
e4,
0f,
0c,
0e,
ee,
08,
14,
ed,
fc,
06,
f9,
0a,
fa,
f0,
fb,
06,
fd,
f9,
fe,
f4,
04,
0e,
13,
f2,
f6,
06,
f3,
f3,
04,
ce,
36,
f8,
21,
2e,
f4,
c5,
df,
10,
e8,
43,
c5,
3e,
d9,
14,
c8,
2f,
cf,
fc,
25,
fa,
0b,
14,
0a,
09,
f8,
46,
ef,
41,
fe,
f8,
fd,
c4,
1f,
e8,
15,
37,
dc,
f7,
09,
31,
df,
e2,
f8,
07,
01,
ea,
24,
1d,
fc,
0a,
d2,
11,
0c,
da,
09,
08,
de,
0d,
10,
e1,
f8,
28,
10,
0a,
13,
e9,
f1,
f1,
f1,
ef,
04,
18,
f7,
f5,
fc,
da,
3a,
ff,
04,
05,
0e,
d8,
1b,
f2,
cc,
21,
e8,
14,
0d,
d2,
11,
34,
e8,
2a,
0f,
f1,
f3,
03,
f8,
04,
ed,
fa,
0f,
07,
fe,
fc,
08,
ea,
fe,
0a,
04,
07,
1b,
01,
eb,
f9,
e4,
1e,
fc,
05,
ee,
01,
f1,
04,
0e,
08,
32,
0c,
0f,
13,
0b,
09,
d3,
fa,
f0,
f3,
f5,
1f,
f8,
21,
e8,
f2,
df,
12,
ed,
fe,
00,
13,
01,
06,
14,
2b,
0e,
da,
fd,
cd,
11,
dd,
f9,
06,
d2,
4d,
15,
e9,
16,
22,
fd,
d3,
ed,
0f,
01,
05,
e9,
e6,
e8,
14,
32,
20,
c2,
d0,
10,
03,
85,
49,
f9,
f4,
1f,
01,
05,
c6,
e0,
1c,
0f,
f9,
dc,
14,
09,
ff,
ff,
d4,
f5,
fe,
1d,
0f,
d0,
d3,
03,
90,
d6,
24,
fc,
4b,
2e,
cd,
d7,
09,
0e,
9e,
34,
fa,
0c,
08,
dc,
fe,
f2,
d9,
1a,
23,
f7,
08,
21,
c2,
25,
fa,
0d,
f6,
3f,
e5,
0a,
e2,
e4,
31,
67,
f3,
37,
f8,
1f,
29,
05,
fc,
f3,
ee,
01,
00,
ec,
ed,
08,
d9,
e5,
fd,
f3,
1d,
06,
21,
0f,
21,
0b,
18,
fa,
0b,
d9,
22,
1a,
ee,
17,
14,
0a,
fb,
f6,
27,
0c,
cd,
fe,
26,
5f,
3b,
db,
d9,
eb,
14,
20,
ff,
db,
15,
f8,
09,
2b,
f8,
17,
ff,
c0,
33,
d3,
e5,
b9,
d3,
55,
f8,
24,
01,
cd,
28,
39,
c8,
d3,
d9,
1d,
29,
23,
fb,
1e,
f6,
0e,
d5,
d7,
17,
fa,
d7,
d7,
da,
e2,
df,
35,
35,
fb,
19,
4d,
fe,
9f,
14,
1e,
c6,
12,
02,
f3,
cd,
04,
0e,
fb,
f8,
ed,
f6,
ca,
15,
08,
d2,
06,
f9,
f3,
0a,
eb,
7f,
0f,
04,
11,
e9,
13,
a9,
32,
1b,
f9,
f7,
ed,
ec,
19,
f9,
1b,
cf,
20,
dc,
20,
e1,
fb,
14,
11,
e1,
7a,
e0,
fd,
24,
f6,
c9,
2f,
ae,
04,
13,
ec,
e3,
f3,
27,
ff,
ee,
da,
fc,
3b,
14,
bf,
f8,
b7,
e7,
1c,
d2,
27,
1f,
ce,
ee,
d5,
ae,
23,
0e,
66,
9e,
e4,
3a,
e3,
13,
20,
e5,
19,
e9,
da,
f1,
da,
5e,
c9,
f0,
cf,
43,
a8,
1a,
27,
1a,
ac,
71,
c0,
2a,
f5,
f5,
cb,
ef,
1e,
18,
f3,
d9,
f2,
04,
3c,
eb,
42,
f7,
b7,
33,
0b,
fd,
c6,
01,
09,
b9,
6a,
20,
dc,
e2,
f8,
12,
0c,
c0,
b9,
ea,
fe,
04,
0e,
2e,
da,
51,
13,
06,
f8,
11,
01,
16,
08,
fd,
ea,
e2,
d6,
fa,
0c,
04,
01,
04,
d8,
ed,
ee,
01,
f4,
bc,
1f,
cb,
2f,
fe,
f4,
02,
41,
0a,
01,
dd,
2e,
13,
f3,
0b,
ff,
1b,
ad,
21,
04,
e7,
04,
18,
0f,
ba,
14,
e8,
01,
0e,
ef,
ea,
39,
c2,
bb,
3b,
f2,
1e,
52,
34,
eb,
0a,
dc,
04,
ca,
ee,
14,
16,
ce,
fe,
e4,
0e,
d9,
c9,
07,
01,
ec,
e9,
f1,
f3,
27,
0b,
07,
d1,
0c,
d5,
2f,
1b,
f0,
f6,
24,
05,
c3,
29,
f5,
00,
2c,
e1,
37,
ef,
48,
3e,
b4,
06,
e4,
0f,
11,
e9,
35,
d4,
17,
3e,
ee,
12,
e6,
03,
f6,
3d,
03,
23,
02,
f9,
f4,
dc,
26,
33,
e7,
00,
48,
b5,
0b,
d3,
ef,
0f,
23,
08,
f5,
2a,
fc,
0f,
25,
f6,
2a,
01,
fa,
16,
03,
20,
33,
f1,
17,
de,
c9,
e9,
5f,
2b,
dc,
48,
d7,
02,
1d,
f3,
26,
b8,
fb,
f1,
ef,
f8,
e3,
fe,
f4,
29,
09,
df,
16,
01,
f4,
cd,
6a,
b7,
f5,
01,
ec,
f9,
d2,
ec,
f9,
f6,
fc,
e1,
f2,
f7,
df,
02,
1a,
e3,
e9,
d6,
19,
e6,
e0,
0a,
f5,
27,
df,
f1,
22,
e5,
08,
f3,
14,
0e,
db,
ee,
f5,
10,
1c,
0a,
0c,
28,
f1,
11,
09,
b1,
26,
31,
f4,
2f,
f7,
3b,
fb,
e6,
ff,
e7,
0b,
e6,
01,
20,
00,
de,
f4,
18,
d8,
f7,
02,
dd,
d3,
f7,
50,
f9,
f1,
ab,
5b,
2d,
c2,
e2,
10,
c8,
0b,
0d,
f0,
d2,
2e,
04,
ef,
16,
e6,
fe,
2f,
10,
1f,
f0,
c5,
1e,
1e,
09,
1e,
0f,
95,
06,
06,
be,
30,
f8,
fc,
e8,
d6,
05,
f7,
fb,
03,
0f,
08,
f0,
07,
12,
f8,
12,
f6,
01,
11,
fc,
e5,
e6,
f9,
f6,
16,
12,
f9,
13,
f0,
f6,
13,
f0,
10,
1b,
08,
06,
02,
1f,
09,
c9,
0d,
04,
f8,
30,
fa,
f0,
b4,
e0,
41,
b3,
de,
d6,
26,
09,
f2,
e6,
04,
1b,
1b,
00,
07,
fb,
ed,
ef,
08,
03,
09,
ea,
f9,
e0,
b8,
1e,
08,
02,
f6,
16,
fc,
ee,
2e,
08,
09,
ff,
23,
22,
fd,
27,
d7,
08,
e8,
de,
ec,
1c,
d0,
f6,
08,
16,
44,
2f,
dc,
f3,
0d,
df,
fa,
f1,
1b,
ec,
53,
00,
fe,
10,
d8,
ee,
00,
dd,
fe,
25,
41,
ad,
d8,
dc,
1e,
22,
15,
07,
02,
e1,
ff,
04,
0b,
33,
0d,
0b,
fc,
0f,
02,
03,
fb,
1a,
11,
07,
f2,
f8,
20,
0f,
e7,
10,
18,
ee,
f1,
ed,
ff,
e2,
03,
f8,
10,
f1,
fd,
0c,
12,
e2,
ff,
28,
f6,
f2,
35,
aa,
12,
ee,
fa,
d2,
ed,
1e,
fb,
fc,
0d,
eb,
f1,
fa,
e3,
2f,
ec,
13,
00,
21,
fa,
dc,
c6,
23,
f0,
0b,
35,
26,
e6,
f6,
ec,
df,
f2,
12,
e6,
f8,
39,
f5,
dd,
fd,
18,
e1,
1b,
d7,
0c,
e7,
e0,
e7,
1c,
26,
0c,
d7,
41,
e9,
2b,
2c,
e2,
18,
e5,
20,
c6,
f4,
06,
1d,
ea,
d2,
17,
0c,
04,
32,
dc,
f1,
2b,
07,
cf,
0c,
d2,
15,
e9,
1c,
d1,
f9,
2b,
de,
f5,
f8,
00,
2c,
09,
18,
52,
fc,
ff,
d4,
23,
da,
f5,
d0,
15,
fb,
ba,
3f,
ea,
0d,
f9,
17,
04,
35,
f8,
f9,
cb,
f5,
fc,
fd,
ea,
e7,
01,
dc,
f8,
ef,
15,
de,
10,
f3,
f4,
5d,
05,
23,
c9,
0e,
e6,
d3,
27,
ff,
e2,
58,
01,
e7,
20,
c6,
e8,
dd,
20,
d0,
0a,
e2,
e0,
2d,
e2,
dd,
44,
24,
ba,
05,
db,
30,
c7,
3d,
c9,
c9,
30,
1b,
07,
3e,
14,
27,
e4,
e9,
14,
09,
01,
13,
fd,
20,
d4,
f7,
fc,
54,
e4,
da,
d2,
36,
14,
33,
ff,
a6,
e6,
37,
c5,
eb,
f1,
2f,
f4,
fe,
05,
de,
ed,
05,
19,
f3,
e4,
d7,
0b,
22,
0b,
29,
e7,
d2,
d8,
16,
3a,
3c,
f2,
ea,
0a,
ea,
c3,
ff,
05,
0c,
08,
f0,
f5,
eb,
c9,
3e,
cd,
5a,
04,
e0,
37,
ee,
4a,
97,
be,
5b,
f3,
ff,
25,
1a,
e7,
1b,
fb,
f7,
43,
fd,
0b,
07,
dc,
dc,
f4,
d2,
fd,
2d,
e1,
18,
ec,
ff,
b0,
be,
1c,
18,
31,
09,
44,
fa,
d3,
eb,
0f,
13,
0d,
24,
ed,
0a,
f0,
09,
2b,
cd,
43,
0c,
2b,
c9,
80,
60,
fc,
21,
16,
13,
d1,
db,
18,
ef,
cf,
09,
e7,
e6,
cf,
ed,
ee,
02,
ee,
57,
e5,
4f,
ec,
0f,
a6,
e7,
3b,
fd,
11,
6d,
ef,
1f,
f5,
3d,
ef,
c5,
e3,
0c,
bb,
c7,
ff,
05,
f5,
1f,
cc,
15,
27,
0d,
f1,
ee,
e8,
03,
e0,
e6,
2a,
37,
0f,
ea,
1f,
d5,
30,
cf,
33,
f4,
08,
f2,
da,
f8,
dc,
f1,
cf,
2c,
00,
13,
07,
18,
ea,
22,
f0,
39,
ef,
e7,
15,
d4,
03,
fc,
00,
16,
01,
eb,
20,
3c,
f5,
ec,
09,
e0,
ae,
1c,
45,
28,
1a,
14,
0d,
96,
d6,
32,
ff,
f5,
11,
21,
0f,
e0,
1c,
e5,
f2,
23,
ec,
fa,
f6,
e0,
5c,
0b,
e5,
ec,
e6,
ef,
07,
f6,
f2,
c7,
05,
06,
f3,
2d,
0f,
22,
07,
14,
e8,
09,
1e,
c0,
fa,
35,
f3,
fa,
08,
dd,
d7,
86,
08,
08,
d5,
72,
30,
a4,
4d,
fc,
27,
bb,
ef,
ef,
27,
da,
f3,
ef,
0a,
36,
1d,
e1,
f1,
0c,
ea,
dc,
fe,
3c,
d9,
fb,
31,
0c,
ee,
fc,
e4,
f5,
07,
d5,
0f,
01,
fc,
e3,
37,
f3,
20,
fa,
fc,
e0,
f3,
18,
21,
e5,
e7,
25,
e2,
11,
4f,
0b,
e3,
18,
c9,
fa,
f2,
19,
f6,
fb,
02,
1f,
fb,
1a,
b4,
41,
1a,
0c,
2a,
00,
2c,
4f,
bd,
e5,
26,
11,
d1,
4f,
e0,
38,
05,
e1,
10,
f0,
24,
ff,
f4,
12,
f6,
1c,
ee,
07,
f4,
ff,
d4,
18,
2b,
f1,
fd,
e0,
11,
88,
3f,
0b,
e3,
40,
cf,
00,
1d,
2d,
f7,
1f,
ed,
fb,
fb,
10,
01,
fa,
f6,
12,
1b,
0b,
eb,
14,
dc,
cf,
19,
de,
f4,
e4,
23,
f7,
13,
31,
19,
e9,
fc,
eb,
10,
30,
f4,
ea,
f2,
09,
2b,
f6,
5b,
f7,
07,
f7,
e3,
e7,
f5,
eb,
01,
fb,
1f,
f2,
1e,
d4,
f5,
14,
fc,
f0,
e7,
ef,
19,
c9,
cc,
fe,
e3,
0e,
19,
fb,
06,
1c,
21,
e4,
02,
24,
e5,
f7,
e1,
02,
45,
fd,
0b,
06,
fc,
cd,
d6,
d5,
ee,
17,
0d,
dc,
05,
00,
f9,
01,
1a,
ec,
ef,
05,
25,
05,
ea,
0e,
f2,
13,
06,
f1,
ea,
f7,
1d,
14,
08,
22,
07,
f1,
11,
01,
01,
19,
fb,
1c,
fa,
11,
e9,
f3,
13,
e6,
1a,
e1,
27,
d2,
09,
dc,
ef,
14,
bb,
18,
01,
30,
ff,
e0,
25,
35,
2f,
0d,
00,
ed,
e7,
f7,
07,
cf,
d8,
02,
10,
36,
13,
09,
08,
f9,
00,
06,
2e,
e9,
fe,
07,
ad,
ea,
cd,
fa,
03,
40,
ed,
fe,
0e,
09,
09,
cd,
03,
10,
0f,
d1,
fa,
1b,
04,
16,
ed,
06,
35,
03,
01,
31,
a0,
fd,
dc,
05,
ee,
05,
02,
f1,
e6,
e3,
ce,
18,
ef,
0b,
2f,
2d,
f3,
05,
ce,
2f,
d3,
fe,
0f,
da,
f6,
e9,
1e,
05,
06,
f5,
1f,
f8,
07,
f6,
13,
ec,
1e,
00,
06,
f2,
f6,
fe,
f2,
0f,
1b,
07,
e2,
fb,
01,
12,
04,
fa,
1a,
04,
ff,
17,
f7,
e3,
0f,
e1,
ed,
09,
20,
f7,
1a,
35,
08,
0f,
0e,
d5,
1b,
0d,
12,
f9,
17,
eb,
2c,
1d,
e8,
0a,
24,
ec,
da,
15,
12,
f2,
28,
c4,
49,
17,
ed,
ef,
03,
e0,
d0,
1c,
12,
e9,
2c,
1e,
ba,
1f,
d2,
db,
d4,
24,
09,
eb,
02,
ca,
2a,
ef,
d8,
f8,
23,
e6,
0d,
ae,
34,
17,
e3,
27,
de,
51,
dc,
c7,
1d,
23,
bb,
f7,
dc,
d5,
cd,
27,
04,
db,
22,
1d,
c3,
fe,
18,
31,
f8,
24,
ce,
0c,
04,
03,
02,
d0,
31,
11,
d1,
c3,
d3,
01,
f8,
02,
f9,
fc,
d8,
04,
0d,
d9,
7f,
e2,
d0,
11,
27,
19,
f3,
c3,
c5,
dc,
31,
06,
0f,
1c,
df,
e3,
12,
f7,
ea,
ee,
0e,
33,
28,
f9,
d4,
15,
ce,
f9,
d0,
2a,
f6,
dd,
d9,
28,
ea,
ee,
03,
12,
11,
f2,
ef,
f2,
04,
24,
f7,
14,
0f,
16,
0d,
41,
26,
05,
ee,
e7,
fc,
dd,
08,
d2,
f0,
26,
1d,
37,
da,
18,
20,
d9,
23,
de,
03,
d8,
08,
10,
d8,
fb,
20,
36,
d3,
28,
1e,
f3,
c7,
19,
29,
d3,
20,
f4,
e6,
13,
cb,
34,
e6,
e0,
e2,
dc,
f5,
06,
15,
e0,
0f,
26,
14,
de,
36,
3d,
f5,
23,
14,
01,
e5,
d1,
21,
d1,
04,
c9,
e0,
d0,
cf,
1b,
f8,
f0,
f0,
fc,
e0,
d3,
21,
f3,
2d,
03,
03,
ec,
f1,
e5,
b3,
d7,
29,
ed,
ca,
1e,
fd,
22,
02,
03,
f6,
ff,
00,
fc,
26,
d7,
02,
e4,
1f,
0d,
dc,
01,
f1,
23,
ea,
d1,
df,
54,
d4,
1c,
04,
31,
f5,
d4,
f0,
09,
f8,
03,
2b,
f5,
02,
16,
2c,
09,
df,
33,
ee,
c7,
01,
b0,
cf,
ff,
1b,
f7,
1a,
03,
1b,
da,
17,
f2,
f2,
28,
17,
1a,
2d,
ea,
de,
0d,
fb,
db,
f4,
cc,
b8,
42,
31,
f0,
d3,
07,
0f,
00,
d5,
f2,
f6,
25,
f4,
e2,
19,
16,
36,
eb,
e5,
29,
18,
ec,
0b,
df,
ec,
f4,
0d,
dd,
1e,
b6,
26,
26,
03,
18,
fc,
ff,
19,
f8,
d7,
ee,
d1,
e8,
d7,
ea,
0e,
19,
1c,
07,
d4,
ff,
1b,
17,
ad,
25,
05,
0d,
0b,
1e,
0f,
e6,
fc,
ee,
ea,
e1,
e4,
22,
e4,
d5,
d8,
e9,
e2,
4f,
f7,
0c,
e6,
e8,
dc,
06,
f0,
e5,
a5,
15,
2d,
08,
eb,
03,
db,
0a,
f6,
e9,
f3,
2b,
10,
e9,
c4,
1b,
c7,
0b,
25,
e0,
05,
10,
c3,
02,
c7,
ed,
12,
d6,
d4,
1b,
12,
e0,
0a,
24,
f8,
d7,
ee,
37,
d5,
f9,
2d,
07,
f8,
df,
35,
fe,
29,
18,
fb,
df,
ec,
fa,
29,
c6,
e5,
19,
e3,
fa,
ec,
0c,
10,
09,
23,
ec,
1d,
1e,
23,
22,
ea,
2f,
e2,
12,
19,
02,
04,
13,
01,
37,
01,
0b,
10,
1b,
d2,
e7,
0d,
12,
df,
e8,
12,
f6,
ee,
fb,
ba,
3e,
0d,
eb,
e9,
1e,
fd,
1e,
14,
20,
0c,
1b,
bc,
1d,
eb,
1b,
1d,
10,
e2,
ed,
e9,
24,
07,
e8,
3a,
dd,
c4,
cf,
21,
27,
38,
36,
e9,
e0,
ca,
ff,
0b,
1a,
d2,
17,
fa,
15,
e6,
f3,
08,
fa,
fa,
e0,
14,
53,
c5,
f7,
31,
f7,
e9,
f1,
10,
f3,
1c,
25,
e5,
d3,
07,
fa,
13,
d7,
07,
d8,
da,
03,
19,
e8,
0e,
07,
0a,
da,
e9,
25,
f0,
31,
e3,
e1,
d0,
17,
19,
0a,
1a,
d9,
e5,
db,
21,
ec,
ee,
f2,
15,
22,
14,
03,
e1,
22,
ed,
fa,
06,
0e,
fa,
0d,
e9,
2d,
0a,
f6,
ea,
0c,
f2,
db,
ff,
24,
d9,
28,
f6,
fb,
24,
1d,
07,
2d,
2b,
bd,
0f,
11,
bc,
e5,
e7,
17,
1b,
23,
d0,
d0,
cd,
fd,
27,
2c,
f5,
d1,
fa,
ef,
ee,
ff,
d3,
e3,
50,
37,
fc,
e4,
0d,
05,
0a,
fe,
f7,
1b,
07,
f0,
07,
22,
07,
f1,
f8,
e7,
dd,
f4,
29,
19,
2a,
f9,
f7,
2c,
1c,
f3,
d6,
05,
ed,
d1,
22,
0c,
fa,
0c,
fb,
11,
19,
fa,
ea,
d7,
02,
f2,
df,
fe,
d4,
04,
08,
eb,
c8,
2d,
02,
df,
f2,
38,
ec,
f2,
d8,
f1,
13,
df,
2a,
ca,
2d,
dc,
d9,
13,
04,
11,
e4,
e0,
1e,
20,
05,
c9,
fe,
02,
e6,
00,
4d,
f5,
e4,
0b,
17,
34,
e1,
e0,
e8,
f8,
fb,
e4,
01,
d5,
1a,
d2,
f8,
0c,
24,
f3,
01,
1b,
bb,
d9,
d8,
f3,
0f,
12,
34,
24,
2f,
28,
f6,
1d,
f7,
13,
fb,
07,
d4,
f1,
05,
eb,
fb,
1a,
10,
2f,
da,
05,
05,
dd,
21,
00,
fc,
24,
fe,
3a,
3e,
13,
f2,
e0,
32,
e8,
0b,
e2,
12,
da,
19,
2a,
03,
de,
e2,
18,
f6,
e9,
0e,
20,
fb,
1a,
d5,
0c,
05,
01,
16,
22,
09,
e9,
1f,
e1,
09,
e4,
11,
e5,
23,
0f,
01,
ec,
fe,
e4,
ef,
f3,
ed,
e1,
2e,
04,
dd,
35,
f9,
11,
0d,
f0,
11,
c2,
fd,
0f,
02,
0d,
0a,
fd,
f3,
fe,
fb,
cd,
ec,
ff,
ff,
17,
05,
ff,
06,
f9,
1f,
ce,
11,
16,
02,
0f,
de,
00,
30,
fe,
f9,
11,
00,
09,
fc,
24,
cc,
01,
ed,
ef,
23,
18,
3d,
c0,
bd,
31,
08,
e0,
ff,
d3,
28,
2b,
ca,
05,
0d,
1c,
da,
d7,
2f,
02,
db,
ea,
c9,
0f,
bf,
23,
f6,
1f,
03,
bf,
32,
b9,
36,
01,
0e,
2e,
96,
62,
04,
fa,
dd,
ee,
41,
02,
f5,
de,
1e,
e3,
0f,
3e,
a5,
6b,
ed,
d2,
15,
e4,
32,
ed,
3f,
01,
f5,
e4,
c6,
d7,
f7,
05,
d6,
00,
0b,
17,
0a,
e5,
1c,
fc,
f5,
16,
fb,
e4,
f5,
e8,
05,
be,
3d,
22,
fc,
d7,
37,
f2,
15,
06,
00,
0d,
e4,
14,
ea,
1e,
cc,
04,
23,
05,
11,
01,
f4,
18,
32,
3d,
e1,
17,
34,
ed,
f1,
f7,
21,
1d,
e1,
eb,
fa,
0b,
00,
0d,
f3,
d8,
f0,
f2,
18,
29,
f9,
29,
00,
b4,
3a,
df,
28,
c9,
e1,
4c,
e1,
2e,
ff,
e9,
01,
df,
0d,
ef,
ee,
fe,
01,
e4,
00,
ef,
10,
0d,
f4,
fd,
e7,
f4,
d8,
ef,
fb,
ed,
02,
fa,
1c,
01,
ee,
e6,
f9,
12,
e0,
f4,
11,
f5,
10,
00,
d6,
2c,
e2,
1d,
fe,
18,
10,
f7,
09,
03,
0a,
d7,
09,
29,
f3,
fa,
0b,
1a,
f1,
16,
e8,
f6,
d9,
e1,
ea,
c4,
06,
09,
ef,
de,
d8,
43,
27,
48,
1f,
d0,
19,
c6,
f3,
1f,
ee,
fd,
fb,
00,
07,
ff,
02,
1e,
d3,
eb,
00,
e2,
fc,
21,
ec,
e5,
cd,
2f,
0e,
b8,
e4,
ef,
0a,
1f,
b6,
ff,
11,
1b,
08,
cd,
18,
00,
ed,
c5,
fc,
e4,
f5,
05,
05,
f9,
ee,
28,
e7,
f2,
1c,
1a,
cc,
f5,
53,
c6,
fd,
0e,
f6,
f2,
e9,
10,
f3,
f7,
22,
d8,
f7,
e7,
fe,
ce,
1c,
fb,
0b,
be,
fd,
15,
29,
07,
e4,
7f,
e8,
ed,
1c,
f6,
eb,
ea,
03,
35,
fb,
da,
f4,
19,
f5,
df,
ee,
15,
0d,
ec,
66,
fd,
f2,
ef,
17,
f0,
e8,
08,
f9,
11,
ef,
02,
f3,
fd,
0f,
e0,
2f,
11,
ff,
f5,
0c,
ea,
1b,
ff,
f6,
18,
1f,
d2,
e8,
1b,
26,
fa,
0d,
d9,
f3,
00,
f5,
02,
04,
f0,
22,
f9,
d8,
f2,
00,
03,
27,
fd,
fe,
02,
1f,
a3,
11,
f6,
0e,
ff,
f5,
18,
f1,
11,
0e,
0e,
d4,
e3,
2a,
0e,
08,
1a,
ec,
1c,
ec,
26,
0c,
04,
12,
d4,
11,
14,
fa,
ce,
0d,
06,
2c,
00,
d2,
0f,
e1,
00,
fe,
cf,
ea,
f1,
f1,
2c,
e0,
c2,
02,
0b,
51,
cb,
40,
0b,
25,
2a,
cf,
21,
a4,
f6,
e1,
eb,
0f,
dc,
27,
0b,
f0,
1f,
21,
20,
e0,
0a,
01,
ea,
0e,
fc,
e8,
1c,
14,
f9,
ed,
ff,
11,
07,
fc,
09,
f8,
d5,
f7,
f3,
eb,
15,
ee,
f7,
f3,
06,
55,
fa,
34,
e5,
05,
25,
82,
27,
f3,
e1,
0e,
22,
66,
15,
01,
0e,
be,
e6,
f9,
f1,
04,
00,
ee,
ee,
1d,
98,
16,
b5,
fe,
0f,
ee,
f7,
e0,
1b,
e5,
04,
17,
25,
fc,
ef,
13,
05,
fb,
fc,
29,
15,
f5,
06,
17,
0d,
da,
ec,
43,
df,
21,
0d,
f2,
4c,
d6,
fd,
e8,
0b,
08,
ed,
f1,
0c,
01,
ff,
06,
eb,
0e,
ea,
00,
f0,
f7,
fb,
e9,
11,
f3,
1b,
fe,
f6,
03,
11,
f7,
f8,
12,
06,
e2,
f8,
f6,
ec,
e9,
ff,
01,
01,
e3,
08,
07,
e9,
d1,
12,
ef,
ff,
09,
0d,
d8,
0e,
08,
14,
39,
25,
1f,
b2,
07,
f2,
d4,
22,
d3,
0f,
0f,
c6,
f6,
12,
d1,
2f,
c1,
6c,
f7,
f7,
46,
ab,
1f,
db,
f2,
19,
02,
db,
0c,
f9,
04,
f1,
fa,
fc,
0c,
f3,
06,
0f,
f9,
0a,
0e,
07,
f6,
f8,
09,
0b,
0d,
07,
01,
06,
08,
08,
0c,
f2,
fd,
03,
fb,
fb,
07,
13,
ca,
0d,
e8,
f8,
11,
d1,
04,
09,
1c,
de,
fa,
6f,
bc,
dd,
d6,
17,
15,
e6,
fc,
f3,
0e,
0d,
f5,
0f,
12,
06,
1a,
10,
dd,
27,
b6,
4f,
de,
d1,
2e,
de,
62,
a9,
1c,
33,
e3,
26,
dd,
ed,
ee,
02,
f8,
f9,
00,
e0,
e5,
1a,
e7,
0a,
e3,
ee,
09,
0d,
43,
00,
19,
1f,
cc,
eb,
f5,
f8,
fc,
0d,
ec,
f3,
f2,
fe,
e7,
0e,
fe,
f8,
0c,
1d,
fc,
03,
14,
da,
fd,
d6,
d9,
e8,
10,
09,
fd,
26,
16,
4a,
bc,
15,
e1,
15,
e2,
04,
ec,
f7,
00,
0e,
ed,
0f,
f6,
fc,
e8,
02,
10,
f7,
f3,
d7,
1b,
f1,
07,
0c,
e5,
21,
db,
fc,
f3,
f7,
0b,
f2,
f9,
0a,
00,
30,
ea,
e7,
e2,
22,
d8,
d9,
de,
0c,
0c,
09,
0c,
d4,
10,
f6,
f7,
e9,
22,
df,
01,
31,
fd,
32,
0f,
01,
1a,
28,
45,
d5,
23,
2a,
48,
24,
d4,
13,
ac,
dd,
04,
e0,
0e,
c6,
f7,
0c,
1b,
1c,
c1,
12,
24,
3a,
08,
fd,
e6,
39,
e6,
aa,
1d,
4f,
11,
d4,
04,
48,
f4,
cc,
32,
1b,
0e,
f4,
e9,
10,
f0,
29,
ce,
ee,
1c,
47,
0b,
13,
1c,
c3,
d4,
e2,
cd,
cb,
ef,
c7,
e9,
e1,
e8,
f1,
ce,
bd,
f8,
1b,
fe,
cf,
ed,
03,
05,
0d,
d1,
ef,
cf,
d9,
38,
ca,
56,
ef,
0a,
fe,
d5,
09,
e9,
b8,
a6,
b2,
c5,
1e,
b4,
2a,
b9,
1f,
d1,
06,
1b,
f8,
cb,
fa,
42,
e7,
0a,
f2,
0a,
11,
ca,
d0,
0a,
d1,
36,
39,
d4,
fb,
1a,
21,
48,
c3,
18,
1f,
0a,
1d,
e5,
15,
ee,
fb,
eb,
e4,
2c,
4d,
fe,
fe,
1d,
1a,
cb,
c3,
0c,
0d,
4c,
20,
12,
f7,
e8,
fe,
f1,
0f,
24,
2f,
ea,
dd,
de,
ed,
2b,
e8,
f5,
00,
c4,
99,
ee,
37,
4b,
f9,
b4,
e4,
60,
10,
b8,
b2,
05,
1d,
07,
f3,
e2,
07,
ee,
df,
03,
cc,
bb,
14,
36,
d3,
01,
c2,
e3,
0a,
30,
1e,
f8,
ff,
21,
38,
e8,
ec,
d7,
25,
d5,
03,
0e,
f4,
16,
e7,
8f,
e2,
da,
e4,
ea,
01,
09,
f0,
10,
f8,
0e,
52,
cb,
d5,
e7,
f4,
ee,
0e,
11,
ee,
de,
fa,
2a,
33,
bc,
e7,
1a,
11,
d2,
c9,
1a,
09,
05,
ed,
c8,
07,
3d,
d2,
cd,
c1,
f8,
cc,
f9,
12,
ff,
21,
05,
dd,
e4,
d5,
1f,
23,
45,
0a,
f6,
49,
e3,
20,
27,
05,
64,
e1,
51,
0f,
e0,
26,
11,
eb,
d7,
df,
db,
27,
de,
fa,
21,
27,
19,
fd,
ff,
03,
c2,
3a,
c4,
f3,
1b,
04,
f0,
ff,
2f,
dd,
d8,
4e,
f1,
19,
0c,
02,
fe,
e9,
ef,
e5,
2b,
e8,
f5,
1b,
17,
4f,
a6,
04,
26,
f5,
1e,
dd,
47,
09,
ce,
02,
c4,
d8,
1e,
01,
bf,
d8,
07,
f8,
db,
ea,
ef,
06,
24,
c9,
02,
21,
f1,
c7,
1e,
de,
08,
c0,
cb,
e8,
f6,
d9,
e3,
24,
23,
15,
ed,
1a,
ff,
fb,
f3,
f4,
17,
de,
eb,
ed,
42,
de,
08,
19,
df,
14,
0f,
e7,
eb,
06,
e9,
f1,
fe,
fd,
27,
3d,
f6,
1e,
08,
0f,
0a,
02,
fb,
de,
8c,
24,
15,
1e,
20,
f5,
cb,
0b,
20,
07,
9b,
f3,
e8,
27,
da,
f0,
02,
f5,
f1,
f5,
f9,
05,
39,
fa,
17,
da,
31,
b6,
f8,
df,
3a,
27,
c1,
25,
f6,
df,
01,
07,
e8,
25,
fb,
f5,
36,
f0,
0d,
f0,
67,
b2,
e2,
fa,
c9,
25,
ab,
f9,
e5,
f2,
09,
fa,
19,
ed,
fc,
29,
ff,
dd,
1e,
04,
0b,
e5,
05,
1e,
f9,
c4,
2a,
e8,
0c,
e9,
3c,
f2,
0f,
2f,
0f,
48,
e6,
ce,
2d,
c6,
1e,
d4,
0d,
27,
ba,
ed,
fd,
2e,
0f,
05,
12,
1b,
ec,
1a,
bf,
ff,
22,
03,
cc,
11,
d3,
fd,
20,
c4,
e5,
fe,
f7,
08,
f9,
0d,
2b,
e0,
ff,
1d,
17,
08,
ee,
c8,
0c,
d2,
f1,
ec,
0a,
06,
fc,
e3,
d0,
e2,
2e,
d1,
fa,
0d,
d6,
d2,
ec,
f1,
05,
0f,
0e,
e9,
07,
f0,
e9,
00,
18,
0b,
15,
08,
1f,
30,
0c,
e1,
19,
16,
0a,
e3,
0a,
e2,
29,
26,
09,
d4,
f5,
ea,
19,
c7,
fb,
d7,
32,
14,
0a,
fc,
de,
0e,
c9,
dd,
f3,
13,
04,
2a,
f5,
e4,
14,
3a,
c8,
f5,
e2,
dc,
f6,
b6,
d9,
1c,
ea,
be,
ce,
1e,
db,
f5,
19,
eb,
28,
7f,
de,
df,
ca,
0c,
05,
1a,
f6,
02,
1b,
1f,
e6,
16,
33,
c3,
27,
0f,
13,
62,
c9,
11,
10,
13,
21,
02,
e1,
0d,
05,
f6,
02,
f2,
04,
e4,
fe,
05,
1b,
e7,
f7,
21,
10,
21,
f0,
ec,
1a,
f5,
f5,
04,
f9,
12,
ed,
f1,
1d,
22,
1b,
0c,
20,
21,
18,
e5,
ec,
07,
de,
ec,
36,
25,
f2,
1b,
f2,
39,
26,
d0,
0d,
47,
3b,
fa,
ea,
01,
26,
2c,
e1,
05,
fa,
2c,
0f,
06,
dd,
d7,
1a,
fa,
15,
31,
d8,
22,
4f,
32,
e2,
ed,
f5,
03,
1c,
df,
36,
08,
f6,
13,
fd,
f4,
00,
1f,
de,
46,
1d,
f4,
f4,
05,
e5,
d0,
16,
01,
c2,
0d,
00,
19,
15,
04,
3d,
e3,
dc,
ff,
ee,
1f,
17,
f1,
16,
f2,
fa,
fd,
0c,
c3,
25,
c9,
28,
f2,
e4,
51,
da,
03,
dc,
e4,
dd,
2a,
2f,
31,
eb,
dc,
e9,
fb,
10,
19,
15,
10,
16,
fa,
05,
16,
0d,
0b,
23,
1a,
1e,
ed,
e4,
e2,
fa,
f3,
13,
1a,
f8,
17,
13,
05,
19,
e0,
f3,
12,
1e,
0b,
e8,
0f,
17,
e6,
00,
f5,
f2,
00,
fd,
0e,
23,
f1,
0e,
e5,
38,
df,
0e,
05,
1d,
e3,
d6,
de,
14,
0e,
ea,
05,
e5,
ec,
17,
2f,
ec,
cb,
f9,
07,
f3,
37,
f7,
f2,
ea,
74,
b5,
c9,
09,
1c,
1d,
06,
17,
08,
f9,
e9,
f3,
f4,
3b,
0d,
20,
e5,
50,
f1,
ea,
d0,
50,
04,
1b,
e1,
25,
27,
15,
f6,
04,
e0,
fc,
f9,
d7,
fd,
28,
f4,
20,
e1,
ff,
f5,
0e,
dc,
0f,
f3,
10,
10,
28,
f7,
12,
45,
80,
0b,
20,
ed,
f4,
03,
ff,
ee,
e7,
f6,
d8,
f2,
e7,
ea,
bf,
27,
f1,
3b,
13,
a5,
65,
07,
dd,
e4,
d9,
23,
35,
c9,
f4,
e9,
0b,
0e,
f4,
f4,
f5,
d2,
1a,
fd,
04,
2b,
d4,
e3,
0c,
df,
2c,
02,
d1,
0c,
df,
19,
e5,
13,
d7,
1a,
1f,
1c,
e4,
ec,
03,
f9,
fc,
f4,
f3,
ec,
0a,
b1,
14,
ed,
0d,
26,
08,
0b,
db,
ed,
0f,
df,
0b,
f9,
10,
07,
eb,
fa,
0f,
e4,
e5,
e2,
06,
1b,
ef,
f8,
1a,
fa,
f7,
17,
eb,
2d,
ec,
c2,
d8,
31,
ce,
14,
e1,
13,
19,
f6,
04,
f4,
dc,
1f,
1c,
03,
0f,
17,
21,
cb,
e6,
1d,
ef,
41,
47,
b7,
d4,
eb,
07,
2e,
f9,
f0,
03,
f6,
21,
0a,
0a,
e4,
e2,
18,
ec,
17,
ef,
e5,
c5,
38,
22,
ef,
4b,
e7,
29,
01,
00,
b1,
de,
36,
05,
ef,
0b,
04,
1f,
07,
f0,
1a,
f1,
f1,
d3,
01,
eb,
2f,
0a,
12,
01,
3c,
dc,
19,
fa,
04,
0a,
f2,
fa,
bb,
e1,
01,
03,
0c,
f6,
1d,
d9,
fc,
d1,
0b,
09,
42,
1e,
d2,
ef,
11,
04,
54,
f3,
f8,
1e,
36,
f7,
e3,
2c,
e1,
f0,
e0,
22,
f0,
04,
12,
05,
f6,
ee,
08,
05,
1b,
e3,
19,
f3,
0e,
55,
03,
25,
d9,
1f,
b7,
2e,
0e,
fe,
14,
fd,
01,
12,
d6,
e8,
01,
0c,
14,
e3,
e0,
d1,
d8,
13,
0b,
df,
20,
ff,
e9,
e4,
44,
dd,
f8,
e3,
fd,
fe,
f0,
f7,
0c,
d9,
09,
10,
30,
04,
05,
f5,
01,
09,
13,
fb,
d3,
40,
e7,
13,
fd,
cd,
34,
d6,
09,
f8,
f2,
20,
f7,
e4,
f3,
0a,
ff,
f3,
08,
ef,
11,
fb,
23,
09,
09,
a0,
fb,
10,
0a,
19,
0d,
18,
25,
f4,
23,
14,
f2,
e7,
0c,
0b,
f6,
d2,
12,
32,
e8,
01,
0e,
fe,
f9,
e6,
c8,
70,
f1,
12,
e5,
0e,
c6,
28,
e6,
f0,
0a,
19,
e4,
0e,
eb,
e5,
f8,
2d,
f9,
04,
16,
a7,
f5,
0d,
19,
0a,
18,
0d,
f7,
06,
46,
dc,
08,
dd,
f8,
11,
2a,
e3,
f1,
19,
dc,
13,
2c,
23,
0e,
b4,
37,
12,
eb,
f0,
f8,
e4,
ce,
e8,
f2,
d6,
7b,
f4,
ea,
f1,
1e,
f1,
0f,
11,
0f,
0a,
ff,
0e,
18,
f9,
14,
d1,
e3,
08,
14,
fb,
28,
dc,
e8,
f4,
d0,
ec,
18,
da,
f1,
ec,
fc,
00,
13,
f0,
e6,
e2,
c4,
03,
d6,
e3,
db,
2f,
f4,
eb,
37,
96,
11,
14,
ff,
f1,
c7,
0f,
1f,
19,
f6,
e6,
13,
0c,
fc,
f9,
16,
00,
07,
ee,
e9,
0b,
19,
e2,
42,
d2,
44,
98,
17,
de,
1a,
48,
a6,
38,
ff,
0c,
f9,
05,
f9,
e7,
f7,
03,
0e,
0d,
22,
f9,
dc,
0b,
03,
00,
e8,
f8,
0d,
f3,
0b,
f6,
15,
f6,
fc,
e2,
ff,
eb,
07,
e6,
f0,
fe,
0e,
25,
15,
ff,
f5,
0e,
ef,
36,
fd,
0d,
0a,
b6,
db,
ee,
f7,
05,
20,
d8,
13,
f6,
ec,
2a,
08,
eb,
e7,
06,
18,
3d,
eb,
e4,
cd,
ff,
0a,
d9,
df,
58,
c7,
eb,
07,
d6,
e3,
14,
23,
f4,
11,
1a,
ff,
fa,
13,
01,
1a,
fd,
c2,
df,
e8,
e6,
e6,
f4,
00,
2b,
d3,
d2,
23,
fb,
05,
de,
06,
02,
08,
ea,
12,
0f,
fc,
ff,
0e,
ee,
e9,
11,
09,
f4,
ee,
1b,
ff,
fa,
ea,
e9,
f1,
f7,
03,
fa,
0f,
09,
ea,
ec,
02,
01,
f7,
19,
18,
f7,
01,
0d,
e0,
10,
c8,
2c,
bb,
d9,
2a,
f2,
0f,
e5,
e1,
18,
02,
f8,
9e,
21,
13,
16,
12,
f0,
de,
f7,
eb,
f2,
e9,
16,
f7,
cc,
e2,
e1,
dc,
09,
f1,
20,
c8,
fb,
03,
0e,
1f,
e5,
1a,
ff,
0b,
e7,
de,
13,
f1,
09,
ea,
11,
37,
0e,
10,
21,
ec,
fc,
0a,
39,
3e,
df,
f2,
f5,
35,
fa,
ea,
08,
16,
f4,
ef,
05,
f2,
13,
13,
fd,
e0,
03,
fa,
f9,
20,
04,
02,
ec,
35,
f8,
ef,
f8,
f6,
c7,
2d,
23,
ea,
18,
06,
0d,
f7,
fd,
fb,
f1,
14,
07,
fd,
e6,
fd,
04,
f9,
16,
13,
fc,
01,
12,
0e,
01,
ea,
ff,
f0,
eb,
0c,
0d,
05,
e9,
21,
ee,
13,
ed,
10,
0f,
08,
d5,
fe,
22,
e9,
f2,
12,
fc,
ed,
00,
ef,
f4,
f6,
04,
05,
f4,
d9,
14,
19,
c2,
fa,
fc,
f6,
cf,
fb,
0d,
fa,
01,
12,
e2,
f0,
ea,
0a,
0e,
f9,
09,
fb,
f3,
ed,
03,
06,
00,
e7,
0f,
f7,
1f,
25,
e5,
e9,
ef,
06,
0b,
fa,
fc,
e7,
ff,
f1,
fb,
08,
07,
05,
05,
02,
0d,
13,
fe,
0f,
dc,
1f,
11,
ff,
11,
2a,
c4,
41,
e1,
de,
1c,
12,
00,
eb,
0b,
f0,
ea,
f8,
10,
f3,
09,
f0,
11,
09,
fb,
1b,
f1,
1f,
02,
07,
36,
fb,
f9,
ed,
12,
ca,
1c,
12,
13,
f6,
ef,
06,
05,
0e,
f5,
03,
ee,
0b,
f0,
f7,
5d,
f3,
00,
03,
f6,
02,
cf,
26,
07,
0a,
11,
db,
fa,
05,
04,
04,
f6,
f6,
0f,
eb,
f2,
fb,
f4,
f9,
0f,
36,
f6,
e0,
1e,
d1,
04,
f3,
18,
03,
04,
30,
ee,
17,
df,
f4,
fb,
e8,
0e,
f7,
0b,
07,
04,
03,
eb,
3e,
c7,
16,
0b,
15,
fb,
12,
fc,
23,
ff,
c7,
ec,
18,
cf,
10,
e9,
e9,
e6,
ea,
ea,
f5,
02,
fb,
f3,
f7,
d0,
1b,
1c,
e7,
1e,
f2,
e7,
fa,
1e,
f0,
e5,
40,
cf,
29,
f2,
0c,
04,
0c,
f8,
ec,
ed,
03,
ea,
13,
05,
ff,
40,
e9,
2e,
e0,
10,
0d,
cc,
23,
e5,
fa,
e8,
39,
f0,
df,
07,
04,
e3,
15,
0e,
f7,
f2,
f0,
ef,
05,
04,
47,
f4,
02,
01,
3f,
a0,
36,
d9,
f6,
f8,
45,
e4,
fc,
04,
fb,
0b,
ea,
f3,
0b,
ff,
00,
15,
f8,
f6,
f2,
38,
ce,
01,
f7,
c5,
04,
01,
08,
f7,
fb,
ee,
fe,
1d,
ed,
ff,
f7,
00,
f0,
ef,
13,
e9,
ea,
fb,
0d,
cd,
19,
3b,
e0,
f6,
e4,
3a,
b6,
32,
ea,
18,
00,
f9,
2a,
01,
eb,
0d,
e2,
f6,
00,
08,
07,
0f,
ff,
0f,
23,
f6,
28,
1f,
1b,
1c,
da,
0b,
e7,
29,
f8,
e6,
1b,
0a,
29,
fb,
09,
f4,
f3,
ea,
00,
f8,
0f,
12,
0a,
0e,
2b,
25,
f1,
0c,
fd,
d5,
07,
f6,
f4,
01,
ff,
f8,
0c,
08,
03,
0c,
ed,
fc,
f5,
05,
f9,
0e,
0e,
f4,
21,
d8,
40,
e3,
10,
fe,
3c,
c6,
fd,
ea,
0c,
08,
ed,
26,
e8,
ff,
e1,
09,
e5,
f6,
0f,
f4,
f9,
fc,
f9,
0d,
fc,
f6,
f8,
0f,
09,
14,
e5,
21,
f2,
00,
0f,
19,
f5,
df,
fb,
f7,
df,
11,
f1,
ec,
0b,
ff,
f1,
10,
da,
1b,
40,
d1,
01,
17,
2b,
80,
3c,
e1,
fe,
20,
ce,
12,
09,
ee,
ec,
f5,
12,
fa,
07,
10,
09,
fe,
13,
05,
2b,
ce,
3b,
f8,
f1,
23,
e8,
f8,
ea,
f2,
23,
03,
00,
0e,
0b,
fb,
f0,
f8,
ea,
0a,
f6,
0f,
11,
f3,
d1,
1d,
2a,
f9,
f4,
e3,
1c,
d8,
2e,
f4,
fb,
09,
f4,
0d,
f9,
f8,
05,
09,
f5,
f3,
13,
fe,
f4,
0c,
12,
1e,
f5,
d9,
13,
14,
0c,
06,
16,
fe,
fd,
df,
1b,
f0,
1e,
01,
ff,
ef,
f7,
f0,
12,
f7,
f3,
ef,
ed,
0c,
1e,
c7,
17,
e4,
17,
f9,
3a,
ff,
eb,
1e,
e7,
1f,
fb,
26,
0e,
fd,
11,
ec,
06,
f8,
f1,
15,
11,
0b,
ff,
f2,
0f,
d9,
06,
02,
13,
d0,
17,
03,
fa,
24,
dd,
12,
e5,
03,
10,
ed,
fb,
eb,
06,
ec,
f8,
0e,
0a,
ff,
11,
ca,
24,
19,
f7,
f0,
f9,
dc,
00,
e9,
fd,
f0,
00,
e5,
0a,
ec,
06,
eb,
f6,
f8,
ea,
eb,
0f,
09,
fc,
cf,
20,
04,
f5,
f4,
09,
f4,
e5,
34,
f9,
e1,
e1,
28,
21,
01,
fc,
02,
02,
00,
0f,
06,
f6,
fd,
ec,
f2,
d6,
29,
fc,
01,
04,
f9,
ec,
02,
e6,
16,
10,
1a,
f1,
fb,
04,
fd,
ea,
02,
09,
01,
eb,
f2,
04,
13,
02,
03,
fa,
fa,
04,
ff,
ef,
fd,
0c,
15,
14,
09,
0f,
0a,
fa,
f6,
02,
f0,
f7,
02,
11,
12,
10,
f4,
0c,
04,
1a,
f9,
14,
ff,
c9,
fd,
19,
bb,
f9,
0b,
1d,
ed,
f1,
08,
dd,
f1,
eb,
0a,
0f,
f9,
03,
0d,
02,
f5,
09,
0a,
da,
16,
08,
e5,
00,
f7,
e9,
e9,
f5,
dd,
25,
c9,
06,
12,
0a,
f0,
f0,
08,
10,
14,
0d,
07,
00,
08,
c5,
28,
e4,
26,
e6,
e1,
12,
07,
c1,
fb,
09,
f1,
f6,
15,
fe,
f7,
ea,
10,
e8,
0a,
14,
ef,
13,
ee,
08,
e3,
59,
9a,
43,
0f,
e3,
30,
cd,
2a,
f8,
fd,
cc,
1f,
f6,
e7,
f5,
f7,
fb,
fe,
01,
15,
f2,
10,
00,
13,
ec,
08,
fa,
06,
02,
fe,
00,
eb,
f5,
14,
ef,
07,
ef,
f1,
ef,
12,
f2,
ef,
eb,
00,
fb,
01,
11,
ec,
09,
02,
0f,
08,
ea,
1e,
32,
f3,
fd,
1a,
03,
10,
df,
05,
17,
fe,
11,
15,
c5,
ea,
19,
23,
ff,
40,
22,
01,
f5,
64,
f1,
bf,
1c,
ec,
e7,
9f,
ee,
23,
3c,
fa,
27,
00,
e7,
9d,
20,
26,
f5,
fe,
ff,
4f,
ff,
1d,
12,
d3,
4f,
05,
f4,
ed,
fd,
fb,
11,
1a,
0f,
34,
8d,
f8,
15,
cc,
ee,
ec,
07,
2d,
06,
c8,
f9,
fe,
16,
fc,
fc,
df,
01,
40,
ec,
e4,
bc,
fc,
2b,
e7,
dd,
0e,
fc,
09,
ca,
ea,
4b,
a6,
0e,
e9,
f4,
9b,
31,
12,
c9,
0a,
27,
fb,
26,
0c,
fc,
1b,
03,
e6,
c4,
0e,
8f,
55,
ff,
22,
e8,
8e,
dd,
15,
97,
fc,
ae,
1a,
05,
d6,
d0,
19,
d1,
af,
0d,
da,
f3,
10,
50,
43,
ca,
3f,
d3,
0e,
db,
ca,
22,
31,
ef,
e2,
e1,
e4,
c9,
45,
01,
ff,
fe,
e5,
df,
1e,
09,
0c,
eb,
76,
23,
ef,
1f,
d4,
02,
02,
dd,
22,
af,
31,
04,
11,
38,
d3,
3e,
0c,
ff,
05,
19,
fe,
13,
1a,
b2,
6e,
d7,
d0,
19,
45,
34,
d9,
ca,
e5,
3e,
f3,
1a,
bd,
fa,
ea,
2e,
e1,
e1,
18,
27,
e8,
fb,
17,
2c,
1b,
e5,
01,
01,
f5,
18,
16,
08,
16,
e7,
47,
fe,
c4,
c6,
05,
c6,
06,
44,
06,
f8,
f4,
0a,
21,
19,
b5,
2a,
ee,
00,
eb,
ea,
73,
a6,
3c,
f0,
0a,
bb,
fe,
07,
cf,
f3,
0f,
ff,
f5,
0d,
d9,
06,
f7,
1f,
fe,
d8,
f4,
f4,
e8,
29,
12,
55,
ec,
3d,
b1,
1f,
bd,
a1,
55,
44,
04,
02,
e4,
03,
cb,
28,
fa,
f4,
26,
a8,
d6,
19,
e1,
2f,
fc,
80,
fa,
2b,
b3,
1f,
dd,
0f,
e3,
18,
c0,
f0,
c4,
04,
fb,
f1,
be,
f4,
eb,
24,
10,
fb,
e4,
df,
a0,
5b,
e7,
e5,
56,
ef,
de,
fb,
30,
95,
3f,
f7,
15,
c8,
3d,
3c,
ee,
12,
cd,
ea,
e4,
0a,
09,
34,
d0,
c6,
41,
ea,
33,
31,
2b,
fb,
f1,
2c,
cc,
33,
f3,
13,
f6,
20,
0e,
16,
c4,
1c,
ec,
eb,
1b,
e8,
15,
2f,
c5,
ba,
fd,
b0,
33,
13,
29,
ec,
ce,
2b,
e3,
c6,
f1,
e3,
23,
ed,
fc,
eb,
0e,
18,
af,
1e,
de,
cd,
e2,
49,
1f,
2c,
a5,
13,
f9,
c0,
01,
09,
0e,
50,
df,
e3,
ec,
d7,
11,
ef,
f6,
b8,
25,
23,
d9,
cc,
01,
d0,
12,
00,
27,
b3,
38,
d2,
0c,
f7,
02,
c5,
e2,
07,
ee,
eb,
d2,
0b,
df,
1d,
1b,
0b,
12,
e8,
de,
ef,
d7,
45,
11,
d3,
39,
e2,
13,
05,
29,
22,
cb,
fd,
07,
01,
1b,
3f,
f9,
f6,
f7,
06,
e8,
0f,
0b,
11,
2c,
f0,
04,
e2,
01,
d1,
d8,
f4,
03,
06,
d8,
1e,
f1,
03,
f5,
f1,
5d,
f2,
1d,
2a,
24,
29,
10,
06,
0d,
5d,
90,
17,
25,
e4,
3f,
eb,
e4,
b9,
41,
b7,
04,
45,
d7,
ff,
0c,
e7,
1d,
ce,
f9,
10,
e1,
4b,
03,
05,
dd,
16,
fa,
2e,
f4,
70,
f2,
13,
fb,
0b,
42,
90,
07,
0c,
b6,
52,
ff,
26,
ec,
27,
f5,
00,
c2,
17,
0f,
1f,
ec,
36,
1a,
28,
a5,
20,
37,
e8,
ef,
15,
e5,
dd,
fb,
d0,
01,
04,
09,
e3,
eb,
f8,
01,
ec,
27,
25,
25,
c3,
01,
07,
2b,
f1,
1e,
49,
d2,
07,
05,
11,
18,
03,
06,
f9,
eb,
e4,
0d,
22,
26,
ee,
fd,
0d,
d8,
22,
07,
d0,
fa,
f4,
14,
08,
1f,
e6,
0d,
fa,
fd,
06,
21,
f2,
e6,
03,
07,
0e,
ff,
fd,
f9,
f6,
f8,
11,
2b,
be,
2c,
1d,
04,
f6,
6f,
d7,
11,
0b,
d6,
a7,
05,
c9,
0d,
ee,
1a,
06,
f3,
0a,
f1,
f6,
bb,
20,
db,
17,
db,
16,
e8,
de,
65,
a9,
1c,
fc,
ca,
22,
f0,
13,
3b,
d3,
1a,
e1,
e4,
18,
12,
05,
1d,
0b,
0c,
e8,
ea,
fc,
00,
08,
09,
00,
fe,
0b,
06,
17,
0c,
ef,
f3,
11,
1f,
e6,
f6,
0e,
04,
10,
10,
06,
0a,
bf,
2d,
d3,
1b,
17,
d7,
09,
de,
0e,
16,
c7,
d5,
06,
3e,
fa,
ce,
c9,
31,
20,
30,
18,
da,
12,
2a,
f3,
cd,
24,
29,
11,
2e,
ea,
23,
2c,
42,
f3,
ea,
c0,
c3,
e9,
da,
07,
e7,
db,
44,
20,
1b,
e5,
30,
c7,
29,
09,
07,
ff,
24,
f3,
04,
f2,
f7,
b3,
32,
ef,
19,
07,
cd,
b5,
18,
14,
05,
ee,
30,
e3,
f0,
00,
f4,
23,
d9,
d7,
14,
ac,
39,
12,
dd,
49,
13,
1d,
fc,
00,
0a,
16,
cd,
eb,
ed,
fb,
15,
22,
00,
fb,
0c,
1e,
15,
fb,
1f,
06,
dc,
09,
ea,
e9,
fc,
0a,
05,
18,
16,
e2,
e2,
f9,
f7,
e1,
07,
14,
05,
19,
15,
05,
f8,
08,
f6,
d2,
f7,
1a,
fa,
12,
30,
fe,
f5,
dc,
02,
ed,
f3,
09,
00,
f1,
e6,
f1,
f6,
05,
07,
d6,
15,
18,
9a,
2e,
ec,
0b,
2d,
20,
15,
ea,
e7,
fa,
f0,
10,
fe,
1c,
5c,
e6,
00,
c6,
f0,
03,
17,
f3,
f3,
0d,
ff,
db,
28,
fe,
29,
1e,
c5,
49,
2a,
2c,
9e,
ef,
f3,
e1,
15,
15,
f6,
04,
1d,
df,
00,
06,
e4,
13,
f6,
eb,
e8,
0e,
16,
ea,
d4,
fd,
2f,
fa,
09,
4a,
ef,
ec,
a7,
ef,
f8,
10,
be,
01,
0b,
f9,
de,
07,
e5,
2d,
05,
38,
e4,
f3,
d1,
fb,
eb,
02,
5d,
ed,
80,
2d,
ed,
c3,
53,
8f,
d7,
d4,
14,
13,
d7,
1a,
14,
f3,
1f,
df,
de,
22,
08,
16,
03,
05,
2d,
ff,
06,
eb,
f3,
ef,
13,
e9,
f3,
42,
07,
fb,
0e,
e6,
ee,
16,
f6,
0b,
46,
c9,
50,
fe,
6d,
45,
27,
ea,
db,
db,
da,
fe,
33,
e6,
37,
10,
03,
fe,
df,
29,
07,
bf,
36,
12,
00,
cf,
f0,
36,
c3,
19,
ff,
12,
8f,
1f,
4e,
be,
bb,
c4,
e5,
1a,
0d,
95,
e1,
14,
ea,
ed,
f3,
f6,
12,
e7,
12,
eb,
26,
fd,
04,
36,
c8,
19,
ee,
fc,
2a,
15,
1c,
f0,
0d,
f2,
1c,
38,
ed,
36,
12,
ff,
01,
1a,
29,
26,
0b,
35,
e5,
ec,
cf,
b4,
ff,
86,
66,
f2,
c6,
17,
1b,
ee,
e4,
f3,
f5,
ee,
1c,
27,
14,
f1,
e3,
15,
cf,
f6,
f8,
0b,
17,
e3,
fd,
0f,
47,
18,
b2,
e1,
05,
06,
07,
fd,
e4,
de,
e9,
fd,
0d,
ee,
04,
f5,
fe,
10,
61,
92,
f0,
30,
10,
40,
f0,
fa,
f6,
14,
55,
0e,
df,
02,
1c,
f9,
1b,
19,
15,
cb,
0e,
22,
d8,
35,
2a,
fe,
19,
1e,
cd,
f2,
d4,
0e,
f6,
d4,
c6,
2e,
2a,
f6,
1d,
f2,
ca,
fd,
18,
e6,
f7,
e1,
21,
00,
f4,
12,
f5,
12,
0e,
2e,
15,
d3,
27,
e2,
07,
10,
24,
02,
02,
36,
1e,
c7,
f4,
dc,
29,
f5,
06,
e9,
ee,
0a,
ec,
fe,
18,
f2,
14,
2d,
eb,
d7,
12,
18,
c2,
e7,
ea,
f5,
e5,
ef,
43,
0f,
08,
11,
fb,
08,
f4,
0f,
47,
f9,
e1,
36,
cc,
1a,
de,
06,
32,
09,
0e,
dc,
ff,
e4,
cc,
00,
d8,
eb,
15,
2a,
01,
0c,
17,
09,
d9,
46,
0b,
dc,
02,
fa,
f3,
43,
ce,
41,
31,
e3,
02,
17,
04,
f8,
2f,
ac,
e0,
f7,
fc,
01,
0d,
03,
f3,
f0,
fb,
18,
17,
12,
cc,
24,
e3,
0d,
0e,
cc,
2f,
ee,
ce,
f9,
fd,
e1,
f0,
40,
0a,
f9,
24,
f2,
18,
20,
db,
27,
d3,
06,
04,
10,
f7,
b5,
27,
11,
cd,
cc,
27,
1d,
06,
20,
d9,
f4,
27,
00,
06,
21,
f1,
11,
14,
0f,
15,
f4,
0c,
e2,
3a,
48,
a2,
0e,
e0,
ed,
ce,
11,
08,
26,
d2,
26,
d6,
11,
d6,
3b,
0d,
23,
39,
0a,
e7,
ef,
e0,
1e,
1f,
dd,
0e,
11,
19,
17,
ec,
46,
dc,
00,
f4,
ec,
16,
2f,
27,
de,
ea,
fc,
1f,
e3,
05,
ee,
f4,
23,
09,
2d,
0a,
f2,
02,
f6,
12,
df,
f8,
33,
06,
06,
07,
df,
2a,
0e,
d6,
0c,
e7,
eb,
02,
0f,
fa,
04,
fc,
e9,
e4,
02,
06,
0f,
0c,
1a,
df,
09,
f1,
d1,
07,
0d,
06,
12,
1c,
fa,
ff,
ef,
ed,
f9,
f3,
f8,
ea,
1d,
05,
e5,
cf,
ff,
2d,
4f,
11,
19,
13,
9c,
2f,
ea,
f0,
13,
e9,
05,
1f,
f3,
08,
e9,
13,
ff,
0b,
e3,
eb,
d0,
16,
fc,
26,
e0,
ee,
e0,
fe,
3a,
1e,
ff,
d8,
09,
22,
92,
ce,
fa,
18,
2f,
08,
f5,
01,
fb,
18,
fa,
d4,
ef,
db,
0a,
df,
f4,
ec,
f6,
f9,
27,
10,
27,
e7,
05,
f0,
fd,
13,
ee,
f6,
e1,
02,
12,
0f,
14,
e4,
f9,
18,
14,
f2,
1f,
0a,
ea,
05,
f8,
f9,
02,
f8,
03,
f2,
02,
fd,
10,
0f,
04,
e9,
f0,
17,
0d,
ff,
e3,
0e,
ef,
31,
fe,
15,
16,
e2,
f3,
11,
11,
07,
08,
0a,
01,
07,
2e,
1e,
f5,
31,
2d,
f9,
0f,
f2,
ce,
57,
14,
d6,
2a,
3e,
0b,
ed,
33,
1c,
1b,
08,
f8,
15,
e7,
e0,
ff,
15,
00,
12,
17,
d9,
12,
08,
1b,
07,
15,
18,
10,
3a,
1b,
ef,
f6,
de,
c7,
bb,
45,
1b,
c5,
24,
2c,
d9,
e4,
13,
ee,
05,
f7,
f5,
ec,
0c,
d4,
d1,
f8,
2a,
ff,
1f,
d6,
00,
f9,
e6,
e7,
13,
06,
2a,
2d,
09,
cf,
0c,
06,
10,
0f,
45,
e2,
22,
f5,
eb,
02,
08,
f1,
13,
11,
e5,
e6,
fa,
fd,
e8,
12,
05,
d9,
00,
ec,
0f,
e4,
2f,
0f,
fa,
19,
02,
0a,
ec,
1d,
e4,
10,
e9,
f9,
eb,
fa,
18,
f5,
fa,
22,
d7,
09,
e0,
01,
eb,
0e,
f1,
05,
e8,
12,
06,
0d,
df,
1c,
1f,
f7,
cc,
04,
0a,
1c,
fd,
78,
f9,
2b,
cd,
fe,
a2,
f5,
d8,
ea,
f1,
00,
fd,
06,
fe,
35,
0b,
f5,
de,
df,
0e,
ee,
d3,
c8,
08,
d9,
49,
37,
28,
de,
46,
4d,
c2,
cb,
d1,
00,
d6,
fd,
20,
d9,
04,
46,
f8,
23,
fd,
fc,
0f,
b9,
0d,
fb,
89,
55,
3f,
01,
08,
ff,
61,
f4,
32,
4d,
16,
fd,
02,
ec,
e6,
f0,
25,
05,
0a,
05,
f4,
08,
e9,
f0,
d0,
2b,
fa,
13,
d4,
e3,
00,
58,
e5,
f9,
07,
13,
f9,
fc,
fc,
c9,
e9,
3d,
c3,
05,
0d,
f3,
bf,
eb,
ea,
dc,
f7,
07,
12,
03,
ff,
fc,
5c,
0d,
e2,
17,
15,
15,
ce,
e7,
02,
42,
37,
d0,
e9,
03,
d2,
20,
03,
1b,
1f,
79,
f9,
d5,
04,
ee,
cd,
fc,
09,
11,
ac,
06,
e1,
f1,
ed,
29,
19,
00,
0a,
f9,
08,
ce,
34,
e1,
26,
a1,
15,
fd,
d5,
19,
0d,
1a,
fb,
19,
f6,
bc,
df,
01,
20,
09,
39,
1d,
28,
d9,
0d,
d4,
b1,
33,
ff,
1d,
26,
2b,
23,
ed,
ef,
ef,
e5,
07,
15,
0b,
1e,
fc,
2c,
d2,
1b,
1b,
f1,
fa,
ef,
17,
da,
5e,
ef,
e4,
fd,
c5,
13,
b5,
db,
de,
15,
6b,
34,
d8,
10,
18,
95,
22,
04,
20,
e1,
2e,
db,
cb,
ec,
ee,
e7,
18,
f6,
ed,
d5,
32,
21,
b8,
3e,
df,
16,
e1,
d3,
11,
d0,
df,
da,
e6,
06,
4a,
ed,
f6,
e6,
fb,
09,
0e,
01,
05,
db,
02,
0f,
cf,
45,
e7,
3a,
23,
c9,
09,
07,
ff,
2f,
81,
d2,
0f,
11,
2a,
04,
16,
fb,
30,
e3,
0e,
e1,
c3,
12,
fd,
dd,
ef,
f6,
20,
da,
0d,
95,
d4,
f9,
50,
17,
3c,
1f,
0d,
f0,
d7,
00,
12,
f1,
e9,
ee,
bb,
19,
c3,
19,
27,
f2,
15,
eb,
34,
f6,
ef,
e7,
c0,
ef,
e9,
0f,
f6,
f4,
17,
e1,
dd,
f4,
1b,
ce,
12,
05,
ef,
09,
2d,
06,
4c,
f2,
e7,
17,
34,
fe,
03,
de,
21,
fa,
f3,
ef,
d5,
05,
e7,
fe,
f8,
f6,
25,
f8,
fd,
0e,
03,
1e,
cc,
e1,
34,
f2,
79,
3b,
e3,
ce,
c7,
e3,
e2,
ec,
f6,
0b,
e3,
28,
e6,
f3,
30,
d5,
19,
ef,
00,
08,
ea,
5f,
01,
e5,
f4,
de,
e9,
29,
25,
e3,
28,
f2,
17,
0f,
13,
e0,
3b,
fa,
fd,
c6,
f4,
f7,
06,
0d,
86,
f7,
1e,
c9,
1b,
d6,
11,
08,
08,
14,
08,
fc,
fb,
fe,
ef,
ca,
0f,
fc,
f6,
fb,
e9,
1a,
e3,
15,
0f,
43,
33,
19,
0a,
d4,
fc,
0a,
c1,
d8,
f5,
f8,
fc,
fd,
cd,
14,
ed,
fb,
1e,
f3,
1c,
f8,
f8,
e4,
19,
1a,
f8,
1d,
0d,
ce,
07,
ef,
c6,
fd,
e3,
f4,
02,
e5,
60,
fd,
f6,
e9,
dd,
07,
27,
f9,
28,
0c,
ec,
e8,
16,
04,
a7,
1e,
ef,
f4,
54,
01,
e1,
cf,
eb,
b5,
77,
07,
22,
38,
19,
cb,
16,
d5,
fa,
f5,
41,
40,
1a,
04,
e7,
f5,
ce,
dd,
27,
ff,
eb,
3d,
0a,
11,
fc,
a3,
2d,
22,
08,
20,
dd,
ed,
fa,
fb,
1f,
09,
21,
04,
e0,
f7,
0d,
01,
ef,
04,
04,
3e,
d9,
0f,
1c,
c1,
0a,
2c,
eb,
ee,
dd,
38,
f6,
f0,
d8,
0f,
f5,
04,
f4,
e5,
f2,
4f,
20,
0e,
d7,
f4,
08,
bd,
12,
fe,
07,
00,
d2,
a6,
fa,
05,
03,
d1,
f8,
06,
ee,
9c,
46,
ca,
0d,
3d,
26,
ed,
00,
01,
f3,
fa,
da,
2a,
e7,
10,
ee,
e9,
d5,
cb,
0c,
2a,
cc,
fd,
03,
1b,
d7,
14,
f8,
f3,
e7,
00,
02,
18,
ec,
1b,
e8,
de,
12,
17,
fe,
08,
fe,
f3,
f9,
fe,
04,
dd,
15,
ed,
06,
fb,
f5,
ef,
16,
fa,
05,
11,
05,
05,
f3,
0c,
ec,
ee,
14,
eb,
04,
fb,
ef,
02,
f4,
01,
ee,
f1,
0c,
ef,
14,
07,
02,
17,
d9,
f8,
5a,
fa,
19,
5d,
fd,
b1,
d5,
f8,
bf,
9b,
eb,
f8,
12,
eb,
34,
29,
11,
ef,
30,
f6,
f1,
fe,
f5,
01,
f3,
eb,
e9,
2c,
42,
c1,
1a,
f6,
f9,
40,
0e,
12,
f6,
02,
eb,
01,
11,
04,
fe,
f4,
ef,
ff,
00,
ed,
11,
ff,
21,
21,
f4,
da,
f0,
0e,
ce,
f6,
00,
22,
0d,
f2,
17,
fe,
03,
27,
24,
03,
e7,
fa,
07,
0c,
f9,
17,
d3,
d7,
f1,
d1,
2d,
f9,
29,
f3,
f8,
2c,
d4,
18,
fc,
02,
ef,
39,
51,
f6,
ea,
ee,
fb,
00,
fa,
18,
fb,
ef,
1d,
1b,
e7,
f3,
e6,
ec,
08,
07,
fa,
e8,
04,
06,
0b,
16,
f1,
f4,
fa,
fc,
36,
f3,
f3,
11,
ee,
2e,
e0,
fe,
13,
04,
06,
37,
0a,
02,
0f,
c8,
e0,
12,
07,
e8,
de,
03,
16,
e5,
08,
06,
e0,
28,
ca,
fe,
05,
aa,
dd,
bf,
16,
0d,
df,
2f,
d2,
14,
00,
17,
db,
c0,
e4,
30,
f2,
0e,
25,
15,
ce,
cb,
34,
02,
bc,
2f,
29,
16,
ec,
fb,
2e,
d7,
45,
de,
f2,
22,
f8,
25,
af,
f6,
0d,
d1,
19,
ed,
04,
4d,
fd,
26,
fa,
d0,
0d,
a7,
3e,
f3,
02,
f8,
22,
02,
d1,
25,
d9,
18,
c7,
ff,
fa,
e2,
06,
fd,
ed,
22,
fa,
6a,
d2,
1b,
e9,
59,
53,
40,
e5,
f8,
04,
1a,
ee,
fa,
f5,
16,
fd,
27,
0f,
de,
fb,
21,
f7,
fd,
1b,
f3,
13,
1a,
f0,
d5,
ce,
1e,
b4,
16,
34,
dd,
f4,
33,
e7,
0a,
dd,
29,
b7,
07,
09,
d3,
30,
da,
2d,
f1,
f8,
ff,
38,
01,
0a,
f7,
1b,
ab,
e7,
d9,
23,
5d,
37,
aa,
1a,
e6,
d7,
92,
11,
ec,
13,
1a,
03,
f5,
bf,
ee,
12,
6e,
17,
f1,
01,
54,
fc,
e4,
00,
f2,
e2,
5f,
a8,
e0,
d6,
f1,
34,
f5,
f0,
3a,
fb,
f2,
01,
f5,
dc,
b9,
30,
0a,
1f,
10,
08,
aa,
22,
e6,
f8,
ec,
0e,
04,
29,
1a,
03,
d8,
2d,
ea,
00,
00,
fb,
f0,
fd,
31,
26,
fd,
f2,
11,
b4,
61,
84,
01,
d4,
20,
45,
b5,
1d,
df,
da,
e7,
ed,
0d,
0f,
f0,
ed,
10,
0d,
db,
19,
21,
06,
e3,
11,
5e,
ac,
3d,
f0,
d2,
f4,
0c,
fb,
00,
dc,
2e,
eb,
ed,
f5,
0e,
17,
19,
e0,
00,
fc,
2a,
dc,
ac,
c1,
c6,
30,
af,
d8,
de,
5f,
fa,
09,
62,
ac,
f4,
33,
f3,
df,
1e,
f7,
d0,
e5,
05,
fc,
e7,
f2,
fd,
e6,
0f,
07,
2f,
45,
c6,
df,
ed,
26,
81,
24,
f9,
18,
0a,
56,
b3,
c5,
e2,
0e,
fb,
35,
3c,
08,
1b,
fe,
21,
1b,
cd,
42,
ca,
0c,
03,
1f,
1e,
c9,
53,
10,
cf,
10,
e2,
13,
f5,
f3,
ed,
15,
14,
1c,
07,
f3,
34,
f3,
ec,
0a,
d8,
ff,
fb,
d2,
ff,
f2,
1b,
1b,
08,
f7,
f4,
15,
d9,
0f,
09,
03,
e3,
f7,
02,
06,
0b,
e1,
21,
d5,
e2,
ed,
4d,
f3,
01,
0e,
f1,
17,
e9,
d4,
db,
1b,
47,
d1,
ee,
06,
d3,
de,
35,
ff,
0b,
e9,
2a,
fa,
07,
0c,
3d,
13,
4f,
ec,
db,
df,
da,
d5,
4c,
f3,
45,
2a,
c4,
ee,
f5,
d4,
18,
0a,
e8,
08,
d7,
fb,
32,
cc,
05,
06,
3a,
87,
13,
e7,
0e,
0e,
17,
06,
13,
0d,
0f,
0c,
f0,
f0,
e6,
11,
11,
e8,
df,
e3,
e1,
cf,
d9,
34,
30,
01,
ed,
fd,
0d,
20,
1e,
1f,
06,
f3,
ec,
f0,
da,
e3,
e1,
f3,
0f,
1c,
d9,
f9,
f0,
a7,
e7,
2a,
0b,
c7,
7f,
d8,
f3,
41,
f8,
df,
16,
14,
db,
11,
db,
fb,
dd,
e1,
0f,
dd,
26,
fc,
e6,
e8,
1d,
ee,
2d,
1d,
1b,
c9,
15,
e3,
c0,
41,
f1,
cb,
00,
bf,
f2,
46,
d6,
fb,
23,
15,
d2,
fc,
1b,
e9,
f0,
f8,
32,
06,
f0,
fc,
06,
04,
05,
fd,
db,
d5,
1d,
eb,
0b,
21,
9a,
7a,
01,
25,
0c,
2c,
09,
0a,
16,
e0,
0f,
e2,
d9,
eb,
13,
dd,
2d,
db,
de,
26,
f8,
14,
db,
e6,
15,
d0,
40,
0e,
30,
ec,
10,
09,
ef,
fb,
2f,
da,
ff,
03,
f0,
00,
45,
e1,
ed,
f3,
2b,
80,
ea,
34,
1a,
29,
30,
d4,
2a,
f9,
07,
0d,
fd,
17,
fb,
f0,
f2,
13,
f6,
04,
d0,
26,
04,
e6,
c3,
23,
34,
64,
f4,
00,
27,
a1,
b0,
d7,
c2,
d5,
34,
2d,
03,
12,
24,
e3,
14,
e5,
bc,
50,
c7,
f1,
e0,
31,
f5,
e9,
d8,
18,
eb,
0e,
e2,
26,
fe,
f9,
06,
23,
ff,
fc,
ed,
f4,
eb,
fd,
00,
fc,
eb,
0d,
eb,
ea,
ff,
0f,
ea,
f8,
09,
f4,
0b,
14,
f6,
ed,
0e,
18,
f0,
04,
18,
00,
12,
ff,
b2,
1e,
38,
ed,
bd,
ce,
ef,
15,
0e,
d9,
e4,
45,
46,
f9,
33,
da,
0c,
fc,
12,
0b,
ff,
18,
02,
28,
fd,
a4,
fe,
be,
f8,
0c,
ef,
dd,
45,
ee,
06,
ed,
d6,
f4,
30,
11,
e6,
dd,
dc,
21,
fd,
02,
e5,
07,
04,
34,
d7,
0e,
f1,
1b,
eb,
56,
16,
01,
0c,
d3,
ea,
e4,
31,
13,
09,
fe,
e0,
ef,
0b,
0d,
0d,
f0,
0d,
d9,
4c,
c5,
de,
1f,
93,
2c,
da,
2a,
d2,
40,
f6,
e8,
2f,
f9,
25,
e7,
2a,
ee,
e7,
01,
c1,
3a,
09,
ec,
14,
f1,
02,
15,
f1,
0d,
da,
fb,
3c,
10,
ff,
fd,
ec,
04,
f2,
0c,
05,
e9,
09,
14,
0b,
e7,
10,
f9,
09,
0b,
0a,
17,
fd,
14,
e5,
05,
e1,
12,
02,
fe,
0b,
01,
eb,
0c,
12,
f8,
f2,
ea,
07,
c3,
1b,
12,
fa,
0b,
09,
ec,
1b,
34,
e4,
f6,
01,
20,
cb,
fa,
c1,
41,
bf,
f0,
2b,
10,
1f,
13,
05,
0d,
09,
10,
2c,
01,
07,
0e,
12,
0e,
63,
e9,
e4,
d0,
2f,
f7,
fb,
1e,
2e,
ea,
fd,
1d,
f6,
f4,
c3,
ef,
e6,
12,
0c,
19,
06,
fd,
04,
10,
eb,
e2,
11,
15,
0f,
e5,
e3,
fe,
f7,
14,
d4,
0d,
03,
14,
17,
f4,
c2,
16,
e1,
4a,
c0,
e8,
16,
02,
f6,
1a,
06,
01,
06,
d3,
13,
18,
e7,
ef,
f0,
1f,
d5,
e1,
7f,
ba,
f5,
c1,
01,
24,
f9,
e2,
ed,
05,
ea,
fe,
0d,
20,
10,
25,
bd,
d9,
f0,
18,
4b,
d0,
15,
15,
ed,
c5,
02,
15,
11,
04,
fa,
13,
de,
10,
dd,
fd,
fa,
02,
06,
ff,
fe,
d2,
12,
00,
f4,
fb,
f6,
46,
23,
26,
f3,
ea,
f8,
15,
01,
c7,
0d,
04,
f8,
11,
fc,
12,
11,
27,
ef,
fd,
0b,
dd,
e7,
0d,
12,
0a,
08,
33,
f7,
38,
ef,
dc,
f5,
11,
cb,
f6,
0b,
e9,
fc,
14,
15,
01,
f4,
01,
ff,
06,
08,
05,
0f,
ea,
09,
c3,
02,
ff,
f7,
1a,
43,
02,
03,
07,
e5,
ff,
f9,
e9,
f7,
16,
13,
fa,
12,
d3,
fc,
ff,
1a,
e3,
ee,
f0,
e5,
0d,
2a,
cf,
17,
f4,
f7,
01,
2a,
d8,
fc,
dc,
05,
eb,
e7,
fe,
13,
ea,
d8,
10,
bc,
00,
11,
17,
c4,
30,
e8,
27,
d2,
48,
e8,
fc,
1b,
04,
e3,
e6,
16,
f6,
f2,
1d,
1c,
c6,
1e,
02,
cf,
42,
ff,
f0,
e2,
e3,
3a,
34,
fd,
06,
dd,
42,
2c,
d4,
fd,
ff,
11,
09,
ed,
06,
06,
1c,
f9,
e0,
0a,
d5,
f8,
de,
08,
1b,
b8,
29,
32,
12,
26,
f1,
25,
e1,
ea,
ff,
2f,
06,
e1,
02,
0b,
06,
e5,
24,
0d,
1a,
05,
f9,
23,
f8,
00,
4d,
0c,
02,
13,
02,
1b,
33,
00,
09,
f7,
16,
e0,
0b,
08,
ec,
f7,
02,
0c,
0e,
1d,
15,
ee,
e1,
16,
12,
a2,
02,
f2,
df,
28,
04,
00,
f6,
10,
2e,
b1,
1e,
f8,
fc,
0a,
e4,
1c,
44,
ef,
fb,
d5,
2a,
ce,
fd,
dc,
f0,
f4,
e3,
ed,
27,
f1,
07,
fb,
10,
11,
ed,
f1,
ea,
16,
02,
1c,
06,
03,
f0,
f9,
f8,
05,
16,
1a,
e6,
fb,
fd,
ed,
e3,
61,
db,
e0,
c1,
ee,
0d,
0a,
04,
d3,
f3,
05,
08,
f0,
17,
de,
fe,
fd,
05,
c4,
f8,
df,
08,
21,
1b,
09,
c4,
f2,
d5,
f5,
03,
f7,
fc,
30,
f3,
11,
ed,
e7,
10,
e8,
02,
fb,
d7,
f6,
d9,
f1,
c4,
f0,
f8,
29,
d2,
ee,
34,
cf,
ec,
0c,
34,
b1,
f8,
0d,
f9,
0b,
f6,
0e,
f6,
e8,
07,
24,
32,
ed,
2a,
1a,
24,
1f,
cb,
04,
05,
13,
29,
da,
e7,
35,
da,
fb,
f6,
ee,
0b,
06,
f0,
0c,
ea,
f1,
f2,
30,
25,
05,
dd,
e2,
21,
2f,
f7,
14,
30,
cd,
f6,
f0,
ed,
28,
fa,
05,
e8,
f5,
e3,
e5,
13,
e5,
0c,
f8,
f5,
d7,
f5,
03,
1d,
02,
e1,
f2,
17,
dd,
17,
09,
f8,
f8,
bb,
08,
16,
12,
10,
02,
10,
07,
08,
08,
04,
f1,
00,
01,
f5,
07,
0f,
1b,
08,
ec,
08,
27,
0e,
00,
05,
19,
0d,
25,
05,
26,
df,
03,
fa,
04,
12,
fb,
20,
e9,
0f,
ed,
13,
ea,
f4,
e9,
07,
04,
18,
40,
fd,
f9,
02,
e0,
06,
11,
02,
07,
d4,
0d,
0e,
25,
1a,
15,
01,
24,
f9,
0b,
10,
e5,
09,
2b,
f0,
0d,
f6,
fa,
f4,
10,
9d,
e8,
10,
09,
f1,
ec,
e1,
ee,
03,
10,
00,
0c,
04,
da,
ff,
0c,
fa,
23,
fc,
0d,
f0,
17,
0a,
ef,
1c,
24,
f6,
02,
11,
f2,
08,
fd,
00,
01,
0e,
ed,
03,
15,
15,
0e,
ee,
0c,
08,
09,
f0,
fe,
ff,
fe,
06,
f8,
0f,
f9,
f4,
f2,
02,
27,
0b,
d1,
d3,
0d,
36,
c0,
e9,
30,
d2,
f5,
01,
ea,
13,
39,
f0,
24,
03,
dc,
f8,
2a,
de,
f9,
e2,
fa,
e5,
e9,
0e,
e6,
dd,
19,
0a,
e5,
e1,
ca,
15,
24,
fd,
15,
d5,
34,
08,
e1,
29,
d6,
ef,
e9,
0e,
fe,
f3,
f1,
f4,
10,
ea,
ff,
f9,
ec,
0c,
40,
e7,
eb,
e0,
21,
ec,
21,
ff,
0b,
f2,
1a,
f8,
d7,
ed,
ef,
0d,
f0,
3f,
06,
20,
05,
cf,
db,
02,
11,
14,
b8,
f3,
2e,
f8,
fd,
0f,
05,
ea,
df,
24,
dc,
1b,
ec,
fc,
01,
03,
0f,
f4,
01,
05,
02,
0e,
fd,
fb,
fa,
06,
09,
f9,
10,
ff,
04,
0d,
0c,
08,
f1,
01,
f2,
08,
40,
ba,
b2,
f7,
f4,
c8,
b9,
10,
09,
bd,
c0,
e8,
2c,
0f,
ca,
1c,
31,
e5,
40,
29,
21,
26,
c4,
3b,
01,
d7,
26,
ef,
97,
9d,
0d,
0b,
0c,
2d,
d6,
c1,
fc,
ba,
4b,
06,
0b,
45,
f7,
25,
4a,
3c,
f4,
fd,
c4,
0b,
c4,
f1,
c1,
28,
4f,
df,
c8,
10,
95,
d3,
ed,
0e,
ce,
63,
d4,
f5,
dc,
cd,
f6,
b9,
1a,
29,
da,
5f,
2f,
24,
3c,
23,
4f,
a0,
cb,
14,
f1,
08,
32,
3e,
36,
02,
85,
42,
1b,
03,
d2,
c0,
3a,
43,
3d,
ee,
c3,
4e,
14,
fe,
d8,
df,
2c,
e3,
ef,
33,
24,
40,
08,
19,
cc,
a4,
74,
ca,
f0,
bd,
b2,
c8,
ef,
13,
c2,
2a,
ea,
31,
eb,
11,
2c,
51,
fc,
d2,
05,
38,
c8,
ea,
e2,
e0,
a3,
25,
db,
03,
f6,
ef,
02,
d1,
12,
d5,
ce,
e8,
c3,
f5,
ea,
9b,
81,
f0,
f4,
d5,
15,
31,
17,
d2,
44,
cd,
03,
c0,
eb,
39,
bb,
39,
ff,
0e,
df,
f0,
f6,
58,
32,
22,
f9,
30,
e5,
41,
ea,
15,
cc,
0c,
d5,
b6,
a6,
1e,
d6,
ce,
25,
84,
cc,
23,
cf,
37,
20,
d8,
cf,
30,
03,
32,
4c,
33,
30,
f8,
ca,
fc,
35,
03,
3f,
f3,
30,
2a,
14,
3a,
b0,
26,
22,
41,
0e,
2c,
42,
05,
e9,
09,
55,
15,
c7,
ae,
28,
02,
d6,
c7,
06,
f5,
f9,
0d,
20,
e2,
d1,
08,
14,
c6,
13,
de,
20,
0a,
1c,
e9,
c1,
de,
29,
1f,
e6,
ef,
fe,
2b,
09,
c8,
02,
26,
e1,
01,
21,
b3,
56,
e3,
c6,
04,
04,
f6,
4a,
fe,
33,
d9,
f4,
94,
ba,
0b,
4d,
0e,
1b,
1a,
fe,
46,
1b,
f7,
0a,
04,
fe,
23,
dd,
fa,
41,
3d,
f7,
34,
ff,
ba,
ea,
d7,
16,
25,
31,
0c,
c5,
51,
41,
33,
9f,
56,
59,
3a,
3e,
dc,
17,
3b,
08,
dd,
cf,
09,
0d,
48,
48,
d0,
d8,
ff,
3b,
fe,
05,
d5,
e7,
06,
00,
16,
d1,
16,
dd,
fd,
1a,
d1,
e7,
d4,
bc,
4a,
e0,
e7,
25,
23,
02,
12,
dc,
e3,
36,
1d,
6f,
26,
fb,
c3,
d3,
f4,
01,
ea,
e9,
03,
4a,
dd,
e4,
f9,
27,
e8,
20,
05,
f8,
10,
32,
41,
c9,
2b,
00,
f1,
f6,
16,
bb,
e2,
4a,
49,
33,
17,
b1,
be,
d3,
bc,
ba,
d4,
37,
0d,
20,
03,
c3,
1d,
22,
e8,
20,
29,
f1,
2a,
45,
14,
42,
77,
d1,
c4,
f7,
12,
d6,
37,
d1,
22,
db,
23,
1d,
d6,
30,
aa,
dd,
ad,
fc,
ba,
19,
10,
5c,
38,
06,
d2,
a3,
c0,
2b,
c5,
06,
ea,
c0,
cb,
11,
ba,
d2,
0d,
00,
dc,
22,
6c,
30,
d0,
01,
ff,
f7,
46,
d0,
c7,
1a,
1d,
de,
23,
fe,
df,
e9,
d4,
d9,
19,
20,
43,
bb,
ee,
fd,
16,
cd,
f5,
d0,
be,
ce,
95,
0b,
11,
1a,
d4,
9d,
fe,
ee,
1b,
f2,
00,
cc,
ef,
1a,
37,
fd,
4b,
23,
c6,
22,
26,
19,
36,
24,
ed,
de,
11,
c9,
f3,
10,
26,
31,
38,
13,
e3,
15,
cb,
e5,
bd,
2f,
ef,
00,
d2,
48,
fd,
20,
03,
28,
2d,
17,
66,
08,
e9,
ce,
c7,
12,
ce,
24,
ec,
de,
0b,
3a,
d1,
45,
d4,
e4,
1b,
27,
db,
31,
3a,
fd,
1e,
0c,
c5,
b8,
29,
00,
46,
24,
d0,
f6,
45,
07,
ff,
f6,
d3,
44,
32,
0f,
e6,
27,
3b,
2b,
a2,
3c,
19,
f8,
3d,
cc,
f8,
c0,
d0,
16,
39,
e1,
26,
c4,
e3,
e1,
28,
b0,
f2,
1e,
e6,
34,
d2,
ec,
fa,
0f,
41,
14,
eb,
b7,
d0,
51,
30,
44,
37,
a3,
ed,
ed,
08,
c9,
e6,
c5,
f6,
17,
f4,
cd,
a7,
e3,
c7,
0a,
36,
03,
d7,
c2,
2c,
14,
b8,
1b,
12,
43,
33,
23,
e4,
cd,
ec,
fd,
e9,
ee,
f8,
f6,
c3,
d2,
dc,
d4,
37,
1e,
d2,
c9,
13,
1c,
d5,
08,
ef,
49,
17,
06,
bb,
fb,
1b,
e6,
46,
3c,
29,
14,
31,
ba,
e6,
f4,
e8,
0b,
e4,
f4,
bd,
1c,
f9,
e6,
17,
d7,
fe,
08,
16,
da,
ca,
0b,
ce,
24,
f5,
01,
44,
ed,
d0,
48,
cb,
c5,
37,
f4,
dc,
09,
af,
fb,
00,
c0,
28,
05,
c7,
07,
0a,
b5,
f5,
d0,
16,
f8,
d3,
eb,
04,
4f,
58,
08,
12,
0d,
01,
9d,
47,
d1,
25,
3e,
eb,
ce,
15,
c3,
05,
2b,
50,
c9,
11,
cf,
2c,
30,
17,
e2,
bd,
47,
d7,
de,
42,
0a,
f5,
00,
b5,
ee,
38,
1f,
6c,
d2,
eb,
cb,
fd,
93,
bc,
38,
0d,
39,
c1,
f6,
c7,
19,
1c,
1d,
16,
15,
fd,
46,
ee,
06,
03,
02,
3f,
08,
fd,
19,
26,
c0,
0c,
44,
28,
43,
05,
05,
43,
20,
1d,
04,
ba,
0a,
f7,
cd,
fa,
12,
03,
17,
2f,
0b,
f7,
1d,
ea,
fc,
e6,
fe,
f0,
20,
f1,
02,
15,
07,
bd,
11,
e7,
01,
fa,
07,
0a,
e8,
d7,
3c,
f8,
03,
41,
f0,
fc,
e6,
19,
ec,
db,
d5,
ef,
ce,
04,
03,
e6,
ee,
eb,
fd,
fd,
e8,
f1,
02,
fc,
f0,
eb,
51,
bd,
14,
f7,
36,
d2,
b6,
67,
eb,
f8,
18,
14,
14,
e3,
ca,
b9,
23,
e1,
02,
05,
dd,
ce,
d1,
e7,
2f,
12,
26,
06,
39,
b9,
cf,
59,
d9,
10,
d7,
52,
dc,
02,
f9,
13,
e4,
f0,
fe,
07,
0e,
ef,
d8,
0e,
e4,
02,
18,
f5,
c9,
f0,
29,
b8,
3e,
f7,
d2,
0a,
ff,
4b,
3c,
d8,
15,
ba,
e6,
06,
f0,
f5,
f0,
f9,
fd,
f9,
22,
dd,
26,
06,
f7,
05,
e1,
0c,
f5,
f2,
bf,
ec,
f8,
d8,
08,
06,
eb,
ec,
eb,
f9,
00,
d8,
f3,
20,
30,
18,
00,
e3,
2e,
c1,
c8,
09,
2c,
15,
02,
c1,
3b,
0d,
df,
d6,
0e,
26,
d9,
27,
13,
fc,
f7,
c7,
fa,
0c,
13,
e5,
d2,
27,
fb,
02,
dc,
f3,
f7,
db,
da,
42,
f5,
eb,
d6,
fa,
e2,
eb,
fd,
00,
fd,
04,
22,
ee,
ee,
17,
e1,
db,
12,
02,
b8,
05,
51,
ed,
fb,
f4,
f1,
f5,
c9,
2d,
16,
04,
08,
23,
01,
14,
cb,
ff,
00,
14,
17,
1d,
21,
d9,
05,
e7,
2f,
02,
f1,
31,
2a,
f6,
f8,
1b,
ce,
e9,
f6,
07,
18,
fc,
e7,
26,
e9,
00,
eb,
27,
fb,
cb,
da,
00,
ac,
7f,
ea,
2a,
e5,
0c,
cc,
03,
2c,
ff,
f2,
f7,
11,
de,
f5,
e0,
1b,
e9,
0b,
23,
4b,
11,
17,
00,
09,
ae,
d6,
23,
ca,
0e,
da,
41,
23,
e4,
1d,
f0,
06,
e0,
07,
f5,
0f,
0d,
ed,
1f,
ed,
e4,
e9,
ca,
fc,
0a,
d6,
18,
5e,
fb,
11,
12,
4b,
a7,
e8,
06,
0f,
d3,
0a,
44,
06,
e6,
f7,
05,
f8,
f1,
19,
f0,
d1,
14,
f0,
14,
19,
fd,
05,
e5,
f3,
35,
c2,
1f,
20,
00,
18,
0a,
f0,
01,
e7,
e4,
ef,
f2,
dc,
e2,
48,
00,
22,
ac,
1c,
da,
ed,
0c,
14,
0b,
db,
11,
10,
f0,
13,
12,
21,
02,
00,
f8,
d9,
09,
08,
fd,
eb,
1e,
9a,
0d,
ef,
2b,
a2,
07,
17,
e9,
16,
41,
fd,
f7,
17,
df,
05,
e8,
00,
ef,
fd,
f9,
f9,
1a,
ed,
d0,
ed,
f8,
43,
df,
47,
e1,
51,
bc,
05,
f5,
03,
bb,
24,
3a,
eb,
c6,
10,
09,
ea,
f5,
2e,
f9,
24,
16,
ce,
07,
c8,
fe,
fd,
fe,
07,
34,
c2,
00,
c8,
05,
b3,
14,
10,
ee,
1c,
13,
0e,
14,
16,
de,
01,
f1,
0a,
14,
d4,
f7,
0b,
fa,
18,
f9,
fd,
0b,
d4,
f1,
c3,
60,
0a,
fc,
ec,
1b,
fb,
d1,
07,
fc,
0b,
17,
23,
d4,
24,
17,
cd,
33,
f5,
e0,
27,
12,
c5,
fd,
36,
0b,
e6,
21,
d1,
0a,
2b,
25,
e8,
f6,
0e,
ea,
fd,
ff,
21,
ff,
fc,
52,
c2,
d9,
e7,
09,
0c,
28,
de,
12,
43,
d3,
ce,
ff,
c0,
31,
03,
0e,
f7,
f0,
fb,
0f,
f4,
eb,
ed,
0f,
d4,
25,
fa,
f6,
e7,
0a,
fb,
1d,
05,
20,
3b,
fb,
f6,
05,
e8,
11,
ed,
0a,
df,
fc,
00,
f5,
22,
0c,
ff,
1c,
0d,
19,
04,
2d,
ef,
23,
fa,
fd,
d3,
17,
1f,
eb,
17,
de,
f9,
e3,
f4,
e5,
fd,
17,
f3,
0e,
e3,
2a,
f9,
bd,
fb,
22,
e9,
0d,
13,
10,
0e,
0f,
f8,
53,
08,
fa,
02,
10,
f3,
ee,
f1,
10,
f9,
dc,
f7,
fd,
fa,
ba,
27,
0b,
e9,
26,
5e,
fb,
d9,
23,
b6,
b7,
14,
00,
10,
c5,
13,
fa,
0f,
11,
e5,
05,
ec,
ec,
eb,
37,
21,
0d,
de,
d6,
f2,
b7,
14,
18,
01,
05,
00,
e1,
fa,
13,
2a,
05,
ef,
f3,
0f,
04,
f6,
f6,
0f,
f1,
fe,
06,
0f,
ef,
eb,
f4,
ff,
07,
14,
ed,
f1,
0d,
12,
0a,
fd,
fc,
fd,
0f,
0d,
f8,
12,
f9,
1a,
04,
e5,
01,
1f,
da,
0f,
22,
1c,
16,
14,
ef,
e1,
1f,
10,
de,
1c,
be,
2b,
d9,
dc,
df,
e4,
d8,
01,
fe,
09,
fd,
27,
ff,
fe,
fa,
12,
bd,
f4,
03,
07,
07,
13,
e8,
f1,
f2,
07,
d6,
26,
07,
ff,
dd,
1e,
0c,
14,
d7,
18,
b1,
30,
06,
ed,
cc,
3e,
35,
28,
0c,
fe,
d7,
fb,
bb,
f8,
0c,
06,
ee,
0c,
ed,
04,
e9,
f4,
fa,
eb,
23,
f2,
4e,
03,
ce,
c2,
04,
cf,
04,
e3,
fa,
d7,
2c,
35,
1e,
1a,
07,
ff,
e8,
f7,
11,
10,
13,
f0,
f0,
12,
f4,
08,
f1,
ef,
f1,
10,
f2,
19,
f6,
f1,
17,
f1,
25,
fc,
17,
15,
10,
e0,
11,
f2,
08,
22,
0f,
16,
ff,
0e,
fb,
e2,
fb,
fd,
ff,
d3,
1f,
1c,
f4,
ee,
0c,
03,
e2,
f8,
0b,
e7,
2d,
eb,
12,
19,
f9,
ee,
e7,
e4,
df,
18,
3d,
00,
0d,
d4,
db,
06,
fc,
45,
0e,
fb,
09,
fa,
21,
06,
ce,
ff,
ec,
18,
f8,
02,
12,
22,
ee,
f9,
e4,
ae,
c9,
de,
ee,
10,
14,
f6,
fb,
ca,
28,
b1,
4a,
00,
f0,
45,
f6,
03,
1a,
f9,
d4,
37,
05,
f6,
e0,
f3,
0f,
da,
2c,
d2,
66,
16,
e6,
03,
2a,
aa,
11,
0d,
e1,
ff,
48,
53,
f1,
02,
db,
0f,
d5,
17,
0b,
bb,
c4,
3e,
05,
07,
b9,
05,
00,
13,
05,
07,
52,
b7,
ed,
f8,
10,
71,
fa,
ec,
f9,
f8,
f3,
0b,
f8,
ec,
e0,
2b,
cd,
18,
07,
0d,
bf,
2c,
e2,
f0,
fc,
07,
3c,
eb,
03,
f0,
f3,
07,
0f,
fc,
e6,
38,
ef,
1b,
0a,
e0,
f4,
ce,
f5,
06,
d2,
00,
c1,
fc,
0b,
d6,
e1,
33,
0f,
e0,
f2,
3a,
09,
e5,
f1,
fd,
fe,
01,
05,
ef,
d7,
23,
b1,
4e,
f1,
de,
41,
10,
1e,
22,
eb,
7b,
22,
0a,
06,
28,
fe,
f5,
e2,
09,
cf,
f0,
1f,
fb,
05,
09,
d6,
f9,
f4,
ec,
17,
ff,
3a,
e2,
da,
f1,
e5,
e0,
22,
04,
dd,
11,
14,
0d,
15,
db,
12,
18,
0a,
fd,
d3,
0b,
13,
1c,
e0,
e0,
4c,
d1,
15,
e6,
ea,
1a,
58,
a5,
33,
f9,
06,
01,
07,
f7,
0c,
1e,
01,
23,
1b,
00,
1c,
03,
dd,
fb,
e3,
4a,
37,
c9,
0d,
da,
3e,
38,
ef,
ee,
3c,
16,
d9,
dc,
0c,
07,
14,
00,
ec,
dd,
0e,
d2,
1b,
00,
ee,
14,
ad,
c9,
fd,
12,
11,
f6,
db,
e6,
eb,
12,
f6,
02,
e4,
f3,
0d,
cd,
ee,
18,
15,
f0,
fc,
32,
d7,
04,
e6,
03,
d7,
20,
02,
0b,
3a,
b4,
fc,
e0,
f7,
10,
25,
d6,
fb,
ee,
1b,
0a,
f1,
18,
dc,
15,
fa,
28,
29,
ca,
1b,
c8,
24,
ea,
f3,
d0,
16,
67,
0a,
c6,
c1,
40,
15,
ea,
07,
10,
07,
05,
fa,
f7,
fa,
e1,
e8,
e6,
fd,
fa,
04,
02,
e5,
f3,
fd,
07,
00,
15,
22,
f5,
09,
23,
02,
0b,
e6,
11,
f6,
1c,
e2,
42,
1e,
de,
e6,
c8,
25,
5c,
b8,
23,
de,
13,
b7,
31,
f3,
1b,
f0,
22,
15,
0f,
01,
1b,
14,
1b,
18,
e4,
e0,
12,
e6,
de,
0d,
ff,
ea,
ec,
f4,
d8,
2e,
06,
13,
d9,
05,
05,
e5,
1c,
fc,
06,
05,
14,
fe,
03,
f8,
1b,
12,
15,
e6,
10,
db,
f8,
09,
f7,
09,
bf,
2a,
ce,
f9,
ed,
e3,
d1,
f9,
17,
15,
02,
fd,
01,
0d,
ff,
db,
07,
19,
dd,
12,
07,
0d,
e6,
f4,
16,
25,
05,
f8,
12,
03,
ea,
ee,
1b,
06,
09,
09,
ec,
17,
05,
1e,
07,
1e,
bb,
17,
fd,
f5,
1e,
49,
0b,
fc,
0a,
ae,
25,
f1,
08,
f2,
fd,
db,
fd,
1b,
ec,
f9,
25,
14,
04,
12,
fc,
15,
00,
e6,
2a,
da,
0e,
1b,
e7,
d9,
23,
b2,
e7,
ca,
07,
19,
e3,
e9,
fd,
f9,
eb,
01,
ef,
e8,
de,
39,
00,
0b,
f1,
e4,
ff,
f0,
03,
fa,
0f,
11,
b4,
f6,
11,
ff,
0c,
0e,
ea,
23,
da,
0a,
e1,
f3,
f2,
09,
f6,
24,
20,
01,
fc,
f6,
fd,
f1,
18,
2a,
17,
d6,
06,
e3,
ef,
f1,
20,
fd,
fe,
f5,
fd,
f5,
06,
07,
df,
cf,
1a,
ec,
c9,
d5,
ed,
04,
06,
ce,
e5,
bd,
08,
09,
ee,
f2,
fd,
10,
09,
e6,
02,
fb,
e3,
ee,
f7,
f0,
3a,
0c,
ea,
f0,
27,
23,
ff,
ed,
be,
24,
07,
15,
e4,
10,
3d,
20,
c6,
ec,
f0,
11,
ec,
ed,
0b,
f1,
3d,
e7,
fa,
0f,
25,
0b,
ed,
fb,
00,
ec,
d0,
23,
f7,
25,
fc,
c5,
29,
fc,
e8,
1a,
01,
12,
05,
fb,
02,
f4,
17,
ee,
18,
00,
f8,
ed,
ee,
f3,
ff,
f6,
0a,
f9,
04,
f4,
14,
ff,
f4,
05,
f4,
fd,
f9,
fb,
0c,
0f,
f6,
10,
f1,
00,
f9,
fb,
c3,
20,
00,
10,
22,
14,
5b,
2a,
01,
14,
0b,
0f,
03,
0b,
0c,
14,
cc,
e4,
0a,
c2,
0a,
15,
07,
f8,
2c,
80,
02,
0c,
fb,
43,
aa,
1e,
11,
02,
04,
23,
d3,
f7,
dd,
db,
00,
f4,
ff,
f6,
33,
f3,
f7,
04,
e5,
f0,
06,
f4,
12,
d2,
20,
3e,
fe,
ff,
ee,
14,
31,
e1,
f1,
fb,
f8,
e0,
d8,
00,
e0,
31,
b3,
2b,
06,
ea,
29,
f8,
ca,
f8,
e2,
0e,
5e,
09,
dd,
ee,
05,
03,
13,
0e,
ea,
e1,
11,
1b,
12,
f6,
0a,
00,
03,
16,
f5,
ff,
e0,
e4,
f1,
e8,
f1,
eb,
f1,
0e,
11,
00,
00,
d6,
30,
22,
15,
03,
0a,
ee,
11,
0d,
b2,
19,
41,
1f,
09,
19,
f1,
07,
d7,
f2,
0f,
13,
de,
18,
35,
e5,
0c,
de,
cc,
25,
22,
24,
e4,
0e,
a9,
37,
00,
b3,
12,
25,
b1,
da,
d5,
bf,
e4,
ef,
22,
db,
e8,
eb,
dd,
0d,
c9,
25,
03,
eb,
cc,
1f,
20,
d9,
d9,
1c,
37,
d5,
1b,
0f,
bb,
d1,
ee,
1a,
ea,
22,
2e,
c2,
0a,
eb,
35,
d8,
f3,
23,
e2,
1f,
e2,
f0,
d2,
c6,
37,
36,
f4,
5a,
1b,
8e,
0d,
37,
17,
f8,
29,
e4,
21,
08,
30,
4c,
0b,
11,
d5,
36,
0f,
53,
bc,
49,
c9,
32,
b4,
1a,
01,
07,
c9,
39,
26,
09,
f3,
3c,
b9,
e2,
e5,
f3,
f1,
16,
00,
e6,
e5,
09,
67,
0e,
05,
06,
27,
eb,
fb,
ea,
ce,
d4,
2b,
22,
df,
25,
02,
d6,
e0,
03,
ec,
07,
23,
c0,
06,
2e,
08,
03,
3b,
d7,
29,
2a,
3a,
a3,
0a,
e1,
fb,
20,
f7,
2c,
0f,
3c,
e7,
f4,
ef,
c1,
f8,
f9,
04,
fa,
f8,
12,
af,
c7,
4d,
c3,
27,
f8,
47,
19,
f9,
f1,
1f,
2c,
ab,
40,
42,
e3,
1c,
ff,
dd,
04,
0e,
f3,
ee,
0b,
d0,
28,
f9,
18,
03,
42,
27,
ac,
2e,
e9,
f8,
35,
e5,
0d,
45,
0d,
ee,
d5,
ec,
02,
1c,
db,
ba,
f9,
0b,
d7,
50,
e6,
d2,
32,
ea,
21,
07,
f1,
db,
d5,
06,
f5,
2d,
3b,
1a,
21,
0c,
23,
03,
3f,
0b,
c8,
45,
fd,
14,
02,
25,
2c,
1a,
17,
58,
d8,
fe,
17,
cf,
f0,
e6,
36,
2e,
23,
08,
14,
04,
f3,
34,
ed,
fb,
2f,
43,
44,
41,
04,
fa,
22,
04,
0f,
b9,
cc,
0c,
ed,
39,
da,
1c,
eb,
d9,
35,
b8,
24,
1b,
e7,
ec,
eb,
ef,
e9,
ee,
29,
62,
a2,
02,
34,
67,
80,
49,
f9,
c9,
45,
d7,
43,
ba,
1c,
1b,
e0,
f4,
fc,
fa,
e5,
02,
e5,
14,
be,
14,
1d,
22,
0f,
38,
ad,
dd,
29,
b6,
0d,
23,
b4,
fa,
00,
4c,
cd,
f7,
cf,
0c,
f0,
36,
ec,
0a,
ef,
f4,
29,
0d,
f5,
11,
2b,
fb,
fc,
e1,
d8,
26,
fa,
d5,
1e,
14,
29,
d4,
02,
17,
e6,
e2,
00,
2a,
ee,
f5,
22,
ed,
19,
e6,
28,
22,
3b,
d0,
f7,
d0,
e6,
be,
65,
fe,
1a,
28,
2d,
23,
04,
03,
16,
f3,
cf,
ec,
1e,
d3,
fe,
da,
f7,
1d,
e7,
26,
f5,
35,
e8,
44,
e8,
f8,
f8,
ea,
e9,
0b,
f6,
31,
04,
26,
2f,
df,
09,
f5,
04,
d8,
fb,
11,
f1,
f8,
0a,
c1,
f2,
ff,
4d,
2c,
c8,
35,
e3,
ec,
eb,
eb,
bb,
0f,
dd,
c5,
fc,
c0,
36,
32,
da,
e9,
19,
da,
e7,
24,
b6,
e1,
13,
d1,
f2,
68,
19,
ca,
15,
ff,
f3,
cc,
0d,
fe,
1b,
b9,
33,
13,
bf,
ce,
40,
d8,
0f,
1e,
09,
cf,
e9,
0d,
f9,
ae,
00,
07,
18,
1d,
2c,
09,
f0,
e6,
03,
15,
c3,
04,
ce,
47,
c9,
14,
5b,
b3,
f7,
71,
d0,
d5,
03,
12,
d0,
39,
00,
cc,
df,
21,
e1,
ea,
25,
e6,
e2,
dc,
cc,
ed,
d4,
f3,
fd,
f7,
d1,
1e,
f0,
62,
c4,
ef,
f1,
0a,
e5,
39,
e3,
fd,
ef,
0c,
f7,
f8,
21,
f6,
21,
06,
e2,
e6,
00,
fa,
2f,
01,
03,
06,
b4,
04,
1f,
ab,
1a,
e7,
07,
dd,
fd,
f0,
19,
07,
f4,
00,
f4,
b3,
36,
1b,
fc,
f0,
12,
2b,
13,
ef,
e0,
0c,
00,
32,
e0,
18,
f9,
dc,
43,
24,
0f,
05,
05,
0b,
ee,
fb,
28,
16,
b8,
f4,
06,
db,
dc,
17,
f5,
ff,
7c,
4a,
b7,
33,
2d,
e2,
f0,
34,
f4,
1d,
ec,
e5,
f4,
f1,
1e,
fa,
00,
f3,
17,
c5,
c5,
1b,
b8,
03,
57,
ea,
45,
ec,
f4,
f9,
d6,
d1,
3d,
d9,
e8,
11,
e4,
28,
0e,
0a,
f2,
15,
1e,
ec,
04,
ed,
f9,
1d,
1f,
ea,
f6,
fe,
19,
10,
f5,
e6,
1d,
08,
fb,
f4,
1e,
f7,
f3,
e5,
2a,
e3,
10,
f9,
34,
e4,
ec,
e8,
3b,
ab,
d0,
f6,
f2,
2c,
00,
25,
1d,
32,
db,
f7,
07,
fc,
ed,
fd,
ea,
15,
f8,
00,
11,
2a,
c1,
2c,
fe,
ed,
21,
20,
e7,
f5,
d1,
ed,
f0,
2c,
c9,
01,
e4,
fd,
d9,
d9,
0d,
22,
e1,
1f,
42,
fb,
fc,
2c,
41,
fd,
0d,
ea,
36,
1c,
27,
22,
fa,
31,
05,
dc,
f7,
00,
eb,
e7,
04,
ee,
e3,
07,
f0,
e6,
ee,
fe,
c6,
04,
2d,
f5,
30,
54,
e2,
e7,
11,
c5,
2b,
b1,
2b,
e0,
14,
0b,
18,
19,
e1,
f7,
fa,
18,
23,
db,
f6,
08,
e3,
ec,
0a,
f3,
ec,
05,
1c,
df,
1f,
ee,
0f,
40,
da,
1d,
f4,
df,
d3,
1f,
04,
ed,
f0,
e5,
09,
e8,
33,
1b,
17,
d8,
01,
d4,
df,
0a,
1f,
fa,
02,
0e,
ec,
1e,
00,
0f,
10,
f3,
fe,
f9,
dd,
d1,
fb,
d1,
03,
f2,
0b,
0f,
e9,
e8,
d5,
c7,
e9,
52,
19,
e7,
22,
d5,
c5,
11,
b9,
31,
0e,
df,
1d,
de,
ab,
f3,
f0,
05,
2c,
16,
0b,
17,
e7,
f7,
10,
f3,
fd,
cc,
34,
c2,
13,
f4,
ee,
02,
16,
3c,
0d,
12,
d6,
f7,
b4,
29,
04,
27,
0f,
18,
15,
fb,
2b,
b0,
45,
1f,
f0,
13,
eb,
f8,
e4,
03,
01,
0b,
d0,
18,
ff,
f0,
eb,
e6,
08,
e8,
2b,
f9,
cd,
2e,
0c,
21,
7f,
35,
b1,
db,
c2,
fa,
24,
c0,
d7,
b6,
cc,
fa,
55,
e1,
e7,
2c,
ec,
ea,
d5,
1a,
f7,
f0,
18,
f7,
04,
17,
c6,
24,
e5,
ed,
1b,
f8,
01,
fc,
e6,
e8,
30,
dc,
f1,
08,
ad,
fe,
0e,
00,
32,
ed,
eb,
0b,
e5,
27,
09,
e3,
d1,
ff,
25,
58,
1c,
d8,
f0,
f2,
f3,
ec,
21,
14,
23,
0f,
08,
e8,
0e,
ea,
f8,
57,
fb,
ca,
f7,
11,
4b,
f4,
d1,
f4,
d8,
c9,
0b,
b9,
1d,
fe,
44,
62,
19,
eb,
f2,
15,
1c,
0e,
1a,
f3,
e9,
1f,
1a,
0b,
12,
e6,
fd,
f3,
32,
fb,
38,
f2,
fb,
f1,
ef,
e8,
19,
e6,
18,
d2,
2f,
f1,
fa,
e6,
1e,
36,
d8,
ca,
f7,
a7,
14,
c8,
11,
46,
2c,
f1,
9c,
03,
ee,
24,
15,
fb,
d6,
e9,
e9,
40,
08,
fb,
4e,
ea,
4c,
21,
fe,
b6,
f5,
cc,
d8,
f9,
ff,
46,
0e,
fd,
c0,
0d,
db,
32,
3c,
05,
14,
0c,
0d,
02,
ea,
03,
e7,
00,
ea,
0c,
d6,
07,
27,
03,
07,
e9,
f9,
14,
c0,
0e,
15,
1a,
e5,
01,
32,
1c,
f3,
00,
1e,
0d,
da,
32,
bb,
f5,
fb,
de,
1d,
e0,
1b,
25,
f4,
21,
18,
cf,
f5,
e4,
20,
c3,
76,
ce,
d4,
f1,
f4,
34,
e2,
e9,
09,
ee,
23,
dc,
17,
f7,
fb,
e6,
fe,
04,
f5,
2a,
35,
1c,
e5,
ea,
c4,
19,
29,
2e,
df,
f3,
14,
03,
0b,
52,
16,
18,
e6,
00,
32,
a2,
f1,
0e,
f3,
37,
14,
00,
25,
06,
da,
29,
de,
18,
f8,
dc,
d8,
e9,
f7,
1b,
eb,
38,
e9,
0d,
3a,
cd,
18,
c7,
ff,
02,
b4,
3a,
d3,
ce,
f9,
07,
11,
0e,
f0,
14,
e1,
e9,
fa,
fb,
e9,
3d,
e2,
f4,
e7,
1b,
18,
36,
41,
11,
f4,
fb,
16,
a7,
48,
de,
2c,
ea,
25,
e0,
18,
02,
f6,
2e,
de,
28,
fa,
07,
d9,
f1,
05,
fe,
03,
2a,
11,
f4,
fd,
ec,
06,
29,
1b,
dc,
c8,
1a,
f5,
0f,
20,
0e,
e8,
e0,
f1,
06,
02,
18,
0d,
2f,
45,
ad,
e4,
16,
1d,
f9,
28,
5f,
16,
ff,
ef,
df,
c5,
0b,
f8,
02,
d0,
45,
e5,
25,
ed,
06,
cc,
e2,
1b,
bb,
11,
aa,
00,
07,
d7,
1d,
f0,
fa,
fc,
d5,
1b,
40,
30,
22,
11,
d2,
fa,
1b,
03,
c0,
d5,
02,
f6,
25,
e3,
1c,
28,
ed,
2d,
ed,
b9,
4a,
dd,
f4,
19,
ca,
fa,
ed,
1c,
e6,
15,
1c,
ef,
e7,
31,
f8,
46,
fc,
0a,
df,
ba,
4b,
d1,
fc,
fc,
fc,
01,
08,
ee,
f7,
f1,
20,
13,
f2,
05,
e4,
06,
ea,
f8,
e1,
dc,
04,
0d,
e9,
11,
fc,
24,
15,
d4,
05,
e6,
1d,
f7,
fb,
e8,
25,
fc,
05,
06,
de,
c9,
26,
ef,
05,
0b,
f2,
fd,
f7,
df,
10,
0d,
c0,
ed,
fc,
39,
ce,
de,
23,
09,
fb,
fd,
fa,
20,
ef,
d0,
fd,
04,
05,
04,
c0,
07,
df,
1a,
e0,
cf,
36,
1b,
0f,
c2,
22,
33,
fc,
08,
2e,
1c,
c9,
3c,
10,
e7,
ff,
fd,
e5,
dd,
30,
e4,
0d,
f2,
dc,
cb,
2c,
e5,
3f,
05,
e8,
02,
c9,
22,
07,
18,
30,
db,
f3,
0e,
0f,
f1,
e7,
ee,
01,
1d,
e4,
18,
17,
ee,
e3,
03,
e2,
f7,
df,
f3,
e5,
1e,
f5,
1b,
f7,
0e,
f6,
19,
14,
ce,
19,
f1,
0e,
05,
e3,
24,
b1,
da,
e2,
ee,
0b,
e0,
14,
06,
bc,
19,
32,
00,
e6,
ce,
ff,
1c,
da,
0d,
d2,
14,
2a,
e4,
ef,
da,
1b,
c0,
f7,
00,
0a,
df,
d5,
f3,
0a,
22,
0b,
ee,
fd,
02,
e6,
01,
21,
c1,
ef,
e2,
ff,
0d,
fc,
f7,
37,
0f,
45,
32,
28,
23,
21,
00,
f5,
37,
c7,
1f,
19,
04,
ed,
ea,
e8,
f6,
df,
22,
08,
20,
ec,
f2,
16,
db,
f2,
29,
22,
f7,
01,
fa,
07,
fe,
27,
ec,
1f,
d0,
25,
ef,
00,
2e,
39,
ff,
0f,
03,
ea,
15,
fc,
f7,
05,
f4,
0b,
e9,
e2,
18,
0c,
10,
ff,
f2,
0c,
ee,
f8,
04,
fe,
11,
f6,
e5,
19,
11,
05,
05,
ef,
fb,
23,
19,
d7,
f3,
f4,
eb,
dd,
08,
19,
e1,
18,
05,
22,
ee,
0b,
16,
10,
07,
f3,
ed,
21,
dc,
ca,
fc,
ee,
2b,
d5,
bf,
e5,
d7,
10,
0b,
06,
09,
d0,
02,
03,
0a,
d2,
0f,
fe,
1f,
f0,
fa,
0c,
20,
ec,
05,
76,
f6,
05,
1b,
c7,
26,
e8,
fb,
c5,
f8,
03,
e2,
d8,
08,
e9,
f8,
d7,
f9,
13,
26,
20,
0b,
f0,
05,
3c,
21,
29,
03,
22,
da,
e1,
ee,
f6,
14,
2b,
21,
2a,
18,
fc,
ee,
f9,
12,
f6,
e6,
e7,
0a,
0e,
e6,
ee,
47,
13,
02,
27,
0c,
10,
f8,
c7,
ef,
11,
a4,
67,
02,
05,
e8,
fa,
10,
ec,
04,
fb,
fa,
d7,
e2,
f0,
e5,
2d,
e7,
e0,
ef,
01,
1a,
dc,
02,
0c,
cf,
0c,
fd,
01,
e1,
06,
08,
e6,
f2,
10,
01,
ee,
ff,
fb,
10,
de,
14,
27,
ea,
16,
cd,
f5,
d8,
fa,
01,
1b,
fc,
0b,
13,
f0,
03,
ee,
f0,
fa,
f7,
f5,
f5,
ef,
d1,
13,
0b,
bd,
31,
ff,
f0,
d6,
0a,
d9,
40,
14,
29,
ff,
2c,
19,
e4,
d7,
fe,
04,
10,
18,
dd,
f7,
05,
e6,
e0,
f3,
46,
f4,
e9,
20,
08,
16,
fa,
f9,
10,
02,
19,
fb,
10,
15,
e3,
fa,
e3,
f0,
28,
15,
f1,
f1,
ff,
e4,
11,
1f,
ef,
2c,
e3,
34,
1f,
0f,
14,
14,
fe,
16,
06,
1b,
02,
f8,
e7,
f3,
f9,
e9,
f5,
e2,
f9,
f9,
f5,
07,
fd,
03,
f3,
cc,
26,
ab,
34,
fb,
e7,
f1,
2c,
03,
f2,
14,
00,
17,
f3,
0e,
dc,
ef,
d8,
e8,
11,
ec,
d7,
5e,
1c,
ec,
fa,
ca,
41,
e9,
0f,
3f,
20,
0e,
f7,
ed,
24,
fe,
ed,
fb,
0e,
e7,
ed,
02,
04,
19,
d3,
f6,
15,
6c,
b6,
2c,
ea,
40,
c2,
d6,
fb,
0d,
e4,
41,
fe,
0e,
0f,
dd,
ff,
e9,
f7,
e4,
09,
03,
fe,
22,
00,
fd,
17,
f2,
08,
31,
94,
0d,
3e,
16,
17,
cd,
10,
11,
31,
eb,
0d,
dd,
f4,
22,
1b,
04,
05,
2d,
0f,
e6,
d9,
41,
06,
06,
fd,
15,
46,
db,
d1,
ef,
0d,
df,
19,
00,
e7,
03,
18,
dc,
fb,
04,
fb,
e2,
e3,
e6,
2e,
a9,
2c,
f6,
e1,
fe,
1b,
1b,
13,
d2,
3a,
04,
dc,
05,
06,
e3,
f9,
ed,
fa,
ea,
02,
f6,
0d,
0b,
0c,
16,
37,
11,
38,
e1,
0b,
13,
09,
22,
fd,
0d,
f3,
47,
06,
d7,
f2,
00,
10,
0b,
e9,
ef,
06,
0a,
f8,
da,
ad,
1e,
29,
02,
e8,
c3,
37,
ba,
fa,
ed,
d7,
12,
ee,
e2,
00,
0b,
0a,
fd,
1b,
18,
f0,
15,
fb,
24,
e6,
ee,
1d,
ea,
2e,
24,
fa,
08,
d8,
de,
1d,
ed,
f0,
21,
df,
14,
08,
06,
12,
e8,
1e,
09,
dc,
15,
08,
04,
c7,
e6,
22,
dd,
07,
d8,
1b,
02,
e9,
06,
ff,
03,
02,
0c,
e9,
f5,
00,
10,
15,
e4,
08,
f9,
0d,
10,
06,
21,
e7,
98,
06,
eb,
e1,
1d,
d4,
1f,
f7,
f3,
30,
10,
26,
08,
f3,
fe,
d6,
f3,
12,
0a,
0c,
1e,
ef,
0f,
0a,
c3,
59,
f9,
14,
16,
00,
f5,
d5,
1f,
fb,
1b,
ec,
2e,
0a,
f8,
1a,
f2,
f6,
03,
f0,
fe,
ed,
08,
1e,
e9,
fc,
e7,
ec,
1f,
f6,
f5,
1d,
d2,
fc,
e3,
11,
03,
fc,
f7,
09,
fc,
13,
f4,
f2,
12,
fe,
f4,
16,
ea,
d4,
cd,
ee,
10,
18,
ee,
07,
e0,
50,
1d,
fa,
00,
e5,
00,
0d,
0c,
12,
fa,
e4,
29,
10,
e9,
0d,
13,
e5,
e8,
ff,
2f,
df,
2b,
e5,
07,
ff,
2a,
0e,
b6,
ef,
31,
18,
19,
fc,
d6,
e5,
f2,
05,
14,
14,
fb,
ec,
dd,
d8,
19,
de,
04,
f3,
0b,
08,
d3,
d8,
1f,
1f,
ff,
2b,
20,
eb,
f7,
fd,
11,
f1,
06,
13,
23,
08,
03,
e1,
08,
07,
18,
05,
13,
e3,
0e,
e6,
14,
12,
e6,
f2,
0f,
f4,
0c,
1f,
e4,
f1,
f9,
17,
f3,
10,
f9,
ef,
f2,
1e,
c5,
f4,
1c,
25,
cd,
07,
e4,
81,
05,
e5,
df,
0a,
20,
21,
06,
fe,
e9,
10,
0b,
ec,
08,
11,
0e,
0a,
23,
f2,
c8,
02,
21,
f9,
37,
d2,
f0,
e1,
f3,
1a,
f9,
fb,
05,
ea,
f7,
c8,
36,
0b,
07,
2d,
1b,
03,
0a,
ee,
18,
f0,
de,
f1,
0f,
04,
4a,
05,
05,
fd,
1a,
ff,
30,
29,
06,
0e,
df,
04,
fa,
e6,
10,
e6,
1f,
e9,
f3,
2d,
c4,
40,
e9,
d7,
e6,
02,
15,
1f,
e7,
17,
e0,
22,
05,
e3,
fd,
ed,
d3,
fc,
0f,
11,
2c,
f4,
f0,
13,
10,
16,
ed,
21,
ee,
e8,
e0,
07,
15,
eb,
03,
fd,
f1,
e7,
08,
19,
09,
dc,
15,
1b,
f6,
18,
ff,
f0,
1c,
c2,
f0,
dc,
2a,
fe,
e9,
ed,
2c,
e8,
df,
10,
f5,
f8,
2f,
de,
c7,
1c,
09,
1f,
f9,
fd,
10,
24,
2a,
29,
fc,
0c,
3d,
0f,
2b,
d3,
bc,
1b,
e6,
0e,
c4,
f6,
ea,
d4,
ef,
2d,
fa,
17,
e5,
10,
04,
05,
e4,
4e,
c2,
32,
09,
1a,
d7,
ec,
f5,
c7,
e4,
f6,
c9,
3c,
df,
e6,
35,
03,
22,
fe,
e8,
07,
eb,
02,
ca,
df,
43,
d1,
df,
28,
06,
2e,
eb,
ec,
1d,
14,
e9,
fd,
fa,
04,
b9,
f8,
e8,
e4,
80,
de,
2f,
20,
e6,
f7,
45,
25,
15,
05,
17,
e6,
5d,
ec,
dd,
fb,
da,
2b,
d8,
ff,
09,
a8,
ed,
ef,
39,
e6,
f8,
2c,
d4,
e4,
c1,
51,
cc,
15,
f4,
01,
0d,
d8,
d8,
ea,
d9,
d4,
00,
13,
1b,
df,
10,
1a,
29,
d2,
50,
e7,
44,
ff,
d6,
fe,
16,
df,
c7,
d4,
eb,
0a,
20,
ce,
de,
d2,
0b,
e1,
2d,
26,
0e,
45,
fe,
0e,
fd,
b8,
3f,
1a,
0f,
e4,
17,
18,
c9,
fc,
c5,
16,
d5,
2d,
f5,
2c,
09,
d2,
3b,
ca,
04,
cc,
1e,
1d,
ea,
b6,
14,
0f,
07,
0a,
db,
c7,
08,
01,
28,
d7,
cb,
16,
00,
e6,
ef,
36,
13,
20,
d7,
0b,
fa,
1c,
17,
14,
18,
08,
cf,
04,
25,
e7,
2e,
d0,
f8,
00,
f3,
d0,
3e,
ce,
16,
34,
ce,
fe,
19,
fa,
0f,
71,
0c,
3c,
f6,
f6,
94,
56,
10,
d9,
cf,
47,
fc,
f8,
cc,
05,
ea,
0f,
11,
cd,
e9,
06,
fe,
0a,
d9,
23,
1a,
c7,
33,
fb,
0b,
09,
c6,
f7,
14,
c9,
de,
36,
1e,
25,
eb,
f0,
32,
1f,
03,
36,
f2,
16,
f2,
e8,
b4,
02,
1a,
d6,
f1,
16,
02,
b4,
c4,
15,
e4,
12,
38,
dd,
07,
23,
f3,
16,
51,
11,
1c,
c5,
37,
11,
22,
0e,
20,
ca,
21,
dd,
21,
c8,
19,
ec,
37,
e4,
a5,
48,
e1,
dd,
fc,
ed,
2f,
d0,
fb,
20,
ce,
ef,
cd,
30,
b8,
ef,
ec,
d9,
d1,
0a,
fe,
17,
3b,
26,
ee,
ea,
14,
e9,
c0,
ef,
01,
e9,
05,
e0,
1c,
17,
15,
f2,
dc,
46,
08,
11,
22,
f8,
fb,
ff,
17,
bb,
0a,
1b,
d0,
da,
13,
e1,
f7,
d5,
df,
e4,
d2,
c8,
c6,
cc,
20,
17,
03,
d7,
e2,
e6,
f1,
51,
1c,
37,
2e,
06,
29,
ce,
08,
f9,
f8,
17,
e3,
13,
01,
12,
27,
de,
fc,
28,
bd,
41,
ef,
a3,
de,
ca,
1d,
18,
c0,
e1,
fc,
22,
c7,
d6,
0a,
e1,
e3,
04,
3d,
10,
ef,
2d,
1b,
4b,
09,
ee,
06,
c5,
d2,
e2,
0d,
47,
1e,
29,
d0,
02,
29,
bd,
f4,
28,
17,
ff,
ee,
f3,
1e,
f4,
28,
ee,
eb,
3a,
02,
1d,
d1,
0b,
0d,
de,
2f,
14,
2a,
3f,
0c,
1d,
ee,
0c,
c7,
c9,
ce,
0a,
e6,
00,
be,
06,
42,
d1,
f3,
21,
06,
ff,
18,
bc,
e3,
fd,
f5,
f4,
d7,
dd,
2f,
ef,
f8,
5a,
ea,
d4,
e4,
35,
cb,
20,
f1,
25,
17,
03,
0c,
1e,
92,
49,
ec,
f4,
25,
11,
fa,
2b,
1a,
1b,
09,
38,
fe,
f3,
13,
23,
00,
33,
09,
27,
18,
0a,
35,
ea,
1b,
2d,
b4,
3e,
dc,
28,
20,
4d,
1f,
0a,
c1,
f0,
c2,
46,
f0,
31,
1b,
08,
22,
d4,
ea,
e8,
1b,
0a,
e1,
ed,
fa,
e4,
e9,
06,
e8,
fb,
e0,
e1,
e9,
09,
c7,
2e,
d3,
fb,
1e,
28,
ce,
d8,
db,
f9,
fa,
f4,
e6,
13,
32,
44,
22,
b7,
08,
f9,
54,
e3,
33,
1f,
da,
21,
e2,
36,
1a,
0f,
13,
e6,
49,
1c,
2d,
24,
f1,
c4,
ec,
36,
ed,
1d,
4e,
0a,
0c,
b6,
a4,
04,
e8,
1c,
00,
39,
0f,
ef,
19,
d2,
17,
05,
d3,
fd,
21,
38,
2a,
0d,
5e,
a5,
27,
e5,
12,
28,
e4,
28,
e3,
d4,
f9,
1c,
26,
f9,
df,
31,
e5,
d6,
e7,
26,
fa,
e0,
e3,
d8,
fe,
dd,
d2,
e0,
ef,
e3,
02,
f7,
2c,
26,
e0,
f0,
12,
fe,
2e,
32,
e8,
16,
11,
22,
10,
e9,
30,
f7,
e8,
0a,
40,
c8,
03,
0a,
18,
dc,
0a,
d0,
dd,
16,
1a,
10,
fb,
bf,
f4,
e5,
0d,
d9,
df,
dc,
11,
06,
13,
04,
d3,
d8,
3a,
df,
c4,
07,
0d,
b4,
94,
f0,
19,
d7,
10,
41,
35,
1c,
08,
e7,
f3,
16,
e1,
f4,
10,
e3,
e4,
10,
de,
ea,
af,
1f,
1f,
d6,
e9,
09,
3d,
00,
f9,
ed,
c2,
ee,
0c,
f7,
1a,
ec,
db,
12,
04,
13,
d6,
0c,
06,
11,
40,
17,
f8,
eb,
20,
f6,
af,
3b,
0f,
e0,
29,
1b,
64,
f4,
ed,
dc,
23,
e7,
17,
d7,
0b,
0d,
d2,
ee,
18,
09,
ea,
27,
f1,
19,
0b,
1d,
e4,
19,
06,
e8,
f0,
e1,
e5,
20,
e4,
e7,
c2,
e8,
1c,
c1,
ca,
e3,
cc,
dd,
19,
28,
20,
2b,
08,
01,
02,
3b,
26,
db,
26,
17,
ef,
da,
fb,
18,
2c,
37,
17,
0a,
fb,
57,
c6,
0b,
29,
f3,
05,
d6,
dd,
37,
0f,
ed,
15,
1a,
f6,
f8,
4e,
2e,
be,
c3,
11,
02,
cc,
27,
d5,
10,
25,
c8,
c8,
eb,
da,
a8,
17,
34,
2a,
ac,
03,
01,
06,
dc,
d2,
da,
11,
e4,
29,
b1,
f7,
ea,
36,
e4,
15,
de,
c7,
18,
f3,
ac,
eb,
fe,
d0,
e8,
d7,
d9,
30,
18,
d5,
b1,
fc,
f7,
35,
f9,
13,
20,
48,
f3,
db,
e1,
fd,
52,
e2,
d9,
d0,
bc,
fa,
23,
f0,
95,
eb,
07,
27,
05,
03,
de,
2d,
36,
3b,
ea,
f8,
41,
ef,
3f,
18,
e0,
16,
d8,
dc,
96,
2b,
3b,
36,
2d,
c5,
df,
44,
2a,
d7,
cf,
25,
be,
d3,
ed,
0b,
b3,
01,
13,
1c,
0b,
e0,
1f,
27,
db,
de,
c3,
d7,
20,
da,
b6,
21,
4a,
d0,
ef,
d8,
10,
01,
c5,
c9,
d3,
fa,
dc,
31,
fc,
d0,
a3,
d4,
14,
f6,
1a,
50,
a8,
cd,
13,
22,
d4,
28,
e6,
f5,
d3,
58,
1b,
03,
e4,
e6,
42,
44,
08,
39,
fa,
da,
f7,
f6,
f8,
e1,
c4,
9d,
e2,
29,
22,
bf,
f7,
dc,
c0,
13,
bf,
e3,
dc,
2e,
2e,
ce,
e9,
db,
1e,
fe,
22,
fd,
33,
3b,
c2,
4d,
6b,
f4,
f1,
8a,
06,
0b,
34,
c3,
f2,
1e,
d7,
f6,
16,
93,
29,
1c,
27,
d3,
ae,
28,
23,
04,
cf,
b0,
9b,
01,
d0,
d1,
2a,
9c,
1b,
03,
01,
3d,
01,
ed,
e1,
fe,
ea,
47,
f4,
fa,
19,
ec,
6b,
a3,
0e,
bc,
33,
0c,
20,
03,
0e,
ed,
79,
db,
2d,
2c,
18,
aa,
18,
c2,
dd,
dc,
ef,
2c,
e6,
ee,
30,
4c,
ce,
1b,
38,
27,
f5,
55,
14,
cf,
e2,
03,
d1,
32,
e6,
b8,
dd,
07,
db,
31,
27,
08,
ad,
ee,
14,
21,
b8,
4e,
c0,
f3,
dd,
c6,
ff,
c3,
da,
3c,
01,
e4,
1b,
3b,
01,
06,
26,
0e,
fe,
c2,
17,
3c,
e1,
0d,
c2,
25,
08,
c2,
2d,
c4,
39,
d7,
18,
17,
0f,
d6,
de,
1b,
1f,
0f,
3c,
21,
fd,
d8,
b0,
da,
14,
1a,
ef,
c6,
df,
06,
c3,
0e,
16,
30,
ce,
0a,
e1,
df,
ec,
51,
e9,
37,
14,
ef,
51,
31,
10,
18,
a7,
0e,
03,
da,
d6,
06,
e2,
e3,
01,
15,
02,
40,
02,
f7,
de,
c0,
dd,
cb,
da,
06,
d7,
13,
33,
fa,
01,
22,
1d,
eb,
0a,
29,
03,
12,
d6,
c9,
44,
fd,
e8,
0a,
0a,
0b,
43,
e4,
c6,
fa,
2a,
e9,
2a,
08,
dd,
15,
fd,
cb,
14,
1e,
3d,
ed,
31,
d6,
2d,
ec,
7c,
35,
1e,
1e,
e0,
ed,
01,
32,
15,
37,
12,
4f,
c5,
df,
2d,
d3,
7f,
18,
f3,
cd,
fa,
ff,
e9,
f9,
16,
f3,
fa,
c5,
10,
e9,
0c,
d6,
fd,
3d,
31,
28,
ea,
16,
d9,
3d,
e5,
d8,
01,
36,
23,
f9,
34,
04,
d3,
d9,
1c,
0b,
03,
c8,
c8,
b6,
dc,
20,
c8,
f2,
0d,
09,
1d,
e1,
de,
1f,
df,
f5,
06,
42,
e1,
16,
39,
39,
b5,
aa,
c6,
f3,
d7,
04,
05,
f0,
29,
c0,
c6,
fe,
1e,
0b,
12,
dd,
0c,
b7,
eb,
2c,
e0,
29,
05,
08,
dc,
d6,
20,
db,
c9,
17,
2f,
f4,
1d,
d0,
d2,
45,
c7,
e3,
e0,
d1,
06,
fb,
23,
c4,
0e,
27,
e9,
d2,
16,
c6,
09,
2b,
fc,
26,
fc,
e3,
d3,
d2,
05,
d0,
dd,
16,
24,
32,
21,
16,
0d,
d0,
3c,
e7,
b5,
0f,
16,
14,
e6,
a6,
12,
c5,
cd,
2d,
f4,
d3,
0a,
12,
06,
cd,
ee,
cf,
c3,
03,
e9,
28,
4c,
33,
1c,
dc,
0c,
16,
38,
36,
c4,
49,
12,
c0,
3a,
e3,
e8,
1a,
3b,
fd,
c9,
00,
30,
e9,
18,
32,
f0,
d6,
25,
fc,
e8,
20,
e7,
29,
1b,
30,
cd,
18,
0f,
f3,
03,
25,
f0,
24,
39,
0e,
36,
23,
35,
2e,
27,
d7,
36,
02,
bd,
04,
13,
63,
d7,
d9,
4a,
65,
1d,
2c,
c1,
5a,
43,
60,
0d,
c6,
2a,
15,
b1,
1f,
ca,
f3,
de,
33,
28,
c1,
2a,
21,
0c,
fb,
f4,
4f,
4c,
28,
f5,
cc,
08,
4b,
4c,
32,
c4,
d3,
b0,
f7,
c1,
d0,
11,
df,
ed,
3c,
38,
ca,
b6,
39,
c8,
1f,
2f,
06,
eb,
3f,
c1,
ea,
0a,
ff,
fe,
e5,
cd,
0d,
dc,
29,
22,
f4,
d5,
ee,
f0,
ed,
34,
f9,
fd,
2c,
26,
1c,
de,
05,
d0,
d5,
e7,
2d,
44,
d8,
04,
00,
0b,
32,
f8,
ff,
22,
08,
d2,
13,
c4,
11,
cf,
29,
27,
ef,
e9,
1a,
c8,
39,
15,
d1,
32,
1c,
d3,
de,
f0,
35,
20,
f7,
18,
f8,
01,
f2,
09,
1f,
e7,
f6,
06,
1a,
c3,
f0,
09,
08,
e4,
f0,
33,
dd,
13,
ec,
e7,
d1,
01,
07,
f2,
c0,
10,
04,
ff,
24,
da,
30,
21,
01,
d9,
fb,
fa,
08,
27,
ff,
36,
2f,
dd,
0d,
e4,
14,
06,
1e,
f3,
e6,
2b,
f1,
f2,
e2,
e7,
f6,
02,
0d,
14,
39,
bf,
22,
dc,
cb,
f9,
cb,
1f,
f4,
30,
fe,
eb,
10,
f0,
e0,
14,
e2,
01,
f2,
13,
e1,
93,
33,
03,
00,
cf,
63,
08,
00,
dc,
e3,
25,
ea,
01,
07,
f9,
d5,
ed,
03,
fc,
e0,
24,
cf,
bd,
04,
13,
e5,
17,
08,
3a,
04,
f6,
d9,
1b,
08,
07,
e9,
22,
76,
09,
f3,
ce,
fc,
d9,
02,
ee,
ea,
f8,
29,
10,
cb,
24,
f6,
f1,
26,
00,
00,
30,
f5,
f7,
06,
e4,
0b,
f5,
00,
e1,
ff,
ed,
ed,
02,
f0,
2a,
28,
e4,
27,
ed,
0c,
24,
2e,
f7,
cc,
3c,
4b,
a6,
21,
f1,
4f,
ff,
24,
f8,
ff,
f0,
f5,
2f,
0e,
db,
e9,
19,
00,
f2,
30,
d3,
a1,
1f,
22,
cd,
40,
1e,
1e,
da,
dc,
1d,
f6,
ef,
15,
fb,
d7,
d1,
fd,
05,
f8,
09,
1f,
09,
10,
00,
ec,
3e,
d0,
1c,
dd,
de,
19,
f6,
f2,
15,
0f,
bb,
29,
d9,
20,
fe,
07,
08,
eb,
eb,
3f,
e8,
f5,
00,
f9,
15,
40,
fa,
12,
f0,
09,
aa,
0d,
ec,
fb,
14,
14,
17,
ec,
f3,
f1,
d4,
f6,
e2,
08,
fe,
f5,
eb,
fc,
bb,
34,
06,
c4,
0a,
08,
c7,
28,
27,
00,
1a,
1c,
05,
11,
0e,
f2,
08,
c7,
ea,
1b,
3e,
ee,
1a,
09,
e1,
cb,
e2,
12,
cf,
fa,
e0,
16,
2c,
f1,
d5,
e2,
7f,
c1,
c7,
fd,
e3,
ea,
39,
14,
e3,
00,
02,
14,
de,
24,
eb,
1c,
1c,
d7,
08,
cc,
0d,
aa,
17,
2c,
02,
f4,
d1,
1f,
f1,
fe,
04,
ec,
f3,
26,
19,
d7,
12,
c9,
f1,
fc,
cd,
37,
32,
14,
f6,
05,
cc,
f0,
25,
02,
44,
4b,
08,
e7,
13,
19,
eb,
f3,
f5,
e2,
15,
ab,
29,
e9,
fc,
1f,
29,
e3,
e3,
41,
e8,
06,
36,
e0,
1b,
e3,
fa,
e0,
15,
06,
11,
05,
1b,
f8,
cf,
f6,
2d,
c5,
dc,
21,
02,
ef,
23,
27,
25,
d3,
27,
10,
0b,
f7,
fb,
26,
ef,
08,
e7,
f8,
d0,
0b,
20,
e6,
38,
f5,
02,
f4,
ed,
a3,
20,
19,
fb,
0c,
e8,
ed,
0c,
03,
ee,
04,
00,
07,
ee,
00,
03,
ef,
04,
ec,
11,
11,
cf,
12,
f3,
da,
43,
2d,
21,
03,
f3,
25,
d3,
0d,
f8,
d6,
35,
01,
03,
f9,
0b,
01,
19,
29,
11,
ee,
0f,
ea,
23,
f6,
03,
f8,
df,
17,
e0,
0e,
f0,
1a,
e7,
29,
0b,
ed,
0c,
00,
fa,
ec,
e0,
ef,
02,
fc,
f0,
18,
eb,
cc,
ff,
db,
14,
1c,
02,
e4,
21,
d8,
08,
ed,
e0,
01,
e9,
e9,
29,
20,
09,
f1,
14,
fa,
07,
ea,
1d,
26,
fc,
e9,
e4,
13,
dc,
22,
e5,
b9,
31,
b4,
46,
dd,
d9,
41,
b7,
b6,
ee,
06,
0f,
ef,
f7,
10,
0e,
1f,
fd,
09,
ed,
17,
b1,
5b,
08,
14,
06,
ee,
2e,
d3,
fd,
fc,
da,
0c,
f2,
f6,
ec,
f8,
07,
f0,
e6,
1f,
08,
00,
f4,
ef,
0e,
fb,
fb,
04,
2b,
0c,
d1,
17,
13,
00,
f5,
21,
eb,
dc,
e3,
fe,
02,
ff,
e5,
ff,
10,
ee,
d7,
fb,
30,
17,
f6,
fc,
f4,
e5,
1b,
e4,
fc,
34,
e4,
ea,
09,
f8,
dc,
00,
0a,
f8,
10,
ef,
f8,
e9,
ea,
e2,
d4,
1a,
ee,
f9,
12,
fa,
f9,
0c,
e9,
c1,
ed,
e6,
fd,
d2,
bf,
2b,
02,
fd,
18,
fe,
09,
07,
00,
cc,
0a,
0a,
f4,
ee,
4b,
d8,
ed,
dc,
04,
ee,
0e,
f1,
24,
0f,
07,
01,
0c,
ef,
05,
18,
13,
fa,
0b,
f9,
ed,
19,
fc,
de,
f1,
f1,
12,
f2,
15,
0e,
02,
fc,
eb,
f6,
ef,
12,
15,
0d,
f8,
f9,
01,
fa,
f1,
10,
27,
14,
25,
f8,
ef,
08,
f4,
3b,
f9,
ec,
07,
10,
cb,
10,
f4,
e3,
0a,
05,
f6,
ea,
f2,
04,
16,
f2,
ff,
33,
02,
e9,
1d,
c7,
35,
46,
03,
e5,
21,
23,
e5,
03,
1d,
0f,
e4,
ec,
28,
f2,
24,
13,
f8,
ff,
f6,
fc,
de,
de,
1f,
f1,
d7,
f6,
fc,
37,
ef,
1e,
f5,
fa,
ef,
d1,
1b,
ec,
01,
ec,
dc,
ef,
ff,
f9,
e8,
07,
fa,
f3,
08,
1b,
f2,
0b,
f3,
06,
eb,
f9,
ff,
d5,
2c,
fd,
ef,
00,
1e,
ce,
48,
fd,
fe,
00,
fd,
e5,
fc,
fb,
ec,
15,
f7,
08,
f8,
05,
f4,
f4,
fe,
f9,
14,
11,
e7,
28,
f8,
ea,
eb,
f6,
1b,
05,
02,
f8,
ec,
ff,
15,
fc,
0a,
0f,
e4,
fd,
de,
ee,
06,
ea,
07,
0c,
18,
ec,
fb,
06,
de,
f0,
1d,
f3,
03,
04,
04,
03,
03,
0b,
21,
03,
12,
f4,
00,
03,
e2,
0b,
fe,
04,
1a,
f4,
05,
20,
ff,
18,
f0,
fc,
0b,
f1,
23,
e4,
03,
00,
0c,
f9,
34,
da,
d6,
20,
1a,
3e,
30,
0e,
08,
e4,
14,
d6,
14,
f7,
f3,
f8,
c6,
12,
fa,
26,
fc,
1a,
f7,
ea,
1d,
f5,
14,
f6,
f9,
e2,
ed,
18,
e7,
fb,
13,
fb,
07,
f3,
31,
16,
ca,
0e,
29,
10,
21,
fe,
06,
f0,
f7,
df,
4c,
ce,
37,
2b,
f1,
3c,
ea,
32,
e5,
bc,
24,
b7,
19,
02,
f1,
f5,
cf,
fd,
d2,
3a,
fa,
09,
f3,
e9,
04,
f3,
05,
f1,
26,
30,
f0,
f1,
0c,
00,
e8,
ce,
3c,
d5,
0b,
fc,
1f,
e0,
1c,
02,
11,
e8,
ef,
f9,
08,
ff,
02,
f7,
20,
0f,
1f,
e6,
09,
12,
1c,
fc,
06,
2e,
fc,
fe,
01,
cb,
24,
2c,
f6,
ec,
23,
11,
c9,
f8,
24,
16,
01,
fd,
1d,
e5,
2a,
fb,
ff,
03,
e4,
ed,
ec,
16,
1b,
03,
e1,
04,
fd,
06,
ec,
ea,
f2,
0c,
df,
22,
fd,
e5,
1c,
f0,
14,
13,
f6,
37,
eb,
25,
14,
e0,
1c,
ea,
18,
f4,
01,
2c,
fa,
1c,
e9,
ec,
f6,
ff,
00,
bd,
2d,
f8,
0e,
04,
e4,
e2,
e1,
11,
e7,
15,
d9,
10,
e6,
f9,
e3,
02,
06,
08,
fa,
22,
eb,
fe,
f1,
22,
be,
19,
fb,
f3,
ce,
ed,
14,
06,
e8,
03,
aa,
4a,
1f,
f0,
eb,
1a,
1f,
1c,
01,
de,
e8,
f5,
f8,
08,
0a,
e8,
dc,
08,
f0,
f1,
e5,
1b,
f9,
e8,
07,
12,
2a,
e4,
f7,
e8,
de,
21,
fe,
f0,
f6,
2a,
31,
f0,
02,
ff,
f8,
df,
3e,
08,
fa,
d7,
2b,
21,
0d,
fe,
f4,
f2,
d7,
10,
f3,
e5,
3a,
f2,
0d,
fd,
09,
ec,
e3,
fe,
0a,
fe,
ee,
17,
ec,
e9,
fa,
e0,
01,
04,
f9,
fc,
d8,
e9,
02,
1d,
cc,
1a,
fd,
f0,
15,
e0,
ee,
19,
ff,
ea,
31,
b9,
24,
01,
fc,
eb,
fe,
e8,
f0,
de,
0e,
13,
12,
e2,
0e,
3b,
e1,
e7,
14,
ec,
e6,
f0,
fa,
02,
e7,
30,
d1,
00,
0a,
ec,
06,
f3,
f8,
03,
d6,
02,
1c,
ea,
fe,
f6,
0e,
d9,
0e,
f3,
f2,
0c,
42,
ec,
d9,
e6,
1f,
c3,
49,
de,
06,
2a,
08,
ed,
15,
f0,
30,
80,
1f,
f6,
ef,
1d,
c9,
eb,
04,
e6,
f8,
08,
df,
fd,
fd,
f0,
13,
11,
f9,
07,
e3,
13,
0a,
f4,
14,
fa,
ed,
2a,
f0,
e9,
06,
10,
f7,
07,
e1,
0f,
f6,
f1,
fb,
ef,
03,
06,
15,
e1,
f1,
3e,
b6,
29,
f4,
f0,
15,
28,
d4,
e4,
01,
e3,
c7,
22,
09,
fc,
09,
0b,
04,
ed,
22,
fd,
f2,
fa,
f8,
df,
27,
d5,
22,
fc,
0f,
14,
f4,
00,
f1,
fc,
0e,
04,
03,
03,
28,
01,
10,
17,
eb,
14,
02,
2a,
db,
1b,
1d,
eb,
08,
00,
fa,
15,
be,
45,
0a,
f3,
13,
eb,
29,
fe,
05,
fa,
e4,
27,
10,
06,
d4,
2d,
dc,
34,
d4,
f5,
16,
c6,
2f,
fc,
06,
ff,
a7,
30,
d2,
fa,
04,
c9,
1d,
f7,
21,
2b,
df,
05,
fe,
f6,
f8,
03,
fb,
11,
f1,
29,
f7,
f4,
fa,
0f,
09,
09,
f7,
1d,
f2,
31,
e5,
f6,
f7,
06,
ef,
10,
00,
ea,
0d,
38,
fe,
e1,
f7,
04,
f0,
e8,
fd,
14,
f4,
28,
0a,
0a,
e0,
05,
ee,
03,
00,
e1,
fd,
f9,
ea,
08,
12,
04,
1e,
de,
29,
df,
e1,
1d,
03,
06,
08,
0b,
fd,
b6,
2d,
04,
e2,
40,
16,
c3,
e7,
e3,
e9,
d2,
26,
19,
1a,
de,
22,
ea,
f6,
ed,
03,
2d,
fd,
eb,
f2,
e4,
2e,
d5,
f5,
09,
1e,
fb,
02,
f0,
02,
e5,
1c,
0d,
f6,
09,
07,
fd,
f0,
00,
0c,
fb,
0e,
f2,
0a,
f4,
0a,
f1,
fc,
f1,
f9,
f8,
fb,
06,
07,
11,
fa,
01,
07,
f2,
f0,
21,
f6,
06,
e0,
08,
14,
27,
11,
ea,
fc,
f3,
f7,
08,
df,
0c,
02,
08,
08,
e4,
08,
07,
37,
f4,
0f,
04,
24,
dc,
25,
e6,
e3,
1f,
d2,
06,
ff,
2c,
32,
1a,
34,
06,
28,
1d,
b6,
ec,
e9,
eb,
17,
f2,
0b,
f0,
07,
eb,
03,
03,
ec,
ed,
05,
de,
09,
ff,
0f,
f1,
07,
fc,
e5,
1e,
09,
de,
0d,
01,
fe,
fe,
eb,
e4,
f6,
0e,
e3,
24,
e1,
04,
1e,
2b,
cc,
23,
e9,
00,
19,
12,
05,
dd,
f4,
18,
d0,
27,
f9,
f6,
0a,
fc,
e8,
10,
0f,
ee,
0f,
ff,
f4,
f5,
03,
23,
ee,
ec,
0e,
ee,
00,
12,
02,
13,
0a,
05,
01,
fa,
0a,
11,
f1,
08,
f4,
07,
f6,
eb,
fb,
f0,
08,
12,
f0,
03,
09,
11,
c6,
33,
10,
ef,
11,
0b,
0b,
e9,
01,
ee,
13,
dc,
10,
0b,
e1,
de,
02,
e6,
0c,
0b,
e4,
12,
ff,
22,
0a,
df,
1d,
f1,
00,
1b,
98,
44,
ff,
07,
0d,
d8,
33,
f0,
da,
de,
05,
47,
d5,
fe,
f1,
28,
e9,
d8,
2a,
db,
3e,
10,
1f,
13,
fb,
11,
ed,
2f,
b9,
fb,
12,
ff,
05,
ca,
12,
0d,
fd,
e1,
e0,
f6,
d4,
33,
42,
fb,
f3,
c0,
43,
d9,
46,
fb,
e2,
3f,
f8,
dd,
21,
1b,
ea,
e9,
08,
01,
f5,
d6,
27,
08,
d9,
2a,
d5,
3c,
e1,
d1,
0c,
ab,
29,
10,
02,
0c,
00,
16,
16,
fe,
cc,
f0,
f6,
e6,
e6,
11,
f9,
dc,
04,
d8,
08,
39,
f0,
09,
f9,
15,
10,
0b,
ed,
f0,
f6,
f3,
0b,
0e,
e7,
22,
03,
0a,
e6,
08,
de,
2b,
f1,
18,
10,
33,
30,
c4,
f8,
08,
31,
4c,
03,
fa,
e8,
0c,
16,
b6,
fc,
fc,
19,
0c,
cd,
01,
0e,
dc,
d5,
30,
c6,
fb,
f4,
09,
27,
21,
f7,
b4,
56,
0a,
fa,
06,
da,
32,
d7,
f6,
06,
ed,
16,
ee,
23,
0e,
19,
04,
15,
f0,
04,
1d,
c9,
29,
c6,
07,
05,
ee,
08,
f4,
13,
db,
e7,
ff,
0c,
f7,
28,
01,
ec,
11,
fd,
cf,
24,
08,
e7,
dc,
e5,
0a,
c9,
ce,
c4,
e9,
04,
e8,
f6,
13,
26,
0d,
30,
ca,
1a,
0b,
d1,
20,
ea,
ed,
f4,
ef,
df,
d8,
cf,
e4,
35,
30,
0b,
fb,
d6,
62,
27,
e9,
f4,
07,
19,
06,
14,
c5,
0c,
dc,
eb,
00,
f1,
fd,
04,
03,
f8,
f5,
00,
0a,
17,
bc,
e3,
d8,
30,
d5,
f3,
dc,
2e,
ea,
b7,
0f,
0d,
1e,
21,
ea,
ee,
03,
d4,
03,
10,
fd,
e0,
1d,
cd,
08,
dc,
f5,
ef,
1c,
bc,
16,
bf,
1b,
27,
f1,
04,
ea,
04,
d5,
0c,
e5,
f4,
e9,
e3,
e4,
07,
20,
15,
a5,
7f,
fa,
10,
13,
ee,
1f,
24,
23,
d3,
15,
2f,
f1,
20,
d9,
f0,
09,
01,
08,
db,
23,
0d,
f4,
e9,
ff,
14,
e1,
f9,
c8,
42,
cf,
ff,
ea,
df,
07,
d7,
ef,
fe,
ec,
fe,
e0,
eb,
03,
06,
ff,
43,
df,
18,
f4,
f6,
f4,
cf,
2a,
ea,
19,
0e,
04,
15,
04,
0d,
be,
4b,
eb,
f4,
f5,
34,
05,
d3,
10,
0e,
bc,
06,
10,
08,
22,
b6,
41,
fa,
da,
35,
db,
7e,
03,
e6,
f4,
f4,
0b,
10,
06,
1b,
eb,
f2,
de,
07,
b4,
2a,
db,
03,
0b,
fd,
4d,
c7,
e3,
e2,
17,
11,
d8,
f0,
f0,
24,
ba,
26,
f0,
fe,
2d,
f4,
19,
03,
16,
ff,
fc,
f1,
11,
df,
11,
e4,
14,
00,
d7,
36,
8b,
57,
f6,
05,
05,
db,
15,
c6,
fe,
f0,
2e,
e7,
d0,
15,
16,
ea,
0b,
06,
15,
1c,
e6,
13,
e3,
26,
0d,
c4,
51,
16,
fa,
5a,
df,
09,
07,
f7,
ff,
19,
01,
e2,
13,
15,
e5,
0a,
0c,
00,
e8,
fd,
ce,
18,
fd,
0e,
7b,
a5,
12,
d9,
d9,
2c,
e0,
f9,
ec,
c3,
13,
f3,
ff,
10,
0f,
0a,
f0,
0f,
fb,
0a,
cc,
00,
bf,
01,
e3,
cc,
45,
00,
fe,
06,
e8,
20,
05,
ff,
2a,
bc,
19,
f7,
ee,
0a,
e0,
d5,
c6,
f1,
23,
20,
c5,
43,
f7,
f8,
ef,
d2,
0c,
e1,
0a,
1c,
fc,
fe,
21,
dd,
f9,
f9,
fa,
08,
fb,
dd,
0d,
0b,
f9,
2a,
df,
d8,
25,
00,
1a,
f2,
d9,
f8,
f5,
fb,
06,
1e,
ea,
12,
f4,
f5,
0b,
06,
0b,
b5,
f0,
10,
f2,
e7,
06,
eb,
56,
f1,
d1,
58,
d3,
1e,
0f,
d6,
39,
de,
b6,
2c,
e7,
fc,
f4,
21,
31,
f3,
fa,
1d,
df,
fc,
07,
ed,
31,
c4,
e6,
05,
a7,
4a,
01,
09,
1a,
e4,
f0,
05,
07,
f6,
12,
ea,
0d,
06,
f8,
0e,
11,
07,
11,
f1,
f1,
f8,
ff,
0c,
ec,
03,
f1,
fd,
ef,
f0,
0a,
12,
ef,
04,
f6,
ee,
0b,
fb,
12,
e6,
f0,
44,
08,
ed,
d9,
56,
f6,
2e,
bb,
23,
06,
a9,
14,
c6,
e9,
d8,
28,
03,
a5,
09,
f1,
3f,
ed,
ec,
f3,
3a,
c2,
de,
0d,
0b,
44,
f9,
27,
11,
fa,
2c,
d2,
fa,
e7,
16,
2d,
a9,
2d,
f2,
f9,
20,
f4,
ec,
e2,
08,
0b,
fb,
05,
f3,
fa,
f3,
3b,
2e,
ef,
db,
eb,
e1,
cf,
f5,
08,
f2,
02,
13,
0b,
10,
eb,
fe,
ed,
e4,
04,
e3,
28,
23,
03,
f0,
03,
d3,
0b,
fd,
f6,
24,
ae,
28,
f5,
d4,
0a,
d9,
4a,
da,
e4,
de,
13,
f2,
fd,
ef,
0f,
06,
f7,
ed,
fc,
00,
1d,
10,
09,
14,
ff,
f8,
d9,
f2,
0c,
f5,
ee,
fc,
22,
fa,
06,
f0,
f0,
e7,
f2,
e3,
dd,
d4,
2a,
2e,
25,
10,
1a,
e9,
e7,
ef,
1f,
f9,
d9,
fa,
d5,
dd,
ee,
1f,
07,
1c,
26,
eb,
24,
d2,
d3,
08,
d0,
f4,
fa,
d3,
35,
d6,
df,
d3,
1a,
52,
fa,
d7,
f0,
cd,
15,
eb,
1e,
ae,
39,
28,
fd,
f5,
e4,
fc,
ec,
17,
da,
e6,
2b,
d0,
22,
e3,
b5,
c3,
d6,
e5,
4f,
af,
5c,
e0,
e8,
22,
f9,
21,
29,
d6,
f8,
07,
ed,
f6,
25,
d8,
c5,
19,
09,
09,
35,
41,
9d,
d6,
35,
03,
f6,
4f,
ee,
fd,
23,
07,
15,
f2,
ec,
d8,
db,
da,
fa,
f8,
21,
c0,
fe,
14,
04,
00,
ca,
0a,
20,
2b,
12,
e2,
f6,
bb,
c6,
d9,
00,
04,
a0,
21,
ed,
04,
1c,
d2,
1a,
ed,
0b,
3a,
0e,
22,
18,
f2,
1e,
1d,
07,
37,
60,
ae,
f0,
f7,
14,
eb,
5b,
05,
ea,
14,
ef,
2f,
02,
20,
f8,
c1,
07,
f6,
0a,
23,
fa,
ee,
ce,
fc,
fb,
dd,
ef,
2d,
e8,
41,
38,
35,
2c,
d5,
e2,
f7,
0e,
e9,
19,
0e,
e9,
f5,
d5,
04,
f3,
b8,
f7,
1a,
19,
0b,
6c,
f3,
b0,
03,
15,
13,
b5,
86,
d8,
f6,
12,
f6,
fc,
1f,
d2,
17,
01,
15,
04,
24,
f2,
f3,
fa,
14,
d5,
20,
e7,
ed,
f9,
fb,
19,
f7,
53,
e3,
23,
11,
1b,
dd,
dd,
32,
ec,
d5,
35,
39,
f5,
f1,
12,
3e,
12,
f3,
fc,
6b,
e0,
25,
ef,
e9,
0e,
07,
cf,
de,
d2,
d5,
1e,
14,
04,
f6,
2c,
ee,
f0,
ec,
ee,
32,
31,
fc,
02,
f5,
fc,
12,
c5,
1b,
2c,
0f,
47,
e0,
20,
f5,
e1,
1e,
fb,
15,
eb,
d4,
04,
c2,
f5,
f5,
45,
bd,
fe,
d3,
01,
45,
e1,
e7,
14,
17,
7f,
fb,
18,
12,
d8,
f4,
f8,
0f,
f4,
e0,
10,
ba,
db,
25,
2c,
0c,
d8,
fa,
12,
1c,
c7,
1c,
1a,
30,
04,
25,
0e,
ea,
28,
f1,
08,
ff,
f1,
ff,
f9,
cb,
1e,
e8,
0f,
2c,
18,
f5,
ce,
df,
29,
f2,
d6,
f0,
1c,
2d,
12,
09,
e5,
e1,
d3,
16,
e3,
fa,
12,
f3,
ff,
1d,
38,
10,
58,
aa,
c1,
d8,
07,
dc,
bd,
dc,
f4,
13,
59,
30,
28,
d0,
df,
e1,
14,
f6,
d7,
04,
f8,
e8,
0b,
1e,
1e,
0c,
4a,
3e,
ec,
f3,
f1,
89,
2b,
d3,
11,
c5,
29,
a0,
01,
2c,
dc,
15,
11,
1f,
cd,
04,
c0,
e1,
10,
2c,
c2,
e8,
ab,
e8,
c4,
0d,
55,
f7,
c5,
f5,
00,
c3,
25,
02,
d8,
19,
0a,
fe,
d9,
d7,
f4,
ec,
cc,
04,
d2,
2a,
1a,
04,
ef,
f2,
fa,
1b,
d3,
e0,
f2,
0c,
db,
e9,
06,
e1,
02,
d4,
f2,
26,
f9,
0b,
05,
09,
da,
d0,
f1,
2c,
0c,
fb,
15,
c3,
0f,
fe,
1c,
14,
32,
54,
06,
21,
25,
10,
1f,
d8,
2d,
ff,
e0,
09,
e3,
02,
09,
23,
e9,
78,
02,
19,
d5,
14,
1d,
0f,
de,
df,
2d,
ba,
f6,
fc,
f1,
dd,
de,
22,
d0,
1e,
18,
07,
ee,
1a,
2b,
e7,
de,
ea,
32,
0a,
48,
43,
07,
37,
06,
bb,
21,
fc,
2c,
f9,
19,
25,
ea,
df,
e5,
0e,
0f,
d5,
2a,
23,
ec,
fe,
c9,
f7,
1a,
fe,
16,
22,
13,
5d,
e0,
d5,
2e,
d3,
dd,
f2,
27,
1b,
04,
0e,
17,
fa,
d7,
23,
24,
12,
eb,
d9,
1f,
fe,
06,
46,
04,
f5,
f9,
cd,
df,
f0,
16,
ee,
d5,
ef,
eb,
eb,
0b,
15,
e9,
ff,
d2,
e4,
ee,
2e,
e3,
21,
2b,
eb,
c7,
05,
15,
07,
61,
2e,
f3,
ee,
d8,
ed,
e5,
f1,
09,
c5,
f6,
0b,
0f,
23,
21,
2e,
ca,
ee,
e1,
0f,
f0,
fc,
fa,
21,
46,
e3,
38,
e9,
06,
2e,
d9,
1d,
f1,
db,
23,
cc,
da,
d7,
2e,
ff,
f0,
f9,
f0,
f5,
c4,
ce,
f2,
13,
f9,
37,
fc,
1d,
06,
20,
15,
de,
26,
e7,
da,
fd,
09,
e6,
2c,
0f,
e8,
e2,
08,
21,
07,
17,
10,
da,
e8,
ee,
fd,
11,
f6,
df,
d8,
fb,
01,
f3,
e6,
16,
c7,
f3,
da,
25,
e2,
1a,
aa,
10,
d3,
e8,
bc,
65,
e3,
f3,
e5,
15,
55,
dc,
ee,
00,
ef,
eb,
30,
ed,
ef,
07,
d5,
c2,
c6,
10,
dd,
4b,
95,
d3,
24,
d4,
0b,
d8,
0c,
fa,
c7,
1f,
1c,
18,
0c,
0b,
fd,
21,
ca,
33,
12,
08,
df,
de,
3e,
45,
ac,
f7,
22,
cb,
db,
46,
f2,
09,
08,
e0,
25,
f4,
fd,
0f,
f0,
0b,
fe,
e9,
06,
de,
1a,
e9,
09,
18,
fe,
4e,
12,
f7,
f0,
ea,
18,
17,
18,
31,
30,
d2,
c3,
f9,
11,
24,
04,
21,
01,
e3,
23,
d4,
e2,
ec,
28,
ea,
f5,
01,
0b,
20,
0c,
db,
14,
ee,
df,
10,
df,
10,
20,
03,
15,
f2,
0a,
15,
12,
f6,
14,
10,
f1,
0e,
1a,
05,
f6,
19,
13,
0f,
ec,
f0,
19,
f9,
d5,
00,
1c,
02,
eb,
f6,
dd,
48,
30,
ed,
0b,
d9,
fa,
d3,
05,
07,
e2,
02,
f0,
ee,
ee,
5a,
ee,
f5,
d5,
c2,
e2,
f4,
1e,
05,
08,
f8,
fa,
11,
13,
ff,
0b,
ec,
24,
f1,
0a,
fd,
43,
eb,
ed,
f3,
81,
e8,
13,
e4,
44,
e9,
14,
ea,
e7,
ea,
e1,
23,
d9,
ed,
f7,
09,
37,
d5,
e4,
d4,
db,
db,
f3,
3c,
0c,
02,
2e,
d8,
03,
ee,
fe,
fb,
e3,
e6,
fe,
00,
eb,
1c,
02,
ce,
22,
2b,
1f,
1b,
f3,
d9,
46,
18,
ff,
d9,
13,
0d,
fb,
d7,
46,
f6,
f0,
ec,
1b,
f5,
dc,
18,
04,
0d,
01,
ef,
05,
05,
d6,
d1,
fb,
f6,
fb,
e2,
f5,
3a,
41,
e1,
cb,
26,
21,
d8,
d7,
19,
17,
cd,
e0,
1e,
10,
03,
e8,
ec,
c0,
fa,
ed,
ff,
34,
f6,
12,
28,
d0,
12,
20,
f0,
be,
4a,
fe,
fe,
f5,
0f,
21,
fb,
ed,
fa,
fe,
c6,
1c,
19,
57,
22,
01,
1d,
2f,
24,
cc,
3e,
f0,
f6,
db,
f2,
40,
a5,
c9,
08,
03,
f8,
16,
08,
f0,
17,
ed,
d8,
e2,
df,
05,
12,
fe,
1d,
00,
0b,
2f,
1b,
e0,
0b,
34,
f2,
b4,
03,
e9,
ed,
cf,
12,
1c,
eb,
f2,
1e,
03,
25,
14,
07,
c3,
e0,
e2,
f3,
c8,
29,
24,
fc,
05,
26,
f0,
d7,
f4,
0f,
12,
d5,
fc,
b5,
03,
1c,
d6,
5e,
0a,
d4,
52,
02,
2b,
f1,
ba,
30,
0f,
05,
f2,
fc,
09,
d0,
fe,
dd,
ed,
f8,
f6,
bd,
09,
f6,
23,
ee,
bd,
32,
2c,
25,
a7,
bd,
1c,
fb,
44,
19,
ea,
0b,
d2,
31,
02,
eb,
f3,
fb,
0b,
11,
d3,
fb,
de,
d3,
f7,
06,
e3,
19,
21,
0a,
cd,
30,
fb,
3c,
e9,
03,
09,
dc,
19,
1d,
1a,
03,
eb,
13,
fd,
0b,
11,
13,
1e,
ea,
ff,
03,
20,
c7,
01,
cb,
ed,
03,
eb,
08,
f5,
db,
db,
0d,
17,
cc,
22,
0c,
f9,
1e,
f4,
0a,
12,
f3,
e6,
49,
fc,
0b,
f9,
25,
02,
2a,
0b,
30,
07,
05,
f7,
0f,
24,
fc,
12,
21,
17,
0f,
f1,
d7,
27,
18,
f1,
22,
06,
21,
13,
d5,
e5,
1f,
d4,
ec,
0d,
50,
cd,
f2,
f3,
36,
0d,
c4,
f1,
0f,
02,
1a,
e5,
36,
fb,
ea,
0f,
e9,
0f,
f1,
ea,
23,
5b,
18,
16,
25,
fe,
ff,
d9,
03,
05,
f8,
e2,
da,
e7,
1f,
14,
49,
fc,
eb,
31,
e9,
3d,
cf,
d9,
e7,
1d,
15,
1d,
ff,
01,
ea,
db,
d8,
ff,
f5,
ea,
2e,
14,
e3,
f0,
26,
bc,
37,
ec,
28,
12,
29,
e6,
c3,
16,
fc,
cb,
10,
f9,
e0,
1f,
f6,
0b,
f2,
dd,
01,
12,
fd,
eb,
fa,
09,
09,
0f,
00,
fb,
f1,
0f,
0a,
fe,
c0,
11,
05,
f4,
18,
04,
da,
3c,
18,
0d,
23,
e2,
35,
e9,
1f,
06,
d5,
15,
cb,
1f,
f3,
de,
3a,
0b,
12,
1a,
ea,
2f,
ba,
c2,
1a,
04,
d8,
f9,
11,
04,
24,
0f,
ce,
ff,
03,
14,
2c,
d7,
10,
12,
ee,
e5,
21,
e0,
f0,
f4,
0a,
ee,
e8,
ec,
23,
2a,
10,
c7,
23,
ce,
13,
dd,
fb,
f9,
ef,
10,
20,
f9,
db,
0a,
ba,
14,
f3,
eb,
ea,
23,
0b,
20,
24,
f9,
de,
20,
1f,
f1,
db,
2e,
0a,
fe,
0a,
13,
13,
1a,
fe,
f9,
04,
ef,
04,
04,
fd,
30,
d5,
1e,
0a,
11,
f7,
cf,
f1,
d7,
13,
13,
be,
fa,
e5,
df,
e3,
22,
e8,
d2,
12,
cd,
16,
0c,
3f,
f9,
3c,
27,
26,
1b,
25,
cd,
d0,
e6,
29,
26,
d7,
e3,
12,
fc,
dc,
08,
13,
c2,
f0,
d0,
de,
08,
e7,
f9,
20,
00,
d6,
e3,
05,
1d,
0a,
e3,
e5,
14,
0f,
de,
fd,
1d,
f9,
12,
e9,
1b,
f5,
1d,
e8,
02,
e7,
00,
f5,
12,
f6,
03,
fc,
0d,
ec,
e3,
f6,
e4,
17,
1d,
12,
f4,
20,
ef,
ef,
09,
af,
02,
01,
25,
01,
15,
d5,
d5,
05,
05,
d4,
cc,
24,
43,
bb,
f7,
0c,
18,
e6,
08,
e1,
08,
e8,
f8,
f9,
03,
e7,
ee,
eb,
f9,
01,
16,
e6,
f5,
f0,
e4,
ed,
da,
48,
be,
ea,
09,
f9,
06,
11,
11,
e0,
02,
0a,
e3,
35,
fd,
13,
ee,
28,
26,
28,
05,
3c,
ae,
fd,
27,
fe,
c4,
06,
e6,
e5,
ee,
e4,
d4,
e3,
ed,
0e,
1d,
ed,
0f,
1b,
0e,
dc,
f8,
00,
f6,
13,
16,
df,
fd,
09,
0d,
23,
f1,
1e,
c6,
12,
2c,
a3,
4d,
ee,
02,
1e,
00,
fa,
f5,
f8,
f8,
f6,
d5,
f6,
fd,
0f,
ec,
12,
ed,
17,
f3,
18,
e6,
1c,
16,
1b,
20,
16,
e1,
05,
14,
df,
e8,
08,
0c,
e7,
e6,
1f,
eb,
06,
0d,
07,
0e,
e3,
f3,
d9,
0e,
f6,
06,
14,
05,
0e,
f7,
fc,
ee,
e3,
fd,
32,
e6,
f3,
23,
15,
1a,
14,
f4,
fc,
31,
d5,
03,
12,
dc,
14,
e8,
ec,
d9,
e5,
29,
20,
db,
ec,
dc,
0c,
ce,
37,
e0,
2f,
16,
09,
03,
fe,
a0,
01,
19,
f4,
02,
a9,
1d,
02,
bb,
1f,
f7,
12,
09,
02,
01,
06,
e7,
fe,
ce,
d6,
8e,
45,
07,
e0,
d4,
97,
67,
f5,
f7,
f8,
28,
e7,
03,
25,
f8,
07,
f6,
ca,
d9,
ef,
00,
e9,
2a,
00,
07,
3d,
81,
01,
04,
e5,
21,
c3,
4a,
15,
d7,
3c,
de,
2d,
1e,
da,
d7,
c7,
dd,
e0,
f2,
06,
27,
c6,
2e,
06,
10,
20,
ea,
0e,
0a,
dd,
06,
2f,
24,
f8,
06,
20,
19,
d2,
df,
13,
ec,
06,
f4,
1d,
d9,
db,
ff,
1e,
e8,
c2,
0e,
fd,
02,
ea,
0a,
23,
0b,
32,
da,
c6,
30,
ed,
1f,
1c,
02,
19,
06,
e0,
0d,
14,
ad,
df,
f5,
ee,
11,
f7,
d6,
e1,
08,
f0,
21,
c8,
ff,
f1,
e5,
d1,
17,
e7,
0e,
08,
e0,
c6,
eb,
11,
db,
f8,
0e,
04,
f0,
18,
28,
2e,
fc,
0c,
fd,
03,
f1,
e7,
19,
fa,
15,
d9,
14,
f7,
0e,
1f,
f6,
e7,
14,
03,
ee,
f5,
25,
f0,
9c,
51,
e1,
0a,
f4,
36,
d2,
00,
0f,
f8,
11,
20,
16,
48,
00,
04,
ec,
00,
f3,
11,
fe,
f3,
fb,
1d,
f5,
fd,
2e,
c7,
2a,
e1,
f8,
29,
d4,
2c,
f2,
0c,
e6,
fb,
12,
e1,
e7,
f2,
0d,
11,
ee,
e6,
c9,
f5,
e0,
dd,
c4,
d2,
39,
f0,
fa,
ef,
e9,
40,
1a,
e6,
b1,
22,
0f,
10,
ed,
f9,
fc,
ec,
17,
21,
41,
de,
ef,
dd,
fe,
ef,
d0,
01,
09,
17,
2c,
f5,
f3,
23,
01,
13,
22,
26,
22,
f7,
02,
e5,
06,
fa,
07,
e7,
f8,
27,
08,
e1,
0e,
e4,
f6,
04,
e3,
ff,
fb,
eb,
38,
d2,
ff,
26,
1c,
f6,
e7,
e9,
f1,
df,
16,
ed,
f3,
25,
fb,
e9,
fd,
f2,
d6,
11,
1a,
08,
f2,
e3,
cd,
fa,
fe,
f1,
f4,
d3,
0b,
f6,
f6,
13,
fc,
e2,
ec,
1d,
f8,
1b,
f7,
e9,
05,
b7,
e2,
06,
0e,
f7,
e0,
f6,
13,
d8,
06,
ea,
cc,
d2,
ed,
d9,
10,
10,
0a,
f1,
e7,
0f,
cf,
2a,
e9,
29,
27,
e9,
1a,
05,
14,
24,
e2,
13,
f0,
04,
13,
f3,
25,
e3,
e6,
c8,
02,
fc,
d6,
fb,
16,
df,
13,
0a,
ea,
16,
e8,
0d,
fe,
b0,
2d,
bc,
14,
05,
d7,
f7,
1b,
0c,
e7,
e5,
1e,
1c,
ee,
0d,
1e,
0e,
0b,
e7,
0e,
29,
b6,
16,
ea,
e2,
28,
af,
0d,
f0,
1b,
28,
d4,
22,
db,
1c,
ea,
0a,
1c,
ef,
eb,
1e,
48,
e2,
f4,
db,
08,
2a,
ef,
d1,
09,
28,
b6,
3d,
04,
f5,
0e,
2e,
ca,
0a,
11,
d9,
18,
eb,
ed,
ec,
d9,
0c,
f0,
f3,
f3,
03,
2d,
ec,
15,
17,
f3,
05,
d4,
fd,
dc,
fb,
09,
1e,
1c,
f6,
15,
f9,
e1,
f4,
ef,
04,
10,
04,
f1,
ec,
24,
eb,
da,
0e,
f2,
1c,
e3,
fd,
da,
f1,
c6,
eb,
e9,
e2,
02,
07,
16,
1e,
1a,
04,
ec,
e6,
e1,
22,
16,
12,
00,
41,
33,
00,
e3,
18,
fd,
14,
08,
15,
01,
eb,
d8,
de,
1e,
26,
09,
e6,
0b,
17,
16,
e3,
e8,
13,
f2,
0d,
14,
04,
08,
16,
ee,
27,
d1,
e9,
e0,
2b,
df,
23,
24,
14,
08,
1e,
ed,
07,
f5,
d1,
fd,
dc,
06,
15,
d2,
03,
ed,
dc,
1a,
e2,
07,
d1,
f5,
eb,
03,
1b,
2d,
d2,
ec,
dc,
de,
dc,
f8,
fe,
08,
08,
07,
f2,
06,
22,
d9,
f6,
24,
0d,
11,
0f,
08,
f0,
2c,
d2,
03,
d2,
15,
1a,
e7,
eb,
0b,
01,
e5,
0f,
1a,
f2,
e3,
07,
f8,
f1,
06,
ed,
13,
ff,
f1,
0b,
13,
e9,
e9,
f2,
e9,
0b,
f0,
f6,
fb,
e4,
e6,
07,
e0,
d9,
04,
f9,
fb,
d5,
4c,
0f,
f5,
07,
0a,
07,
12,
19,
cc,
04,
df,
dc,
0b,
f3,
1f,
e9,
09,
dd,
0f,
d7,
2a,
03,
07,
1c,
dc,
3b,
03,
eb,
25,
c6,
29,
ff,
ee,
4e,
e0,
09,
e2,
08,
e3,
f7,
17,
06,
0d,
ed,
16,
02,
18,
0f,
11,
15,
fa,
0d,
f1,
ed,
19,
49,
e2,
f6,
e9,
f8,
24,
ee,
fe,
12,
ff,
02,
0a,
eb,
0e,
26,
17,
22,
fd,
f9,
1d,
fa,
fe,
01,
f6,
f5,
fc,
12,
0a,
f7,
27,
fe,
20,
13,
f9,
18,
07,
fb,
12,
12,
f1,
03,
05,
f5,
f3,
f8,
eb,
11,
ee,
f9,
0c,
dc,
f0,
f0,
f1,
dc,
07,
e2,
fa,
12,
f0,
f8,
1b,
f0,
e4,
1b,
f6,
e4,
0f,
c4,
2a,
fd,
f0,
10,
19,
f0,
20,
1c,
f1,
e0,
f5,
e6,
e9,
0d,
2d,
12,
09,
04,
ec,
1a,
13,
c8,
2d,
0b,
ea,
e2,
21,
eb,
f6,
dc,
0e,
e9,
16,
00,
db,
b4,
4c,
05,
07,
ec,
27,
df,
12,
f2,
0c,
42,
fb,
35,
d6,
1b,
ea,
03,
ed,
1d,
d8,
14,
1d,
c1,
e9,
c1,
bb,
e5,
f3,
11,
04,
0c,
d9,
f7,
e9,
ee,
1e,
07,
f4,
14,
08,
d1,
1b,
fe,
dd,
08,
09,
e7,
f8,
f5,
ba,
27,
25,
f8,
07,
ed,
13,
07,
04,
03,
06,
26,
ea,
f2,
05,
f4,
de,
21,
19,
e8,
2f,
c6,
52,
1d,
da,
f4,
0d,
cf,
fe,
e7,
fb,
c7,
f5,
f5,
06,
1c,
02,
06,
f6,
20,
06,
c9,
40,
fe,
02,
ea,
18,
16,
0c,
eb,
f3,
0a,
e4,
d9,
06,
e6,
0a,
db,
f6,
fe,
09,
ea,
0c,
02,
fd,
08,
22,
27,
fb,
f8,
00,
b6,
1e,
dc,
e7,
cf,
30,
ca,
f2,
e6,
09,
3a,
fc,
f2,
12,
dc,
07,
00,
fc,
e1,
f4,
30,
0c,
