MEMORY_INITIALIZATION_RADIX = 16;
MEMORY_INITIALIZATION_VECTOR = 
00000413,
fffffb85,
fffffe39,
000006ea,
000006b6,
000000a6,
0000006c,
fffffc38,
0000011b,
00000436,
000004d9,
fffff5b1,
0000078e,
0000083d,
fffff8dd,
0000008e,
000001fc,
fffffd80,
fffffe75,
fffffb23,
fffff804,
000002d1,
0000005a,
fffffe7e,
fffffa47,
fffff814,
fffff424,
fffffe23,
fffffba0,
00000329,
fffff9f6,
00000251;